#ifndef FALL_DETECTION_V19_H
#define FALL_DETECTION_V19_H

const unsigned char fall_detection_model_v19[] = {
  0x1c, 0x00, 0x00, 0x00, 0x54, 0x46, 0x4c, 0x33, 0x14, 0x00, 0x20, 0x00,
  0x1c, 0x00, 0x18, 0x00, 0x14, 0x00, 0x10, 0x00, 0x0c, 0x00, 0x00, 0x00,
  0x08, 0x00, 0x04, 0x00, 0x14, 0x00, 0x00, 0x00, 0x1c, 0x00, 0x00, 0x00,
  0x8c, 0x00, 0x00, 0x00, 0xe4, 0x00, 0x00, 0x00, 0xb8, 0x1b, 0x00, 0x00,
  0xc8, 0x1b, 0x00, 0x00, 0x98, 0x5d, 0x00, 0x00, 0x03, 0x00, 0x00, 0x00,
  0x01, 0x00, 0x00, 0x00, 0x04, 0x00, 0x00, 0x00, 0xda, 0xdf, 0xff, 0xff,
  0x0c, 0x00, 0x00, 0x00, 0x1c, 0x00, 0x00, 0x00, 0x3c, 0x00, 0x00, 0x00,
  0x0f, 0x00, 0x00, 0x00, 0x73, 0x65, 0x72, 0x76, 0x69, 0x6e, 0x67, 0x5f,
  0x64, 0x65, 0x66, 0x61, 0x75, 0x6c, 0x74, 0x00, 0x01, 0x00, 0x00, 0x00,
  0x04, 0x00, 0x00, 0x00, 0x90, 0xff, 0xff, 0xff, 0x2d, 0x00, 0x00, 0x00,
  0x04, 0x00, 0x00, 0x00, 0x08, 0x00, 0x00, 0x00, 0x6f, 0x75, 0x74, 0x70,
  0x75, 0x74, 0x5f, 0x30, 0x00, 0x00, 0x00, 0x00, 0x01, 0x00, 0x00, 0x00,
  0x04, 0x00, 0x00, 0x00, 0xce, 0xe4, 0xff, 0xff, 0x04, 0x00, 0x00, 0x00,
  0x0f, 0x00, 0x00, 0x00, 0x6b, 0x65, 0x72, 0x61, 0x73, 0x5f, 0x74, 0x65,
  0x6e, 0x73, 0x6f, 0x72, 0x5f, 0x35, 0x31, 0x00, 0x02, 0x00, 0x00, 0x00,
  0x34, 0x00, 0x00, 0x00, 0x04, 0x00, 0x00, 0x00, 0xdc, 0xff, 0xff, 0xff,
  0x30, 0x00, 0x00, 0x00, 0x04, 0x00, 0x00, 0x00, 0x13, 0x00, 0x00, 0x00,
  0x43, 0x4f, 0x4e, 0x56, 0x45, 0x52, 0x53, 0x49, 0x4f, 0x4e, 0x5f, 0x4d,
  0x45, 0x54, 0x41, 0x44, 0x41, 0x54, 0x41, 0x00, 0x08, 0x00, 0x0c, 0x00,
  0x08, 0x00, 0x04, 0x00, 0x08, 0x00, 0x00, 0x00, 0x2f, 0x00, 0x00, 0x00,
  0x04, 0x00, 0x00, 0x00, 0x13, 0x00, 0x00, 0x00, 0x6d, 0x69, 0x6e, 0x5f,
  0x72, 0x75, 0x6e, 0x74, 0x69, 0x6d, 0x65, 0x5f, 0x76, 0x65, 0x72, 0x73,
  0x69, 0x6f, 0x6e, 0x00, 0x31, 0x00, 0x00, 0x00, 0xd0, 0x1a, 0x00, 0x00,
  0xc8, 0x1a, 0x00, 0x00, 0xb4, 0x1a, 0x00, 0x00, 0x90, 0x1a, 0x00, 0x00,
  0x7c, 0x1a, 0x00, 0x00, 0x60, 0x1a, 0x00, 0x00, 0x44, 0x1a, 0x00, 0x00,
  0x28, 0x1a, 0x00, 0x00, 0x14, 0x1a, 0x00, 0x00, 0xf4, 0x19, 0x00, 0x00,
  0xa4, 0x19, 0x00, 0x00, 0x94, 0x15, 0x00, 0x00, 0x84, 0x14, 0x00, 0x00,
  0x74, 0x0c, 0x00, 0x00, 0xc4, 0x0b, 0x00, 0x00, 0x34, 0x0b, 0x00, 0x00,
  0x24, 0x07, 0x00, 0x00, 0x94, 0x06, 0x00, 0x00, 0x8c, 0x06, 0x00, 0x00,
  0xdc, 0x05, 0x00, 0x00, 0x4c, 0x05, 0x00, 0x00, 0x7c, 0x01, 0x00, 0x00,
  0x64, 0x01, 0x00, 0x00, 0x4c, 0x01, 0x00, 0x00, 0x44, 0x01, 0x00, 0x00,
  0x3c, 0x01, 0x00, 0x00, 0x34, 0x01, 0x00, 0x00, 0x2c, 0x01, 0x00, 0x00,
  0x24, 0x01, 0x00, 0x00, 0x1c, 0x01, 0x00, 0x00, 0x14, 0x01, 0x00, 0x00,
  0x0c, 0x01, 0x00, 0x00, 0x04, 0x01, 0x00, 0x00, 0xfc, 0x00, 0x00, 0x00,
  0xf4, 0x00, 0x00, 0x00, 0xec, 0x00, 0x00, 0x00, 0xe4, 0x00, 0x00, 0x00,
  0xdc, 0x00, 0x00, 0x00, 0xd4, 0x00, 0x00, 0x00, 0xcc, 0x00, 0x00, 0x00,
  0xc4, 0x00, 0x00, 0x00, 0xbc, 0x00, 0x00, 0x00, 0xb4, 0x00, 0x00, 0x00,
  0xac, 0x00, 0x00, 0x00, 0xa4, 0x00, 0x00, 0x00, 0x9c, 0x00, 0x00, 0x00,
  0x94, 0x00, 0x00, 0x00, 0x74, 0x00, 0x00, 0x00, 0x04, 0x00, 0x00, 0x00,
  0x0e, 0xe6, 0xff, 0xff, 0x04, 0x00, 0x00, 0x00, 0x60, 0x00, 0x00, 0x00,
  0x0c, 0x00, 0x00, 0x00, 0x08, 0x00, 0x0e, 0x00, 0x08, 0x00, 0x04, 0x00,
  0x08, 0x00, 0x00, 0x00, 0x10, 0x00, 0x00, 0x00, 0x28, 0x00, 0x00, 0x00,
  0x00, 0x00, 0x06, 0x00, 0x08, 0x00, 0x04, 0x00, 0x06, 0x00, 0x00, 0x00,
  0x04, 0x00, 0x00, 0x00, 0x01, 0x00, 0x00, 0x00, 0xeb, 0x03, 0x00, 0x00,
  0x0c, 0x00, 0x18, 0x00, 0x14, 0x00, 0x10, 0x00, 0x0c, 0x00, 0x04, 0x00,
  0x0c, 0x00, 0x00, 0x00, 0x57, 0x68, 0xad, 0x36, 0xca, 0xc1, 0x5d, 0x50,
  0x02, 0x00, 0x00, 0x00, 0x02, 0x00, 0x00, 0x00, 0x04, 0x00, 0x00, 0x00,
  0x06, 0x00, 0x00, 0x00, 0x32, 0x2e, 0x32, 0x31, 0x2e, 0x30, 0x00, 0x00,
  0x7a, 0xe6, 0xff, 0xff, 0x04, 0x00, 0x00, 0x00, 0x10, 0x00, 0x00, 0x00,
  0x31, 0x2e, 0x31, 0x34, 0x2e, 0x30, 0x00, 0x00, 0x00, 0x00, 0x00, 0x00,
  0x00, 0x00, 0x00, 0x00, 0x88, 0xa5, 0xff, 0xff, 0x8c, 0xa5, 0xff, 0xff,
  0x90, 0xa5, 0xff, 0xff, 0x94, 0xa5, 0xff, 0xff, 0x98, 0xa5, 0xff, 0xff,
  0x9c, 0xa5, 0xff, 0xff, 0xa0, 0xa5, 0xff, 0xff, 0xa4, 0xa5, 0xff, 0xff,
  0xa8, 0xa5, 0xff, 0xff, 0xac, 0xa5, 0xff, 0xff, 0xb0, 0xa5, 0xff, 0xff,
  0xb4, 0xa5, 0xff, 0xff, 0xb8, 0xa5, 0xff, 0xff, 0xbc, 0xa5, 0xff, 0xff,
  0xc0, 0xa5, 0xff, 0xff, 0xc4, 0xa5, 0xff, 0xff, 0xc8, 0xa5, 0xff, 0xff,
  0xcc, 0xa5, 0xff, 0xff, 0xd0, 0xa5, 0xff, 0xff, 0xd4, 0xa5, 0xff, 0xff,
  0xd8, 0xa5, 0xff, 0xff, 0xdc, 0xa5, 0xff, 0xff, 0xe0, 0xa5, 0xff, 0xff,
  0xf2, 0xe6, 0xff, 0xff, 0x04, 0x00, 0x00, 0x00, 0x06, 0x00, 0x00, 0x00,
  0xbb, 0xc3, 0xc0, 0x4b, 0x80, 0x7f, 0x00, 0x00, 0x06, 0xe7, 0xff, 0xff,
  0x04, 0x00, 0x00, 0x00, 0x06, 0x00, 0x00, 0x00, 0x7a, 0x4e, 0x7f, 0x81,
  0x82, 0x81, 0x00, 0x00, 0x1a, 0xe7, 0xff, 0xff, 0x04, 0x00, 0x00, 0x00,
  0xc0, 0x03, 0x00, 0x00, 0x73, 0xbb, 0xad, 0x3d, 0x19, 0x7f, 0xa9, 0x1f,
  0x6d, 0x63, 0x6b, 0x4d, 0x3a, 0x03, 0x10, 0x61, 0x2e, 0x72, 0xbf, 0x7d,
  0xfd, 0x55, 0x38, 0x24, 0xae, 0x9c, 0xd5, 0x8a, 0xd2, 0xa8, 0x81, 0xfa,
  0x4b, 0xe9, 0xa8, 0xd0, 0xa1, 0x58, 0xa7, 0x6b, 0x39, 0x22, 0xb7, 0x70,
  0x06, 0x0b, 0xc5, 0x42, 0xc8, 0x49, 0x20, 0xd9, 0xf5, 0xd4, 0x48, 0xdc,
  0xdb, 0xbb, 0x32, 0xc3, 0xf5, 0xc3, 0x0b, 0xd1, 0x48, 0xdc, 0x2a, 0xac,
  0x46, 0xe8, 0xcc, 0xdd, 0x05, 0xb4, 0x81, 0x30, 0xb8, 0x2e, 0x2f, 0x47,
  0x05, 0x04, 0xfb, 0xae, 0x50, 0xbb, 0xbe, 0x49, 0xea, 0x92, 0x66, 0x28,
  0x1a, 0x3e, 0x04, 0x36, 0x7c, 0xea, 0xf8, 0xd9, 0xfb, 0x13, 0x7f, 0x25,
  0xde, 0xd3, 0x12, 0xba, 0xf5, 0x14, 0xe4, 0xed, 0x0a, 0x06, 0x0f, 0x1a,
  0xac, 0x6a, 0xca, 0x2e, 0x66, 0x06, 0x23, 0x27, 0xde, 0x24, 0xd7, 0x02,
  0x23, 0x0b, 0x25, 0x27, 0xd6, 0x25, 0x1d, 0xe7, 0x7f, 0x23, 0x0a, 0xe1,
  0x48, 0x0b, 0xfa, 0x10, 0xbf, 0x08, 0xfd, 0xcc, 0x54, 0xe1, 0xf6, 0x12,
  0xfa, 0x2a, 0x8a, 0x42, 0xc9, 0x46, 0x19, 0x98, 0x2b, 0x5f, 0x55, 0x45,
  0xe7, 0x51, 0x30, 0x2a, 0x1c, 0x7c, 0x25, 0x09, 0x4d, 0x21, 0xfa, 0x0d,
  0x72, 0x81, 0x5c, 0x29, 0x92, 0x99, 0x5f, 0xe4, 0xb6, 0xdc, 0xf1, 0xb3,
  0x92, 0xae, 0xb2, 0xc3, 0xb5, 0x52, 0xdf, 0x49, 0x70, 0xc2, 0x4d, 0xf4,
  0xf1, 0x43, 0xde, 0x9e, 0xc6, 0xc4, 0x81, 0x0f, 0xf6, 0x37, 0xbe, 0x0b,
  0x5f, 0x15, 0xda, 0x81, 0xb8, 0x19, 0xfa, 0xe9, 0x3b, 0xff, 0xb9, 0xf8,
  0x51, 0x23, 0xbc, 0xca, 0xc8, 0xf8, 0xd5, 0x10, 0x26, 0x9d, 0xc2, 0xd8,
  0x49, 0xa7, 0xa9, 0xdb, 0xc3, 0x62, 0x33, 0xd2, 0x7b, 0x7f, 0x42, 0x22,
  0x0b, 0xd9, 0xce, 0x34, 0xb6, 0x15, 0x41, 0xf9, 0xce, 0xf7, 0x5e, 0xd7,
  0x04, 0x09, 0x3a, 0x31, 0xfb, 0xaf, 0x53, 0x8b, 0xce, 0xa1, 0xc8, 0x49,
  0x61, 0x3b, 0x7f, 0xed, 0xed, 0x2d, 0xb4, 0x6a, 0xe6, 0xf8, 0xef, 0xa3,
  0x43, 0x2b, 0xab, 0x5d, 0xff, 0x2b, 0xba, 0xc7, 0x49, 0x34, 0xfd, 0xe5,
  0x01, 0xbf, 0xcc, 0xc7, 0xab, 0xf5, 0x31, 0xf1, 0x48, 0xb0, 0xdc, 0x26,
  0x4a, 0xcd, 0x06, 0xea, 0xbb, 0x18, 0x60, 0x6d, 0x81, 0xa9, 0x30, 0xe0,
  0x9e, 0x47, 0x2d, 0xd8, 0xdc, 0x79, 0x2a, 0xb5, 0xbb, 0xc0, 0xcc, 0xe5,
  0xbb, 0x4e, 0x45, 0x0d, 0xe8, 0xa0, 0x14, 0x35, 0x2f, 0x94, 0x7f, 0xdc,
  0x26, 0xbf, 0xc5, 0xb0, 0xea, 0x51, 0xcb, 0x5f, 0x43, 0x42, 0x56, 0x38,
  0xf6, 0xab, 0xa0, 0xdb, 0xef, 0x36, 0x3d, 0x81, 0x88, 0x25, 0x23, 0xcb,
  0x01, 0xf6, 0xca, 0xc5, 0x1f, 0xcc, 0x24, 0x09, 0x1c, 0x11, 0x99, 0x06,
  0x06, 0xc7, 0x64, 0xfc, 0x2d, 0xda, 0xb8, 0xc5, 0xe6, 0x52, 0x7b, 0x9b,
  0xda, 0xd6, 0x4f, 0x1f, 0x7f, 0x49, 0xed, 0xf3, 0xe9, 0xc2, 0xfa, 0x22,
  0x03, 0x7f, 0x05, 0x3f, 0x4e, 0x36, 0xe2, 0x09, 0xf9, 0xed, 0x39, 0x14,
  0xe1, 0x5c, 0x2d, 0x65, 0x3a, 0xd1, 0x49, 0xe3, 0xd3, 0x3b, 0x1b, 0xe5,
  0xc4, 0x4a, 0xff, 0x43, 0x56, 0xe9, 0xf7, 0xc1, 0xfc, 0xa8, 0x4d, 0xb7,
  0xfa, 0x0f, 0xbc, 0x36, 0x41, 0xf8, 0x81, 0x32, 0xfa, 0x96, 0x38, 0xfe,
  0xd5, 0x4b, 0x0f, 0x5e, 0xe6, 0xe3, 0x39, 0xba, 0x22, 0x63, 0xbc, 0x00,
  0xae, 0xcf, 0x0a, 0x7f, 0x0b, 0x13, 0xaa, 0xa6, 0xd3, 0xb8, 0x58, 0x3e,
  0x51, 0x9d, 0x10, 0xc5, 0xf4, 0xe0, 0xcc, 0xcf, 0xbe, 0xaf, 0xfd, 0x30,
  0xb6, 0x51, 0x28, 0x0b, 0xf0, 0x04, 0xab, 0x48, 0xad, 0xb0, 0x4d, 0x3c,
  0x2c, 0xc7, 0x7f, 0x1a, 0xe3, 0xc5, 0x1b, 0xfc, 0x2f, 0xb3, 0xc6, 0xaa,
  0x8f, 0x6c, 0xb0, 0xfe, 0xd9, 0xbe, 0x27, 0xef, 0x2d, 0x7f, 0xe2, 0x2f,
  0x67, 0x83, 0x3b, 0x8e, 0x48, 0xe9, 0xbf, 0x17, 0xa7, 0x35, 0x1e, 0xb7,
  0xbd, 0xae, 0xb8, 0xf7, 0x51, 0xf2, 0x4e, 0xa9, 0x6d, 0x9a, 0x67, 0x05,
  0xca, 0x00, 0x05, 0xc9, 0x44, 0x30, 0x81, 0xc6, 0xac, 0x10, 0x5b, 0x12,
  0xb0, 0x3a, 0x08, 0x1d, 0x5a, 0x2b, 0x51, 0x28, 0xab, 0x27, 0x35, 0xc9,
  0x29, 0x07, 0xc1, 0xaa, 0x42, 0xbd, 0xf5, 0xf6, 0xc3, 0x04, 0xa6, 0xdf,
  0xa3, 0xe9, 0xb0, 0x47, 0x6d, 0xb2, 0x7f, 0x60, 0x44, 0x51, 0xc7, 0xf5,
  0x23, 0x03, 0xf0, 0xe1, 0x53, 0x81, 0xd0, 0x42, 0x0d, 0xf0, 0xd6, 0x48,
  0x4e, 0xf1, 0x1b, 0x32, 0x3f, 0xf6, 0x54, 0x29, 0xe5, 0xf0, 0x31, 0xc8,
  0x46, 0xf3, 0xc1, 0xc7, 0x72, 0x8b, 0x93, 0xeb, 0xbd, 0x4a, 0xee, 0xfb,
  0x58, 0xde, 0xcf, 0xee, 0xdb, 0xd2, 0x5c, 0xe7, 0x73, 0x91, 0xa1, 0xe9,
  0xbe, 0x3b, 0x01, 0x14, 0xf7, 0x58, 0xdc, 0xf1, 0xc7, 0x49, 0x7f, 0xcd,
  0xfc, 0xd0, 0x53, 0xa2, 0xc2, 0x86, 0x7d, 0x7b, 0x67, 0x6c, 0x3d, 0x49,
  0x9b, 0xd2, 0x62, 0xe2, 0xf4, 0x6c, 0xa6, 0x74, 0x3b, 0x3d, 0xdf, 0x4e,
  0x90, 0x64, 0xdf, 0x26, 0x57, 0x50, 0x81, 0x03, 0x49, 0x59, 0xf0, 0x15,
  0x0a, 0x05, 0x03, 0x81, 0x05, 0xda, 0xe0, 0x38, 0x1e, 0xf2, 0x5d, 0xe9,
  0xf8, 0x2e, 0x3d, 0x1c, 0x21, 0xbc, 0xcf, 0xa2, 0xbc, 0xf4, 0xd3, 0xde,
  0xf8, 0x15, 0xb4, 0x31, 0x52, 0x26, 0xc4, 0x32, 0xd4, 0xeb, 0x12, 0xb5,
  0xff, 0xbf, 0x06, 0xed, 0xbd, 0xbe, 0x06, 0x6a, 0xb1, 0x91, 0xcd, 0x64,
  0xe7, 0x65, 0xb7, 0x0b, 0xd6, 0xe7, 0xa6, 0x4b, 0x27, 0x81, 0x59, 0xe3,
  0xdd, 0x81, 0xf5, 0x51, 0xc5, 0xa0, 0xf7, 0xcf, 0x03, 0xf5, 0xf7, 0xc2,
  0xd3, 0x42, 0xef, 0x27, 0x14, 0xee, 0xdb, 0x04, 0x0c, 0xd9, 0x12, 0x21,
  0x43, 0x12, 0xfc, 0x8f, 0x7f, 0xb7, 0xaa, 0xa1, 0x57, 0xaf, 0x1e, 0x5f,
  0xac, 0xcf, 0xda, 0x5d, 0x55, 0x6c, 0x4b, 0x21, 0x37, 0xfb, 0xf9, 0x60,
  0x1a, 0x3a, 0x42, 0x40, 0x1d, 0xa3, 0x9b, 0xe3, 0xf2, 0x86, 0xe0, 0x3b,
  0x6e, 0x1b, 0x1c, 0xc1, 0xe0, 0xf3, 0x3c, 0xd3, 0x4d, 0x06, 0xb8, 0xa9,
  0xee, 0x11, 0xf9, 0xf9, 0x00, 0xc3, 0xaa, 0x54, 0x7f, 0xcf, 0x89, 0xb2,
  0x3e, 0x07, 0x4b, 0x9a, 0xd5, 0xec, 0x7f, 0xb3, 0x96, 0xd1, 0xe1, 0xa4,
  0xfe, 0x18, 0xd2, 0x87, 0xb2, 0xc6, 0x3d, 0x20, 0xcb, 0x55, 0xc3, 0x2f,
  0x24, 0xe2, 0xba, 0xb4, 0x5a, 0x51, 0x0e, 0xa3, 0x9e, 0x0f, 0xd6, 0x20,
  0xb9, 0x2e, 0xfd, 0xd6, 0x6b, 0xdb, 0xf6, 0xe6, 0x02, 0xd5, 0x32, 0xdd,
  0xc4, 0xd1, 0x25, 0x0d, 0x09, 0xac, 0xd1, 0xc0, 0x81, 0x13, 0x17, 0xa8,
  0x1c, 0xc3, 0x2d, 0x7b, 0x22, 0x9f, 0xa0, 0x3b, 0xf9, 0x12, 0x81, 0x3f,
  0x9d, 0xcf, 0x8f, 0xfa, 0x52, 0xcc, 0x9c, 0xdf, 0x43, 0xf1, 0x69, 0x99,
  0xaf, 0x39, 0xc4, 0x40, 0x60, 0x48, 0x55, 0xf6, 0xda, 0x30, 0x18, 0xe3,
  0xa9, 0xda, 0x39, 0x10, 0x30, 0x02, 0x48, 0x26, 0xd5, 0x81, 0xfc, 0xde,
  0x2e, 0x67, 0x41, 0xc8, 0xbc, 0x1b, 0x30, 0x78, 0xd6, 0x29, 0x22, 0xb2,
  0xc1, 0xa8, 0xfe, 0xba, 0xe6, 0xea, 0xff, 0xff, 0x04, 0x00, 0x00, 0x00,
  0x80, 0x00, 0x00, 0x00, 0x12, 0x00, 0x00, 0x00, 0xbc, 0xff, 0xff, 0xff,
  0xf3, 0xff, 0xff, 0xff, 0xdb, 0xff, 0xff, 0xff, 0xa3, 0x00, 0x00, 0x00,
  0x89, 0xff, 0xff, 0xff, 0x33, 0x00, 0x00, 0x00, 0x32, 0x00, 0x00, 0x00,
  0xe6, 0xff, 0xff, 0xff, 0xd1, 0xff, 0xff, 0xff, 0x27, 0x00, 0x00, 0x00,
  0xfa, 0xff, 0xff, 0xff, 0x9c, 0xff, 0xff, 0xff, 0xda, 0xff, 0xff, 0xff,
  0xd3, 0xff, 0xff, 0xff, 0x10, 0x00, 0x00, 0x00, 0x1a, 0x00, 0x00, 0x00,
  0x90, 0xff, 0xff, 0xff, 0xba, 0x00, 0x00, 0x00, 0x57, 0x00, 0x00, 0x00,
  0x83, 0x00, 0x00, 0x00, 0xef, 0xff, 0xff, 0xff, 0x4f, 0x00, 0x00, 0x00,
  0xfd, 0xff, 0xff, 0xff, 0x4c, 0x00, 0x00, 0x00, 0xdb, 0xff, 0xff, 0xff,
  0xdd, 0xff, 0xff, 0xff, 0xb8, 0xff, 0xff, 0xff, 0xf9, 0xff, 0xff, 0xff,
  0xdf, 0xff, 0xff, 0xff, 0x42, 0x00, 0x00, 0x00, 0xf2, 0xff, 0xff, 0xff,
  0x72, 0xeb, 0xff, 0xff, 0x04, 0x00, 0x00, 0x00, 0xa0, 0x00, 0x00, 0x00,
  0xc8, 0x86, 0x7f, 0x95, 0x81, 0x7f, 0x72, 0x7b, 0xfe, 0x47, 0x81, 0x83,
  0x75, 0x8c, 0x8f, 0x62, 0x7e, 0x53, 0x3e, 0x0a, 0xe1, 0x83, 0xdd, 0x81,
  0x8b, 0xf4, 0xee, 0xf4, 0x7f, 0x30, 0x3f, 0xe8, 0x0e, 0xb9, 0x5e, 0x3f,
  0x22, 0x67, 0xe9, 0xc4, 0x45, 0xb8, 0x13, 0x76, 0x81, 0x8e, 0x48, 0x8d,
  0xc1, 0x81, 0x05, 0xbc, 0xd0, 0x11, 0x08, 0xab, 0xcb, 0x81, 0x81, 0x7f,
  0xb6, 0x62, 0xb9, 0x8d, 0x81, 0xd1, 0x6c, 0x81, 0x02, 0x8a, 0xa3, 0x12,
  0x7f, 0x7f, 0x87, 0xd2, 0x78, 0xb3, 0xb5, 0x4e, 0xf8, 0x53, 0x93, 0xf2,
  0x2a, 0x72, 0xfe, 0xb6, 0x81, 0x45, 0x18, 0xad, 0x62, 0x39, 0x66, 0x81,
  0xee, 0xea, 0xe7, 0xf5, 0x5c, 0x23, 0x27, 0x7f, 0xdb, 0x31, 0x38, 0x7f,
  0x14, 0xe0, 0xfc, 0x79, 0x7f, 0x45, 0xce, 0x7f, 0x81, 0x81, 0x81, 0x18,
  0x09, 0xd3, 0x37, 0xee, 0xd1, 0xb6, 0x81, 0xad, 0xa9, 0x7f, 0xec, 0xb0,
  0x46, 0x5b, 0x7f, 0x38, 0x59, 0x3b, 0xdd, 0x10, 0x7b, 0x7f, 0x81, 0x7f,
  0xd9, 0x34, 0x81, 0x94, 0x54, 0xc0, 0x99, 0xdb, 0xcc, 0x7e, 0x99, 0xf0,
  0xdf, 0x81, 0x50, 0x13, 0x10, 0xab, 0xff, 0xff, 0x22, 0xec, 0xff, 0xff,
  0x04, 0x00, 0x00, 0x00, 0x80, 0x00, 0x00, 0x00, 0x00, 0x00, 0x00, 0x00,
  0x00, 0x00, 0x00, 0x00, 0x00, 0x00, 0x00, 0x00, 0x00, 0x00, 0x00, 0x00,
  0x00, 0x00, 0x00, 0x00, 0x00, 0x00, 0x00, 0x00, 0x00, 0x00, 0x00, 0x00,
  0x00, 0x00, 0x00, 0x00, 0x00, 0x00, 0x00, 0x00, 0x00, 0x00, 0x00, 0x00,
  0x00, 0x00, 0x00, 0x00, 0x00, 0x00, 0x00, 0x00, 0x00, 0x00, 0x00, 0x00,
  0x00, 0x00, 0x00, 0x00, 0x00, 0x00, 0x00, 0x00, 0x00, 0x00, 0x00, 0x00,
  0x00, 0x00, 0x00, 0x00, 0x00, 0x00, 0x00, 0x00, 0x00, 0x00, 0x00, 0x00,
  0x00, 0x00, 0x00, 0x00, 0x00, 0x00, 0x00, 0x00, 0x00, 0x00, 0x00, 0x00,
  0x00, 0x00, 0x00, 0x00, 0x00, 0x00, 0x00, 0x00, 0x00, 0x00, 0x00, 0x00,
  0x00, 0x00, 0x00, 0x00, 0x00, 0x00, 0x00, 0x00, 0x00, 0x00, 0x00, 0x00,
  0x00, 0x00, 0x00, 0x00, 0x00, 0x00, 0x00, 0x00, 0x00, 0x00, 0x00, 0x00,
  0x00, 0x00, 0x00, 0x00, 0xae, 0xec, 0xff, 0xff, 0x04, 0x00, 0x00, 0x00,
  0x00, 0x04, 0x00, 0x00, 0x4e, 0x34, 0xf5, 0x46, 0x12, 0xac, 0xba, 0x0e,
  0xd7, 0xef, 0x50, 0x23, 0x78, 0xdc, 0x45, 0xb6, 0x9b, 0xbe, 0xf2, 0x6c,
  0x29, 0xfd, 0x70, 0x38, 0x48, 0x5c, 0x18, 0x00, 0xe3, 0xbf, 0x81, 0x25,
  0x50, 0xfd, 0x28, 0x3b, 0x25, 0xd7, 0xa1, 0x39, 0x29, 0x06, 0x66, 0x4f,
  0xf0, 0xaf, 0xc8, 0x81, 0x35, 0x13, 0xdd, 0xa0, 0x09, 0x70, 0xda, 0xf3,
  0x37, 0x9d, 0xf0, 0x34, 0xd6, 0x8c, 0x43, 0x01, 0x43, 0x54, 0x6c, 0x22,
  0x01, 0xb9, 0x22, 0x4c, 0x40, 0x89, 0x54, 0x90, 0xc7, 0x75, 0x43, 0xc7,
  0xe3, 0x64, 0xc8, 0x54, 0x29, 0x49, 0x7f, 0x20, 0xc1, 0x29, 0xb1, 0x9c,
  0x47, 0xb9, 0x27, 0x2c, 0x3f, 0x5c, 0x18, 0xc1, 0x17, 0x6b, 0x55, 0xf0,
  0x13, 0xfc, 0xa0, 0x9c, 0x6a, 0xfd, 0x38, 0x47, 0xa9, 0xec, 0x5d, 0x40,
  0xf1, 0x69, 0x1f, 0x51, 0x8d, 0x3d, 0x49, 0x24, 0x45, 0xa9, 0x33, 0x7f,
  0xd9, 0xe3, 0xe8, 0xaa, 0xe5, 0xdf, 0x12, 0x45, 0xb9, 0x0f, 0xb6, 0x36,
  0x36, 0x08, 0x42, 0x06, 0xca, 0x81, 0xc9, 0x07, 0xf3, 0xe8, 0xc0, 0xcb,
  0xd4, 0x5d, 0x5c, 0x11, 0xbf, 0xbd, 0x8b, 0x4f, 0xca, 0x3a, 0xdb, 0x3f,
  0xbd, 0xaf, 0x9d, 0x48, 0xed, 0x39, 0x3b, 0x59, 0xff, 0x28, 0x4e, 0xaa,
  0x91, 0x0d, 0xde, 0xa6, 0x05, 0xe2, 0xb9, 0x04, 0xd1, 0x32, 0xd1, 0x32,
  0x69, 0xc5, 0x7f, 0x04, 0x73, 0x03, 0x27, 0x70, 0x7f, 0x79, 0xc9, 0xc0,
  0x22, 0xbb, 0x15, 0xbe, 0x01, 0x5f, 0xc6, 0x95, 0xd1, 0x67, 0x56, 0x06,
  0x64, 0x3a, 0x76, 0xe0, 0x35, 0x82, 0x8c, 0xf9, 0x04, 0x5b, 0xff, 0x1d,
  0x91, 0x49, 0x1a, 0x0c, 0x25, 0x39, 0xe2, 0xff, 0x32, 0xda, 0x83, 0x3e,
  0xbb, 0xcc, 0x2b, 0xe6, 0x67, 0x9a, 0x7f, 0xa7, 0xdb, 0x62, 0xca, 0x51,
  0x4f, 0x18, 0x1d, 0x5a, 0x1e, 0x3d, 0xb5, 0x0d, 0xc6, 0xfe, 0xe1, 0x66,
  0x07, 0xf1, 0xe4, 0x4e, 0xd5, 0xed, 0x61, 0x1d, 0x3f, 0x97, 0x07, 0xaf,
  0xf8, 0x64, 0xaa, 0xc5, 0x08, 0x96, 0x57, 0xf8, 0x7f, 0xc4, 0xd6, 0xf6,
  0xc0, 0xa7, 0x2d, 0x7c, 0xc1, 0x45, 0x99, 0xf3, 0x01, 0xbe, 0x3f, 0xc1,
  0xb1, 0x81, 0xb3, 0x32, 0xab, 0x85, 0xd6, 0x33, 0xd8, 0x53, 0x04, 0x6a,
  0x29, 0x44, 0x9b, 0xa3, 0xc1, 0x45, 0x40, 0x03, 0xbd, 0xec, 0x8c, 0x95,
  0x5a, 0xb6, 0xe0, 0x8e, 0x1c, 0x44, 0xdb, 0x02, 0xa0, 0x47, 0x0c, 0x14,
  0xc3, 0x22, 0x27, 0x05, 0xf1, 0xac, 0x2a, 0xf6, 0x7f, 0xab, 0xad, 0x8a,
  0x19, 0x4a, 0x2b, 0x92, 0xcb, 0x12, 0xce, 0x81, 0xb3, 0xe6, 0x56, 0xa7,
  0x89, 0x61, 0x5c, 0x41, 0xb4, 0xd2, 0x18, 0x43, 0xc5, 0x51, 0xbe, 0x5e,
  0xa4, 0xf2, 0x52, 0x49, 0x18, 0x34, 0x57, 0x7f, 0xa7, 0x5c, 0x2e, 0xf5,
  0xc4, 0xd2, 0x95, 0x05, 0xe6, 0xe1, 0x0b, 0x71, 0x81, 0x69, 0x19, 0x70,
  0x63, 0x91, 0xef, 0xe1, 0xef, 0x10, 0xbf, 0xd0, 0xe8, 0xb2, 0x4b, 0xfa,
  0xd8, 0x62, 0xcb, 0x2f, 0xde, 0xe0, 0x27, 0x9b, 0xb4, 0x06, 0xf5, 0xa4,
  0x75, 0x39, 0xe8, 0x23, 0x21, 0x0e, 0x24, 0xdc, 0xc9, 0x3c, 0x0d, 0xdf,
  0x05, 0x49, 0x7f, 0x3e, 0xd3, 0x37, 0x34, 0xba, 0x9f, 0x43, 0x2c, 0x0e,
  0x16, 0xdb, 0x3e, 0xb4, 0x61, 0x5d, 0x63, 0x24, 0x7f, 0x4a, 0x73, 0x5a,
  0x05, 0x98, 0x3c, 0x5d, 0x25, 0xa2, 0xa6, 0xd1, 0x5c, 0x6d, 0x2a, 0x0b,
  0xd7, 0xc8, 0x54, 0xad, 0xd8, 0x03, 0x67, 0x12, 0x88, 0x9a, 0x07, 0x07,
  0xdc, 0x47, 0xbf, 0x8d, 0xc9, 0x95, 0xec, 0xb6, 0xf2, 0xaf, 0x9b, 0x5c,
  0x82, 0x43, 0x20, 0x19, 0x64, 0x18, 0x2b, 0xd5, 0xe1, 0x34, 0xc5, 0x2e,
  0x08, 0x42, 0x0c, 0xcd, 0xe9, 0x71, 0xd6, 0xb1, 0x0e, 0x5d, 0xa3, 0x81,
  0xcd, 0xd9, 0x81, 0x28, 0x01, 0x29, 0x27, 0x83, 0xcd, 0xb1, 0x9e, 0xd0,
  0x27, 0xc4, 0x61, 0x8c, 0x26, 0xfa, 0x53, 0xef, 0x1f, 0xb5, 0xea, 0x73,
  0x0e, 0x20, 0x71, 0x21, 0xd4, 0x0f, 0xdd, 0x6b, 0x3a, 0x0d, 0x48, 0xcd,
  0x14, 0xed, 0x9d, 0xa6, 0x37, 0x33, 0x48, 0x08, 0x0c, 0xbf, 0x52, 0xfa,
  0x23, 0xc3, 0x7f, 0x24, 0x27, 0x45, 0x22, 0x39, 0x0b, 0x51, 0xb8, 0xad,
  0x17, 0xd0, 0x3a, 0xb4, 0x18, 0x48, 0xc1, 0xe1, 0x91, 0x30, 0x86, 0x76,
  0x91, 0x43, 0x4e, 0xdc, 0x81, 0x15, 0x6a, 0x10, 0x17, 0xe7, 0x2a, 0xbd,
  0xf4, 0x16, 0x0e, 0xd8, 0xcd, 0xd7, 0x72, 0x33, 0xab, 0xb0, 0x1f, 0xa3,
  0x39, 0xbe, 0xc8, 0x45, 0x3b, 0xe5, 0x14, 0x1f, 0x30, 0x25, 0xbc, 0xb5,
  0xe1, 0x58, 0x7f, 0x9d, 0x45, 0xbb, 0x75, 0x95, 0xcc, 0x49, 0x41, 0xd5,
  0x5d, 0xa0, 0x7a, 0xb9, 0xc5, 0xbc, 0xd3, 0x2e, 0x76, 0x8f, 0xfb, 0xe7,
  0x3d, 0xda, 0xcf, 0xac, 0x15, 0x92, 0x25, 0xa4, 0xdd, 0xc0, 0x32, 0x9a,
  0x91, 0x7f, 0xff, 0x5a, 0xaa, 0xe9, 0x30, 0x48, 0xed, 0xfa, 0x04, 0xdc,
  0x20, 0x65, 0xbd, 0x2a, 0x50, 0xeb, 0xa9, 0x21, 0xec, 0xf6, 0xca, 0x54,
  0xb1, 0x7e, 0x01, 0x54, 0x1a, 0x81, 0x33, 0x6e, 0xb0, 0xaf, 0xe2, 0x56,
  0xdb, 0x1d, 0x38, 0xa8, 0xcc, 0x13, 0xe1, 0xc7, 0x78, 0x54, 0xc2, 0x89,
  0x4f, 0x5c, 0x4b, 0x51, 0x41, 0xd2, 0xf9, 0x4a, 0xe4, 0x84, 0x8f, 0xa4,
  0x0e, 0x14, 0xb2, 0x96, 0xc2, 0x18, 0x81, 0xd5, 0x48, 0x29, 0xd0, 0x75,
  0xf0, 0xea, 0x23, 0xb4, 0x37, 0x36, 0xb0, 0x07, 0x16, 0x5c, 0x5d, 0x42,
  0x81, 0x93, 0x84, 0x3b, 0x04, 0xf1, 0x48, 0x2a, 0xa2, 0x19, 0x5e, 0x6f,
  0x1d, 0x9d, 0x89, 0x01, 0xfb, 0xcd, 0x58, 0x3b, 0x07, 0x33, 0x3c, 0x76,
  0xaf, 0xf7, 0x16, 0xc8, 0xc2, 0x8e, 0xcc, 0xd2, 0x7f, 0xbc, 0x4d, 0x30,
  0xfb, 0x1b, 0xe9, 0x0e, 0x2a, 0x40, 0xfb, 0x43, 0x31, 0x02, 0x25, 0x4f,
  0x7c, 0x77, 0xf6, 0xbd, 0x01, 0xd1, 0xad, 0xee, 0xda, 0x20, 0x07, 0xfe,
  0x59, 0xd4, 0x44, 0x19, 0xe9, 0x22, 0xc1, 0x39, 0xb5, 0x4a, 0x47, 0x34,
  0x17, 0x81, 0xfd, 0x8d, 0x25, 0xbb, 0xb5, 0x39, 0xb8, 0xda, 0x07, 0xbb,
  0xc6, 0x31, 0x4d, 0x2e, 0xcd, 0xb7, 0x3a, 0xa3, 0xff, 0x5e, 0x7a, 0xa1,
  0x81, 0xbf, 0xca, 0x5d, 0x21, 0x6e, 0xc3, 0x19, 0x52, 0xf8, 0xdc, 0x4f,
  0x42, 0x10, 0xcb, 0xd4, 0xf7, 0x1d, 0x46, 0x8e, 0xa6, 0x02, 0x40, 0xcd,
  0x07, 0xc7, 0x54, 0xb4, 0x77, 0x81, 0x11, 0x36, 0xeb, 0x3d, 0x2c, 0x79,
  0x78, 0x69, 0xff, 0x87, 0xb0, 0x5f, 0x41, 0xa3, 0x5c, 0xb1, 0xf2, 0xf5,
  0xf7, 0x12, 0x8c, 0x02, 0xa3, 0x2b, 0xb1, 0xd8, 0xa1, 0x03, 0x58, 0xab,
  0x4c, 0xe6, 0xa7, 0xe6, 0x53, 0xcc, 0x23, 0x17, 0x43, 0xe9, 0xee, 0x0a,
  0xca, 0xb1, 0xf7, 0x67, 0xf9, 0xf4, 0x7f, 0x07, 0xf7, 0x17, 0xe3, 0x1b,
  0xca, 0x42, 0x52, 0xe8, 0x9a, 0xeb, 0xed, 0x23, 0x35, 0x21, 0xcd, 0x6e,
  0x7f, 0x5f, 0x1d, 0xdc, 0xe8, 0xa2, 0x1c, 0xcd, 0xfe, 0x21, 0x62, 0xa4,
  0xa0, 0x1b, 0xdb, 0x45, 0xab, 0xb0, 0x30, 0xdd, 0xdb, 0xd6, 0x49, 0xed,
  0x59, 0x64, 0xea, 0xf5, 0xaf, 0xed, 0xf6, 0xf9, 0xda, 0x38, 0x8d, 0xe9,
  0xd2, 0x7f, 0x64, 0xa8, 0x76, 0x15, 0xf3, 0x15, 0x0a, 0x4b, 0xfc, 0x0f,
  0x48, 0xdf, 0xe6, 0xe2, 0xa0, 0x53, 0x0c, 0x50, 0x5b, 0x5e, 0xfc, 0x83,
  0x14, 0x04, 0x0c, 0x33, 0x9d, 0xc4, 0x36, 0x46, 0xdc, 0xa8, 0x9d, 0x7d,
  0x81, 0x05, 0x20, 0x0f, 0x3f, 0xd9, 0x11, 0xf5, 0x9d, 0xe1, 0x25, 0xf8,
  0x46, 0x8f, 0x9b, 0x4b, 0xf2, 0xd0, 0x24, 0x30, 0xba, 0xf0, 0xff, 0xff,
  0x04, 0x00, 0x00, 0x00, 0x80, 0x00, 0x00, 0x00, 0xac, 0x04, 0x00, 0x00,
  0xf5, 0xff, 0xff, 0xff, 0x14, 0x02, 0x00, 0x00, 0xda, 0x00, 0x00, 0x00,
  0xd6, 0xfe, 0xff, 0xff, 0xb7, 0x00, 0x00, 0x00, 0x6f, 0x03, 0x00, 0x00,
  0xeb, 0x00, 0x00, 0x00, 0xac, 0x00, 0x00, 0x00, 0x72, 0xff, 0xff, 0xff,
  0x8f, 0xff, 0xff, 0xff, 0xf5, 0x00, 0x00, 0x00, 0x5c, 0x00, 0x00, 0x00,
  0xd6, 0x02, 0x00, 0x00, 0xdc, 0x00, 0x00, 0x00, 0x5c, 0xfe, 0xff, 0xff,
  0xed, 0x04, 0x00, 0x00, 0x6d, 0x02, 0x00, 0x00, 0xc1, 0x01, 0x00, 0x00,
  0x3a, 0x04, 0x00, 0x00, 0xdc, 0x02, 0x00, 0x00, 0xa6, 0xfe, 0xff, 0xff,
  0xc3, 0x00, 0x00, 0x00, 0xbc, 0x00, 0x00, 0x00, 0xd4, 0xfe, 0xff, 0xff,
  0x18, 0xfe, 0xff, 0xff, 0x3e, 0xfa, 0xff, 0xff, 0x4a, 0xfe, 0xff, 0xff,
  0x15, 0x01, 0x00, 0x00, 0xda, 0x01, 0x00, 0x00, 0xe3, 0xfd, 0xff, 0xff,
  0xe5, 0x00, 0x00, 0x00, 0x46, 0xf1, 0xff, 0xff, 0x04, 0x00, 0x00, 0x00,
  0xa0, 0x00, 0x00, 0x00, 0xf7, 0x57, 0xde, 0x1a, 0x52, 0x53, 0x4e, 0x27,
  0x61, 0x9c, 0xf9, 0xac, 0x2f, 0xfb, 0x2c, 0x7f, 0x48, 0xc5, 0x97, 0x1f,
  0xfb, 0x0f, 0x47, 0xc3, 0x7f, 0xf0, 0xee, 0x10, 0xa3, 0x95, 0xb8, 0xb3,
  0x98, 0x3b, 0x81, 0x81, 0x22, 0x79, 0x38, 0xd2, 0x7f, 0x7f, 0x95, 0x81,
  0x52, 0x02, 0x35, 0xc6, 0xc5, 0x0e, 0x16, 0x7f, 0x81, 0x7f, 0x7f, 0x7f,
  0x0b, 0x12, 0xa3, 0x7f, 0x99, 0x9d, 0x59, 0x43, 0xb1, 0xed, 0x51, 0x41,
  0x73, 0x7c, 0x51, 0x81, 0x58, 0x06, 0x81, 0xb4, 0x52, 0x89, 0x09, 0x36,
  0xa6, 0x52, 0x81, 0x73, 0xd6, 0xf3, 0xfa, 0x77, 0x55, 0x81, 0xec, 0xc9,
  0x81, 0xcd, 0x81, 0x81, 0x81, 0x81, 0x48, 0x3d, 0x35, 0x3b, 0x7f, 0xc6,
  0xbf, 0x6f, 0xa0, 0x95, 0x7f, 0xaa, 0xe9, 0xc6, 0x81, 0xd9, 0x0b, 0x27,
  0x96, 0x78, 0x7f, 0xf7, 0xc4, 0xdb, 0x7f, 0x28, 0x14, 0x1d, 0x27, 0x2f,
  0x16, 0x96, 0xcc, 0x23, 0x7f, 0x7f, 0x2c, 0xd3, 0x1c, 0xf1, 0x9c, 0x10,
  0x1a, 0x81, 0x7f, 0x64, 0xa3, 0x81, 0x14, 0x48, 0xc4, 0xa1, 0x96, 0xfb,
  0x13, 0x6c, 0xbe, 0x8e, 0xd2, 0x81, 0xd4, 0x63, 0xf2, 0xf1, 0xff, 0xff,
  0x04, 0x00, 0x00, 0x00, 0x00, 0x08, 0x00, 0x00, 0x30, 0x37, 0x9d, 0xfb,
  0xfe, 0x49, 0xd4, 0x6e, 0x2c, 0x4c, 0x92, 0xed, 0xf6, 0xbe, 0xff, 0xa3,
  0x9f, 0xb6, 0xbd, 0x51, 0x81, 0xca, 0x00, 0x41, 0xce, 0x39, 0x5b, 0x62,
  0x1d, 0x8f, 0x32, 0x1c, 0x99, 0xb1, 0xd3, 0xc6, 0x34, 0x4a, 0x2c, 0x2b,
  0xa7, 0x36, 0x99, 0x4c, 0xdc, 0xfd, 0xb4, 0xf3, 0x93, 0x9a, 0x1d, 0x69,
  0x2e, 0xc3, 0x13, 0x94, 0xb8, 0x81, 0xe8, 0x78, 0x41, 0xe5, 0xfe, 0xf1,
  0xed, 0x0f, 0x14, 0xca, 0x57, 0x23, 0x7f, 0x2f, 0xd4, 0xeb, 0x57, 0xdc,
  0x22, 0xda, 0xbc, 0x58, 0x0e, 0x26, 0x38, 0x77, 0x9f, 0xc7, 0x2b, 0xe4,
  0xe5, 0x2d, 0xd4, 0xda, 0x71, 0xd6, 0x8b, 0x54, 0x91, 0x47, 0x52, 0xe4,
  0xac, 0xb8, 0x04, 0xd4, 0xd0, 0xda, 0x81, 0x3f, 0xc6, 0x85, 0x43, 0x33,
  0x9e, 0x27, 0x9a, 0x61, 0xbe, 0x3b, 0x4d, 0xed, 0x40, 0xa3, 0x22, 0x87,
  0x79, 0xcc, 0x85, 0xcf, 0xb3, 0x5c, 0x32, 0xf9, 0x34, 0xeb, 0x9e, 0xa5,
  0x81, 0x16, 0x01, 0x34, 0x2c, 0xfd, 0xd0, 0xbd, 0xc0, 0x41, 0x44, 0x20,
  0x46, 0xa0, 0xe0, 0x01, 0xe5, 0xb0, 0x48, 0x12, 0x8f, 0x45, 0xf6, 0x08,
  0xf2, 0xc1, 0x0e, 0xea, 0xe7, 0x24, 0xb4, 0xd4, 0xad, 0x14, 0x72, 0x3e,
  0x30, 0x33, 0x77, 0x27, 0x21, 0x81, 0x16, 0xa0, 0xb2, 0x43, 0xb6, 0xa2,
  0x09, 0x24, 0x46, 0xd1, 0x31, 0x45, 0xc9, 0x0e, 0x09, 0x5b, 0x11, 0x1a,
  0x9c, 0xf6, 0x09, 0x73, 0xc6, 0x90, 0x9f, 0x7f, 0x28, 0x23, 0x95, 0xbf,
  0xbc, 0x2b, 0x1a, 0x1d, 0x82, 0xe3, 0xaf, 0xc2, 0x09, 0xe0, 0xa2, 0x9f,
  0xf4, 0x09, 0xae, 0xbe, 0xf1, 0x10, 0x4c, 0x55, 0x00, 0x50, 0x20, 0x5c,
  0xf1, 0xeb, 0xb4, 0x64, 0xf7, 0xf4, 0x9f, 0x53, 0x2e, 0x22, 0x2e, 0xd6,
  0x1d, 0x57, 0xfc, 0x97, 0xe8, 0x10, 0xad, 0xeb, 0x19, 0x81, 0x0e, 0x4f,
  0x25, 0xa3, 0x35, 0xe7, 0x7f, 0x4f, 0xe1, 0x66, 0xbe, 0x66, 0x06, 0x2d,
  0x1a, 0xd3, 0xab, 0xc3, 0xc7, 0xfc, 0x9f, 0x60, 0xfa, 0x11, 0xc9, 0xbf,
  0x74, 0x38, 0x91, 0x2e, 0x1f, 0xbd, 0x5e, 0x08, 0x51, 0x3c, 0xab, 0x66,
  0x1d, 0x0e, 0xa2, 0x8c, 0x7f, 0xab, 0x71, 0xf5, 0x6f, 0x33, 0x36, 0x08,
  0xd7, 0xb2, 0x2e, 0x3c, 0x24, 0x3b, 0xac, 0x2f, 0xa4, 0xfe, 0x1c, 0x28,
  0x09, 0x79, 0xdd, 0x9b, 0x68, 0xc2, 0x11, 0x52, 0x1b, 0xd0, 0xa8, 0xe4,
  0x8d, 0xcd, 0xee, 0xf8, 0x64, 0x63, 0xd2, 0x8e, 0xd1, 0xa7, 0x1c, 0x45,
  0x7f, 0xbb, 0x2b, 0xa8, 0xee, 0x67, 0xcd, 0x48, 0x24, 0x2b, 0x37, 0x10,
  0x19, 0x17, 0xf1, 0xbb, 0xd4, 0xe1, 0x26, 0xf4, 0xff, 0xbc, 0xee, 0xf6,
  0x57, 0x96, 0x37, 0xbd, 0x05, 0xe3, 0x31, 0x4d, 0x50, 0xc4, 0xb2, 0xb5,
  0xe1, 0xb1, 0xef, 0x34, 0x4c, 0x81, 0x0f, 0xfa, 0x47, 0xfb, 0x17, 0x15,
  0xe6, 0xd7, 0x95, 0x1c, 0x53, 0x45, 0x06, 0x04, 0x2f, 0x09, 0x43, 0xd7,
  0xe6, 0x51, 0x38, 0x12, 0x7f, 0x14, 0x63, 0xe2, 0xd6, 0x23, 0x08, 0x4d,
  0xf3, 0x41, 0x27, 0x13, 0xcc, 0x28, 0xdd, 0xdd, 0x9c, 0xcb, 0x55, 0x68,
  0x37, 0xcd, 0x96, 0x33, 0xba, 0xfd, 0xe5, 0x65, 0x1e, 0x2f, 0xc0, 0x3e,
  0xa9, 0xde, 0x30, 0x55, 0x40, 0x37, 0xf6, 0x69, 0xd0, 0x81, 0x5a, 0x18,
  0x8e, 0xc3, 0x42, 0xea, 0x6b, 0x3a, 0x7f, 0xe4, 0x69, 0x37, 0xd0, 0x19,
  0x53, 0xe0, 0x4f, 0x3b, 0x8f, 0x58, 0xce, 0x37, 0x03, 0x6b, 0xa5, 0xd9,
  0xf1, 0x3e, 0xf2, 0xe5, 0xa7, 0x62, 0xad, 0x26, 0x50, 0x0a, 0xe8, 0xb7,
  0x50, 0x73, 0x57, 0x11, 0x0b, 0x27, 0x85, 0x13, 0x81, 0x40, 0x90, 0x43,
  0x0a, 0x36, 0xfd, 0x4c, 0xc0, 0xe5, 0x11, 0xfb, 0x14, 0x55, 0xec, 0x4f,
  0x1b, 0xc6, 0xdd, 0x52, 0x10, 0x46, 0x3c, 0xcc, 0xf5, 0xdd, 0x63, 0x40,
  0x7f, 0xd6, 0x30, 0xcf, 0xd0, 0x9c, 0xe7, 0x2f, 0x95, 0xdb, 0x9d, 0xc6,
  0xb7, 0x11, 0xce, 0x1b, 0x29, 0x15, 0x05, 0xc5, 0xd5, 0xe2, 0xf5, 0xc4,
  0x41, 0xa4, 0x22, 0xbc, 0xe0, 0x3e, 0xea, 0x4b, 0x49, 0xd7, 0xf0, 0x9c,
  0xe0, 0x47, 0x54, 0x77, 0x8a, 0x05, 0x2b, 0x57, 0x81, 0x6c, 0xc3, 0xba,
  0x3c, 0x1d, 0x2d, 0x03, 0x29, 0x2e, 0x12, 0xc5, 0xfb, 0xc4, 0x16, 0xab,
  0x0e, 0x1b, 0x7f, 0x4f, 0x48, 0x44, 0x49, 0x23, 0x49, 0x20, 0xd3, 0x6c,
  0xdd, 0xd0, 0xe2, 0x0a, 0xda, 0x22, 0xbd, 0xf5, 0x64, 0xc3, 0x30, 0xc6,
  0x1e, 0xa5, 0xc6, 0xc9, 0xf9, 0x7f, 0x31, 0xa1, 0x28, 0x9a, 0x98, 0x49,
  0xbd, 0x00, 0xcd, 0x2b, 0xdf, 0x62, 0xbc, 0x63, 0xfa, 0xbb, 0xe7, 0xba,
  0x6a, 0xd3, 0x7c, 0xb0, 0x94, 0xd9, 0xc4, 0xac, 0x9d, 0x24, 0x04, 0x9c,
  0xdb, 0x16, 0x2f, 0x79, 0xb3, 0x50, 0x41, 0x22, 0x50, 0xd9, 0x59, 0xf9,
  0x2d, 0x5b, 0x70, 0xc1, 0x62, 0xe3, 0xee, 0x81, 0x0d, 0x39, 0x09, 0x12,
  0x5f, 0x45, 0x68, 0xcf, 0x28, 0x3d, 0xd8, 0x37, 0xe5, 0xd9, 0x13, 0xb0,
  0x54, 0x6f, 0x53, 0xb4, 0x1c, 0xfe, 0x51, 0xa8, 0x99, 0xb5, 0xf4, 0xe3,
  0x19, 0x70, 0x9b, 0x7f, 0x53, 0x1a, 0x0d, 0xb6, 0x1d, 0x3f, 0x48, 0xc1,
  0x2a, 0xad, 0xce, 0xbb, 0x71, 0x3e, 0x9f, 0xbd, 0x18, 0xd0, 0xb2, 0x2b,
  0xb0, 0xc7, 0x0b, 0xff, 0xef, 0x6b, 0x30, 0xc6, 0x28, 0x5b, 0x3b, 0x4f,
  0x7f, 0x99, 0x69, 0x37, 0x35, 0x64, 0xe2, 0xef, 0xf6, 0x2b, 0x4d, 0xc8,
  0x7f, 0xbc, 0x5b, 0xb9, 0xbf, 0x11, 0x2b, 0x10, 0x8b, 0x5c, 0x4e, 0x53,
  0x2e, 0x4f, 0x39, 0xf6, 0x69, 0x8d, 0x29, 0x4b, 0xf0, 0x2b, 0x27, 0xc5,
  0xd0, 0x34, 0xd8, 0xff, 0xb4, 0x24, 0xc5, 0xb4, 0xd0, 0x5d, 0xf8, 0x19,
  0xc4, 0x85, 0x81, 0xf2, 0xd4, 0xe4, 0xdb, 0xc3, 0xfc, 0x33, 0xc1, 0xff,
  0x9b, 0x05, 0x19, 0x10, 0x3a, 0xb0, 0x7d, 0x33, 0x47, 0x49, 0x1a, 0x2b,
  0xa7, 0xf0, 0xb2, 0x04, 0x27, 0xef, 0xc6, 0xd1, 0x1f, 0x66, 0x3b, 0xc7,
  0xfc, 0xbb, 0x2c, 0xbc, 0xa5, 0xaf, 0x3a, 0xef, 0x31, 0x35, 0x13, 0x5d,
  0x8f, 0x2f, 0x20, 0x32, 0x52, 0xf0, 0x30, 0xc1, 0xe4, 0x81, 0xd5, 0xe1,
  0x7f, 0x01, 0x11, 0x36, 0xbb, 0xfc, 0xff, 0x3e, 0x20, 0x17, 0x71, 0xd0,
  0x54, 0x17, 0x43, 0xfd, 0xca, 0xbc, 0xca, 0xbc, 0x71, 0xfc, 0x5e, 0xe8,
  0x89, 0x05, 0xe3, 0x50, 0xab, 0xd6, 0xce, 0xd7, 0xfe, 0x32, 0xea, 0x15,
  0x9b, 0x8b, 0x81, 0xcf, 0x33, 0x1b, 0x13, 0xb4, 0x45, 0x1a, 0x51, 0x2d,
  0x56, 0x43, 0x2a, 0x21, 0x51, 0x3c, 0xdb, 0x88, 0xa2, 0x03, 0x1b, 0xb5,
  0xf3, 0x0c, 0xf1, 0x12, 0x08, 0xcb, 0x0c, 0xf7, 0x05, 0x5d, 0x5f, 0x66,
  0x28, 0x02, 0xfd, 0xe5, 0xee, 0xee, 0x29, 0x50, 0x7f, 0xc6, 0x02, 0x90,
  0xc6, 0xdc, 0x15, 0xaf, 0x13, 0xc2, 0xab, 0xc0, 0xf5, 0xe9, 0xe2, 0x19,
  0x23, 0xec, 0x0f, 0xc4, 0x35, 0x7f, 0x45, 0x9a, 0x16, 0x50, 0xe4, 0xf5,
  0xcb, 0x1f, 0x9e, 0xc0, 0x4c, 0x3d, 0xde, 0x62, 0x5b, 0x19, 0xfa, 0x58,
  0x05, 0x5c, 0xbe, 0x59, 0x2d, 0x36, 0xa8, 0x24, 0xe2, 0x09, 0x10, 0xc6,
  0xd3, 0x31, 0xf8, 0x11, 0x9c, 0xcb, 0x3b, 0xb7, 0x3b, 0x33, 0x50, 0xfd,
  0x0c, 0xb8, 0xfc, 0x1f, 0x25, 0x24, 0x20, 0x41, 0xbe, 0xcd, 0x30, 0x1d,
  0x81, 0x57, 0x1b, 0x05, 0x3f, 0x49, 0xed, 0xc7, 0xc3, 0x1d, 0xdb, 0xef,
  0x10, 0xd7, 0xea, 0xeb, 0x26, 0x74, 0xd8, 0xe6, 0x25, 0x4c, 0x29, 0x81,
  0x07, 0x30, 0x32, 0x4e, 0x22, 0x20, 0x34, 0xe5, 0xcc, 0x17, 0x47, 0x54,
  0x9b, 0xdf, 0xc3, 0xbc, 0xfd, 0xa7, 0x7f, 0x5d, 0x60, 0x0c, 0xb0, 0x72,
  0x53, 0x9b, 0x9e, 0x41, 0xbd, 0x00, 0x20, 0xc1, 0x19, 0x6d, 0x20, 0xb1,
  0x10, 0x35, 0x18, 0x09, 0x49, 0xf7, 0x57, 0x0f, 0xb5, 0xeb, 0xfa, 0xad,
  0xf4, 0x7f, 0x63, 0x3b, 0xd4, 0x13, 0xc0, 0x04, 0xa3, 0xac, 0x6d, 0xb6,
  0xcb, 0x0c, 0xe0, 0x6f, 0x67, 0x76, 0x65, 0x73, 0xea, 0x1d, 0x4c, 0xfb,
  0x1a, 0x99, 0xad, 0xbf, 0x70, 0x45, 0x43, 0xf9, 0xeb, 0xbf, 0xb0, 0x06,
  0x5b, 0x15, 0x39, 0xd7, 0x44, 0xf3, 0x02, 0x8d, 0x46, 0x81, 0xf0, 0xb8,
  0x3c, 0x2b, 0xde, 0xcd, 0x4c, 0xa3, 0xe2, 0x81, 0xfa, 0x28, 0x54, 0x44,
  0x0a, 0xba, 0x0e, 0xe2, 0x54, 0x7a, 0x3b, 0x41, 0xe6, 0xd7, 0x5b, 0xb3,
  0x01, 0x81, 0x99, 0x25, 0x2a, 0xe1, 0x03, 0xdc, 0x21, 0xde, 0xc2, 0x05,
  0x5d, 0xa0, 0x13, 0xe2, 0x21, 0xbc, 0x23, 0x05, 0x1f, 0x02, 0xda, 0x90,
  0x58, 0x4e, 0x7f, 0x3b, 0xf4, 0xac, 0xe1, 0xb4, 0xbb, 0x0c, 0x42, 0x5e,
  0x84, 0x29, 0xea, 0xee, 0x06, 0xc1, 0x27, 0x9d, 0x5e, 0xad, 0x65, 0x3d,
  0x25, 0x2b, 0xc1, 0x64, 0x05, 0x37, 0x2a, 0x05, 0x9c, 0xf2, 0xce, 0x7c,
  0x61, 0x0c, 0x05, 0x74, 0x02, 0xcd, 0x39, 0x66, 0x9e, 0x3e, 0x00, 0x1f,
  0x81, 0x57, 0xb5, 0x58, 0x50, 0xca, 0xa3, 0x59, 0xf6, 0xa0, 0xb2, 0x50,
  0x06, 0x04, 0xd1, 0xc3, 0xf0, 0xf1, 0x86, 0x4c, 0x1a, 0xb7, 0xa7, 0x9e,
  0xac, 0xcc, 0xa4, 0x95, 0x2d, 0xbb, 0x44, 0x81, 0xc0, 0x53, 0x1c, 0xcb,
  0x8f, 0xec, 0x37, 0xe1, 0x0f, 0x39, 0x3c, 0xbc, 0xda, 0x2d, 0xfd, 0x95,
  0x84, 0x1d, 0xb4, 0x6e, 0x62, 0x83, 0x7f, 0xc2, 0x0f, 0xa1, 0x18, 0xa0,
  0x96, 0x2b, 0x6a, 0xbd, 0x56, 0xfc, 0xd0, 0xf9, 0x09, 0x07, 0x54, 0xf4,
  0x3f, 0x2d, 0x5a, 0x05, 0x37, 0x66, 0xfc, 0xb7, 0x2e, 0x32, 0xc7, 0x47,
  0x11, 0x8c, 0x08, 0xb7, 0x56, 0x7f, 0xd7, 0x00, 0x05, 0xd5, 0xec, 0x85,
  0x63, 0xc8, 0xd2, 0xb3, 0xe3, 0xcc, 0x01, 0xc7, 0xd3, 0x6b, 0x47, 0x15,
  0xf4, 0xdf, 0xe6, 0xe4, 0xd1, 0xeb, 0xd8, 0x21, 0xc9, 0x59, 0x35, 0xfd,
  0xeb, 0x1f, 0xe7, 0x63, 0xbe, 0xd6, 0xbb, 0x7f, 0x10, 0xf1, 0xb8, 0xe3,
  0x45, 0xc1, 0xbd, 0x3d, 0x05, 0x3d, 0xc8, 0x36, 0x65, 0x27, 0x27, 0xd8,
  0xe9, 0xc6, 0xca, 0x97, 0xe0, 0x07, 0x4a, 0x41, 0x49, 0x54, 0xd0, 0xb6,
  0xd1, 0xb0, 0x17, 0xe4, 0x74, 0x10, 0x7f, 0x3e, 0x2f, 0x0e, 0xc3, 0xd7,
  0xd7, 0xea, 0xb2, 0x0b, 0x3f, 0xbb, 0x20, 0x03, 0xfe, 0x82, 0x05, 0xf3,
  0xcc, 0x9d, 0xd5, 0xf0, 0x49, 0xea, 0xae, 0xe4, 0x4b, 0xb7, 0xc8, 0xd0,
  0x4b, 0x12, 0xea, 0xf3, 0xae, 0xf2, 0xf6, 0x1f, 0xb1, 0x7f, 0x2f, 0x51,
  0xdf, 0xf9, 0xed, 0x3a, 0x4a, 0xd0, 0x97, 0x24, 0xd6, 0xc8, 0x5d, 0xd8,
  0xb6, 0x42, 0x00, 0x12, 0x5f, 0x2f, 0xed, 0xa2, 0xef, 0xfb, 0x1b, 0xc0,
  0xfa, 0xad, 0x49, 0xe0, 0x81, 0x6e, 0x35, 0xc3, 0xfa, 0x3b, 0xbb, 0x10,
  0xa5, 0xdb, 0xe4, 0xb9, 0xe4, 0x19, 0xaa, 0xf7, 0xd9, 0xe9, 0x92, 0x1e,
  0xd0, 0x3b, 0x45, 0xc2, 0x75, 0xde, 0x16, 0x09, 0x4e, 0x32, 0x7f, 0x24,
  0xe2, 0xc4, 0x45, 0x30, 0x40, 0xdc, 0x4e, 0xd3, 0x03, 0xc7, 0x81, 0x06,
  0x15, 0xc1, 0x32, 0xf0, 0x19, 0x70, 0xf2, 0x3a, 0x4c, 0xa1, 0xec, 0xdc,
  0xdf, 0x1f, 0x70, 0x3a, 0x97, 0xcf, 0xc7, 0x55, 0xc3, 0x7b, 0x12, 0x25,
  0x03, 0xba, 0xbb, 0x5e, 0x2f, 0x17, 0x56, 0x31, 0x45, 0xd5, 0x62, 0x05,
  0x0f, 0x81, 0x0e, 0xf1, 0xd7, 0x26, 0xbf, 0xfc, 0xd7, 0x20, 0x30, 0xc1,
  0xbd, 0x63, 0x63, 0x64, 0xdc, 0x33, 0x54, 0xf7, 0xc8, 0x85, 0xe3, 0xa6,
  0xb6, 0xd0, 0xba, 0x97, 0x17, 0xab, 0x46, 0xd2, 0x44, 0x07, 0x78, 0x81,
  0x1a, 0x0b, 0x9e, 0x09, 0x0a, 0xfa, 0xbc, 0xaa, 0x13, 0x6b, 0x92, 0x2a,
  0xab, 0x6a, 0x09, 0x3b, 0x4b, 0x1a, 0xac, 0xc9, 0xb5, 0xb0, 0xac, 0x21,
  0xdf, 0x04, 0xe7, 0x04, 0x10, 0x1d, 0x26, 0x81, 0x18, 0x95, 0x36, 0xc2,
  0x5b, 0x48, 0x60, 0xc1, 0x27, 0xe8, 0x79, 0x8d, 0x45, 0x7d, 0x9a, 0x82,
  0x7f, 0xfe, 0xc6, 0xe6, 0x06, 0xd8, 0xd1, 0x9c, 0x96, 0xfe, 0x74, 0xc9,
  0x37, 0xbe, 0x64, 0xd6, 0xaf, 0x61, 0x12, 0x8b, 0x3a, 0xe0, 0x7e, 0x13,
  0xb6, 0xc7, 0x97, 0x05, 0xe8, 0x3e, 0xd2, 0x16, 0x5b, 0x32, 0xed, 0x32,
  0x8e, 0x45, 0x16, 0xbe, 0xa9, 0x1e, 0x65, 0x27, 0x6f, 0x2f, 0x65, 0xe2,
  0x4d, 0x88, 0x1a, 0xec, 0xd4, 0x36, 0x9f, 0x1c, 0x81, 0xb9, 0x11, 0x4b,
  0xa2, 0x13, 0x08, 0x54, 0x2f, 0x28, 0x0b, 0xc7, 0x41, 0x7f, 0xd4, 0xe1,
  0x13, 0x1d, 0xa7, 0x26, 0x32, 0xec, 0xab, 0xb8, 0x3e, 0xe7, 0x20, 0x23,
  0x2b, 0x04, 0xf7, 0x07, 0x19, 0xfd, 0x43, 0xbf, 0x76, 0xec, 0xc0, 0xc7,
  0xd0, 0x10, 0xa6, 0x0c, 0x31, 0xb2, 0xcb, 0xab, 0xcf, 0xbb, 0xfe, 0xe9,
  0xdb, 0x39, 0x0c, 0xe2, 0xe3, 0x81, 0x3f, 0x01, 0x76, 0xb8, 0x31, 0x58,
  0x05, 0xd9, 0x55, 0x57, 0xa9, 0x65, 0x46, 0x0a, 0x05, 0x3b, 0x97, 0xab,
  0x07, 0xaa, 0x81, 0xe5, 0x51, 0xca, 0x0f, 0xf0, 0xe4, 0x21, 0x5c, 0xf1,
  0x68, 0x05, 0xe5, 0xd3, 0x18, 0xc2, 0x31, 0xce, 0x0a, 0x44, 0x0c, 0xc3,
  0xbf, 0xfa, 0x51, 0x22, 0x6e, 0x35, 0x39, 0x47, 0xa3, 0xc1, 0x90, 0xd3,
  0x3a, 0xf8, 0xe3, 0xe3, 0x2d, 0x2b, 0xcd, 0xc3, 0xe1, 0xbe, 0x1b, 0xd6,
  0xe0, 0xdd, 0x7f, 0x01, 0x32, 0x09, 0x4f, 0x2a, 0xc6, 0x09, 0xdf, 0x36,
  0x7f, 0xd6, 0xe0, 0x67, 0xe3, 0x21, 0x0f, 0x26, 0x49, 0x09, 0xe8, 0x3e,
  0x7b, 0x5e, 0xa8, 0xae, 0xf5, 0x02, 0xba, 0x90, 0x0d, 0x8b, 0x42, 0x3a,
  0xfd, 0x33, 0xd4, 0x3a, 0xbd, 0xfc, 0x57, 0xe0, 0x02, 0x10, 0x01, 0xc2,
  0xe8, 0x47, 0x70, 0x15, 0x41, 0xca, 0xa7, 0xc2, 0xec, 0xb8, 0xbc, 0x39,
  0x11, 0xd4, 0xd5, 0x4d, 0x05, 0xc3, 0x2e, 0x0d, 0x4a, 0x06, 0x66, 0x45,
  0x2d, 0x81, 0x6b, 0xf3, 0xb7, 0xfa, 0x06, 0xac, 0x48, 0x1e, 0x2d, 0xc9,
  0xc9, 0x25, 0xbf, 0xe6, 0x98, 0x89, 0x15, 0xab, 0xc7, 0xe0, 0x33, 0x7f,
  0x3e, 0xf7, 0x05, 0xcf, 0x26, 0xc1, 0xe5, 0xb5, 0x26, 0x92, 0xc5, 0xc9,
  0x9e, 0x61, 0x38, 0x17, 0x55, 0x07, 0x67, 0x58, 0x38, 0x52, 0xf9, 0xcc,
  0xed, 0xde, 0xc3, 0xe8, 0xbe, 0xf0, 0xed, 0x7f, 0xee, 0xbd, 0xf3, 0xb9,
  0xaa, 0x0d, 0x32, 0x31, 0xac, 0xc7, 0xa5, 0x35, 0x67, 0xea, 0x81, 0xb5,
  0x0e, 0xea, 0xd4, 0xff, 0xec, 0x11, 0x2f, 0x5a, 0xe4, 0xd7, 0x3d, 0x40,
  0xd2, 0xcd, 0xc4, 0x9f, 0x17, 0xef, 0x26, 0xd4, 0x15, 0x01, 0x42, 0xa8,
  0x03, 0x2f, 0x5e, 0xed, 0xf7, 0x03, 0x2f, 0xbc, 0xba, 0x27, 0xdd, 0x55,
  0xf7, 0xef, 0xf6, 0x53, 0x24, 0xac, 0x29, 0xee, 0x83, 0x1d, 0xf5, 0x17,
  0x89, 0x3f, 0xd8, 0x05, 0x22, 0xee, 0x39, 0xcf, 0x0e, 0x81, 0x02, 0x09,
  0xfc, 0xd1, 0x39, 0x21, 0x6a, 0xb8, 0x38, 0x23, 0xd3, 0xf6, 0xf9, 0xf8,
  0x88, 0x81, 0x4f, 0x0a, 0x5d, 0xdf, 0xda, 0x77, 0x3a, 0xc8, 0xad, 0x2d,
  0x35, 0x51, 0x3b, 0xc8, 0xf0, 0x8c, 0x5e, 0x4f, 0x62, 0xed, 0xe2, 0xe0,
  0x69, 0x35, 0xfa, 0x1a, 0x49, 0x0e, 0xdc, 0x2c, 0xb5, 0x81, 0xae, 0xad,
  0xca, 0x19, 0x0a, 0x43, 0x0d, 0x02, 0xb8, 0xac, 0x9b, 0x1f, 0x98, 0xf6,
  0xb3, 0x42, 0xff, 0xfd, 0xfe, 0xf9, 0xff, 0xff, 0x04, 0x00, 0x00, 0x00,
  0x00, 0x01, 0x00, 0x00, 0x02, 0xf6, 0xff, 0xff, 0xd2, 0xf8, 0xff, 0xff,
  0x3f, 0xf7, 0xff, 0xff, 0xf0, 0xf5, 0xff, 0xff, 0xf7, 0x03, 0x00, 0x00,
  0x80, 0x07, 0x00, 0x00, 0x29, 0x02, 0x00, 0x00, 0x81, 0xff, 0xff, 0xff,
  0x1a, 0xf9, 0xff, 0xff, 0x21, 0x04, 0x00, 0x00, 0x08, 0x09, 0x00, 0x00,
  0x6c, 0xfd, 0xff, 0xff, 0x0d, 0x07, 0x00, 0x00, 0xf7, 0xf9, 0xff, 0xff,
  0x2b, 0xf0, 0xff, 0xff, 0xbc, 0xf8, 0xff, 0xff, 0x45, 0xf8, 0xff, 0xff,
  0xda, 0xfa, 0xff, 0xff, 0x51, 0xf8, 0xff, 0xff, 0xb8, 0x09, 0x00, 0x00,
  0x1b, 0x05, 0x00, 0x00, 0x67, 0xf6, 0xff, 0xff, 0xaf, 0x0a, 0x00, 0x00,
  0xce, 0x04, 0x00, 0x00, 0x33, 0x02, 0x00, 0x00, 0x07, 0xf4, 0xff, 0xff,
  0xd0, 0x02, 0x00, 0x00, 0xc0, 0x09, 0x00, 0x00, 0x74, 0xfe, 0xff, 0xff,
  0x23, 0xfd, 0xff, 0xff, 0xd0, 0x00, 0x00, 0x00, 0xf7, 0x08, 0x00, 0x00,
  0xce, 0xfb, 0xff, 0xff, 0x44, 0xf2, 0xff, 0xff, 0xae, 0x09, 0x00, 0x00,
  0x2b, 0xfb, 0xff, 0xff, 0xe1, 0xf7, 0xff, 0xff, 0xf6, 0xfa, 0xff, 0xff,
  0xfd, 0x07, 0x00, 0x00, 0x86, 0x07, 0x00, 0x00, 0x8c, 0x0b, 0x00, 0x00,
  0x93, 0xff, 0xff, 0xff, 0xd8, 0x05, 0x00, 0x00, 0xbc, 0x08, 0x00, 0x00,
  0xc9, 0x0b, 0x00, 0x00, 0xe1, 0x03, 0x00, 0x00, 0x54, 0x0a, 0x00, 0x00,
  0xbf, 0xfa, 0xff, 0xff, 0x20, 0x04, 0x00, 0x00, 0x6e, 0x0c, 0x00, 0x00,
  0x87, 0x05, 0x00, 0x00, 0x9d, 0x04, 0x00, 0x00, 0x07, 0xff, 0xff, 0xff,
  0xf5, 0x05, 0x00, 0x00, 0x80, 0x08, 0x00, 0x00, 0xf9, 0x04, 0x00, 0x00,
  0xe4, 0x03, 0x00, 0x00, 0xf6, 0xf4, 0xff, 0xff, 0xcc, 0xf4, 0xff, 0xff,
  0x70, 0xf3, 0xff, 0xff, 0x63, 0x05, 0x00, 0x00, 0xc7, 0xf8, 0xff, 0xff,
  0xaf, 0xfb, 0xff, 0xff, 0x95, 0xfd, 0xff, 0xff, 0x0a, 0xfb, 0xff, 0xff,
  0x04, 0x00, 0x00, 0x00, 0x00, 0x04, 0x00, 0x00, 0xa9, 0xa2, 0xef, 0xcb,
  0xfa, 0x7a, 0xda, 0x2a, 0xb5, 0x37, 0x69, 0xf7, 0x41, 0x0d, 0xc4, 0xd8,
  0xc0, 0x0a, 0x22, 0x0e, 0x2b, 0x04, 0x7f, 0xd0, 0x06, 0xb8, 0x17, 0xe0,
  0x49, 0xe1, 0x72, 0x3e, 0x28, 0xc5, 0x6a, 0xc4, 0xa9, 0x31, 0x6e, 0x5b,
  0x2c, 0x2e, 0x46, 0xdf, 0x10, 0x2f, 0x6b, 0x50, 0x5c, 0x09, 0xfe, 0xf6,
  0xec, 0x16, 0xc7, 0x19, 0x1f, 0x22, 0xdc, 0x14, 0x7d, 0x26, 0x9e, 0x2e,
  0x9f, 0x0d, 0xd1, 0xe3, 0xc6, 0x1a, 0xa9, 0xf6, 0x47, 0x4c, 0xce, 0xba,
  0x52, 0xc7, 0xeb, 0x97, 0xa3, 0x43, 0xe0, 0xde, 0x5d, 0xe5, 0x7a, 0x75,
  0x4e, 0xa1, 0xf8, 0x77, 0xd0, 0x1e, 0xf4, 0x09, 0xec, 0x29, 0x7f, 0xcf,
  0x3b, 0xd8, 0xce, 0x0a, 0x0d, 0xed, 0x48, 0x18, 0xc4, 0x5f, 0x1f, 0xf7,
  0xdf, 0xf3, 0x37, 0x3b, 0x59, 0x29, 0x54, 0x3e, 0x4f, 0x30, 0x27, 0x1b,
  0xdc, 0xf3, 0x46, 0xe4, 0xc5, 0xe8, 0xf2, 0xbc, 0x57, 0xbb, 0xd3, 0xec,
  0x5a, 0xa6, 0x18, 0xde, 0xe1, 0x61, 0xbb, 0x03, 0x3f, 0x62, 0xbf, 0xf1,
  0xcf, 0xce, 0xb9, 0x36, 0xe5, 0x60, 0xdc, 0x1c, 0xdb, 0x13, 0x2f, 0x08,
  0xf7, 0xee, 0x41, 0xb2, 0xe4, 0xe3, 0xbe, 0xe4, 0x4c, 0xf1, 0xca, 0x17,
  0xa5, 0x21, 0xc0, 0xca, 0xf8, 0xd8, 0x99, 0xa9, 0xce, 0x0a, 0xad, 0x0d,
  0x25, 0xd6, 0x58, 0xd9, 0x13, 0x7f, 0x6f, 0x74, 0x6d, 0xe1, 0x3f, 0x42,
  0x9a, 0xf2, 0x2b, 0xe4, 0xa4, 0x09, 0x0e, 0x46, 0x9c, 0x88, 0x03, 0x54,
  0xa4, 0x79, 0xbc, 0x1e, 0xfa, 0x72, 0xef, 0xa2, 0x63, 0xaf, 0x04, 0x39,
  0x27, 0xd9, 0xdd, 0xb3, 0x12, 0xde, 0x44, 0x17, 0x84, 0xc6, 0x5c, 0x95,
  0x6a, 0x16, 0xa2, 0xdc, 0xa8, 0xa9, 0xfe, 0x4d, 0xf7, 0x51, 0xaa, 0x4b,
  0x5e, 0xb2, 0x55, 0x10, 0xc8, 0x93, 0x81, 0xd1, 0x21, 0x4c, 0x66, 0x23,
  0xe0, 0x99, 0xfa, 0x34, 0x0f, 0xd0, 0x32, 0xf2, 0x9f, 0x08, 0x7f, 0x40,
  0x53, 0x9f, 0x31, 0xf7, 0xb2, 0xe8, 0xd3, 0x63, 0x39, 0xdb, 0xe1, 0x1b,
  0x14, 0xba, 0x2c, 0x16, 0x41, 0x42, 0x37, 0x73, 0xa1, 0x8c, 0x4c, 0xdf,
  0xc1, 0x90, 0xc0, 0x3a, 0x6f, 0xe7, 0x46, 0xb1, 0x5a, 0xbf, 0x35, 0x9a,
  0x3f, 0xf5, 0xd3, 0x46, 0xe1, 0x2c, 0x6c, 0x5d, 0x34, 0xf4, 0x1a, 0x18,
  0xc8, 0xa0, 0x54, 0x1c, 0xf3, 0x54, 0x16, 0x58, 0x1d, 0x0b, 0x5b, 0x4a,
  0x27, 0x37, 0x49, 0x45, 0xd2, 0x64, 0xf0, 0x49, 0xe3, 0xa6, 0x24, 0xed,
  0x64, 0x58, 0xcc, 0xff, 0xff, 0x2c, 0x5b, 0x4f, 0xc2, 0x61, 0x03, 0x72,
  0x67, 0xe4, 0xdd, 0xd7, 0xd8, 0xf7, 0x7f, 0xe3, 0x27, 0x9b, 0x47, 0x5d,
  0x36, 0xa6, 0x5d, 0x39, 0xb2, 0x26, 0x3a, 0x67, 0xd2, 0x67, 0x23, 0x19,
  0x4c, 0x16, 0xac, 0xcf, 0x49, 0x03, 0x08, 0x47, 0x51, 0x8f, 0x90, 0xa8,
  0xe0, 0x93, 0x01, 0x70, 0xbd, 0x64, 0x88, 0x13, 0x43, 0x64, 0x64, 0x2b,
  0xee, 0x8f, 0xe5, 0xdd, 0x84, 0xdc, 0x3e, 0x9f, 0x15, 0x64, 0xe9, 0xfa,
  0xab, 0x99, 0xeb, 0x21, 0x4e, 0xc8, 0xe3, 0x51, 0x2e, 0xb8, 0xcf, 0x4b,
  0xa9, 0x59, 0xdc, 0xca, 0x53, 0x8c, 0x95, 0xd1, 0x0c, 0x8e, 0x18, 0x89,
  0x5f, 0x38, 0x62, 0x88, 0x5b, 0xa3, 0x5b, 0x72, 0x5f, 0x81, 0xac, 0x63,
  0x02, 0x62, 0x2a, 0x64, 0xf7, 0xa3, 0x66, 0xf1, 0x63, 0x0d, 0x60, 0xfa,
  0x56, 0xf6, 0x0e, 0x52, 0x35, 0x6f, 0x2b, 0x94, 0x44, 0x3a, 0xf8, 0xe3,
  0x5d, 0xc3, 0xbf, 0xe8, 0x74, 0x47, 0x9f, 0x06, 0x4d, 0xc1, 0xc2, 0x11,
  0xd5, 0x2c, 0x22, 0xee, 0x98, 0x30, 0xb1, 0x61, 0xe2, 0x05, 0xbf, 0x9c,
  0x3f, 0xbd, 0xd1, 0xb1, 0x22, 0x0e, 0x16, 0xfe, 0x3c, 0xa9, 0x7f, 0x2c,
  0xca, 0x27, 0x53, 0xcd, 0x2a, 0xb5, 0xa8, 0x07, 0x2e, 0xd6, 0xcb, 0xeb,
  0xe7, 0x6b, 0x4f, 0x5c, 0xfa, 0x35, 0xbf, 0xca, 0xb6, 0xc1, 0xe3, 0x0a,
  0x51, 0x1a, 0x50, 0x68, 0x00, 0x5f, 0x2b, 0x13, 0xfe, 0xbb, 0x2d, 0x2a,
  0x00, 0xda, 0x3d, 0x49, 0xdf, 0x3c, 0xe2, 0xc3, 0x28, 0x1c, 0x13, 0x66,
  0x22, 0xfd, 0x0c, 0xf9, 0x7f, 0x4b, 0x5d, 0x72, 0xdc, 0x54, 0xee, 0x19,
  0x36, 0xfb, 0xe0, 0xa7, 0x0e, 0xb5, 0x33, 0x38, 0xc4, 0x7a, 0x2c, 0xd7,
  0xdc, 0xb0, 0x7e, 0xa9, 0xf1, 0x37, 0x04, 0xe2, 0x3a, 0x7c, 0x4c, 0xcc,
  0xcd, 0x11, 0xbe, 0x9d, 0xf1, 0xaf, 0x34, 0xa4, 0xac, 0xe2, 0xac, 0x3d,
  0x25, 0x46, 0xf3, 0xfc, 0x4b, 0xa0, 0x82, 0x48, 0xde, 0xc2, 0xb6, 0x65,
  0xe9, 0x46, 0x5e, 0x15, 0x85, 0xe6, 0x0d, 0xd0, 0x25, 0x0f, 0x52, 0x39,
  0xa1, 0x81, 0xcc, 0xfc, 0x5b, 0x9e, 0xb1, 0x52, 0xc6, 0xff, 0x55, 0x13,
  0xd1, 0x42, 0x0a, 0xb9, 0x5c, 0x55, 0xf0, 0xdb, 0xac, 0xdb, 0x30, 0xc3,
  0x6a, 0xa8, 0x41, 0xda, 0x2b, 0xce, 0x46, 0x2f, 0xd7, 0xfa, 0xdc, 0x12,
  0x3e, 0xbc, 0x58, 0x46, 0x36, 0x05, 0x7f, 0x6c, 0xf2, 0xb2, 0x39, 0xcb,
  0x05, 0xd1, 0x27, 0xda, 0x59, 0x3a, 0x43, 0x3b, 0x56, 0x59, 0x0f, 0x57,
  0x28, 0xfc, 0x3d, 0x49, 0xfb, 0x41, 0x7c, 0x1e, 0x01, 0x96, 0xf6, 0x1f,
  0x03, 0xa9, 0xba, 0xa7, 0x5b, 0xfb, 0x63, 0x1c, 0xe6, 0xaa, 0x26, 0x0c,
  0x17, 0xa2, 0xf7, 0x67, 0x21, 0x45, 0x65, 0x1d, 0xda, 0x0f, 0x5c, 0xb9,
  0xd2, 0x4b, 0xd4, 0x43, 0xb4, 0x52, 0xa1, 0xad, 0x0a, 0x69, 0x14, 0x1b,
  0x6d, 0x19, 0xb6, 0x00, 0x64, 0xfd, 0x12, 0x27, 0x5d, 0x1e, 0xda, 0xc1,
  0xc3, 0x68, 0x33, 0x3b, 0xc4, 0x38, 0xf3, 0xf2, 0x5e, 0xbc, 0xb7, 0x31,
  0xc0, 0x7f, 0xe7, 0x6a, 0xa8, 0xe6, 0x16, 0x61, 0xeb, 0x7e, 0x08, 0x77,
  0x69, 0x68, 0xa6, 0x7f, 0x39, 0xa1, 0xa3, 0x49, 0x8b, 0x0d, 0x9f, 0xdd,
  0x33, 0xbd, 0x65, 0x5f, 0xed, 0x52, 0x8e, 0x31, 0xd2, 0x11, 0x82, 0x97,
  0x2e, 0x4b, 0x4f, 0x04, 0xe6, 0x70, 0x34, 0x60, 0x13, 0x4b, 0x95, 0xdf,
  0x3c, 0x05, 0x13, 0xb8, 0x02, 0xe3, 0xa9, 0x2c, 0xfe, 0x9d, 0xf7, 0xf2,
  0x39, 0x51, 0x8d, 0xa5, 0xe4, 0x21, 0x39, 0xb6, 0xb3, 0x52, 0xd2, 0x4c,
  0x58, 0x4c, 0x60, 0x2c, 0x96, 0x8b, 0x7f, 0xe9, 0xe6, 0xdb, 0x19, 0x0b,
  0xea, 0x1a, 0x5b, 0x25, 0xc3, 0xee, 0x60, 0xf8, 0x93, 0x66, 0x25, 0x51,
  0x8d, 0x68, 0xb8, 0x31, 0xd0, 0x57, 0x97, 0x72, 0x00, 0x7d, 0x9c, 0xd2,
  0x76, 0x4e, 0x0e, 0x37, 0x2c, 0x13, 0xed, 0x27, 0x2a, 0x53, 0xba, 0x60,
  0x99, 0x83, 0x35, 0xc6, 0x68, 0x97, 0x8c, 0xda, 0x19, 0x32, 0x0b, 0x35,
  0x65, 0x39, 0x4a, 0xb8, 0x0c, 0x12, 0xcf, 0x17, 0xe4, 0x0a, 0x46, 0x4d,
  0x5b, 0x4f, 0x5c, 0x4d, 0x12, 0x40, 0x35, 0xf8, 0x27, 0x9b, 0xef, 0x36,
  0x21, 0x34, 0xdd, 0x95, 0x19, 0x6b, 0x42, 0x3d, 0x5d, 0x38, 0xde, 0x62,
  0x5d, 0x68, 0x3c, 0xa9, 0x64, 0x27, 0xac, 0x4d, 0xd5, 0x44, 0xee, 0x01,
  0xef, 0xc7, 0xb6, 0x57, 0x4f, 0x81, 0x2f, 0x9b, 0xc3, 0x29, 0x8f, 0xa1,
  0xd4, 0x04, 0x70, 0x2b, 0x98, 0x9d, 0x53, 0x69, 0x43, 0xaf, 0x93, 0xfc,
  0xc8, 0xa1, 0xe5, 0x28, 0x9c, 0x1e, 0x39, 0xd2, 0xf2, 0xac, 0x94, 0xef,
  0xa6, 0x7c, 0x67, 0xb1, 0x22, 0x54, 0xa2, 0x9f, 0x49, 0x31, 0x1b, 0xeb,
  0x67, 0xdc, 0x31, 0x10, 0x93, 0xe8, 0x28, 0x7e, 0x9e, 0x23, 0xdb, 0xc6,
  0x5e, 0x76, 0xf3, 0x2e, 0xf2, 0xf5, 0xe6, 0xc0, 0xf6, 0x1b, 0xb4, 0xe8,
  0xbc, 0xa9, 0xc8, 0xf6, 0x4e, 0xed, 0x7f, 0x48, 0xaf, 0x4a, 0x30, 0xe6,
  0x16, 0xff, 0xff, 0xff, 0x04, 0x00, 0x00, 0x00, 0x40, 0x00, 0x00, 0x00,
  0x58, 0x00, 0x00, 0x00, 0x63, 0x04, 0x00, 0x00, 0x79, 0x07, 0x00, 0x00,
  0x3d, 0xff, 0xff, 0xff, 0x6e, 0x06, 0x00, 0x00, 0x8c, 0xff, 0xff, 0xff,
  0xf1, 0x00, 0x00, 0x00, 0x22, 0x0b, 0x00, 0x00, 0xc7, 0x05, 0x00, 0x00,
  0x1d, 0x07, 0x00, 0x00, 0xf3, 0x05, 0x00, 0x00, 0xc4, 0x09, 0x00, 0x00,
  0x50, 0x0d, 0x00, 0x00, 0x9b, 0x0b, 0x00, 0x00, 0x4b, 0x03, 0x00, 0x00,
  0x5e, 0x05, 0x00, 0x00, 0x62, 0xff, 0xff, 0xff, 0x04, 0x00, 0x00, 0x00,
  0x10, 0x00, 0x00, 0x00, 0xca, 0xb6, 0x1c, 0x4f, 0x98, 0xc9, 0x5e, 0x15,
  0x81, 0x11, 0x9a, 0x6c, 0x68, 0x38, 0x4c, 0x47, 0x7e, 0xff, 0xff, 0xff,
  0x04, 0x00, 0x00, 0x00, 0x04, 0x00, 0x00, 0x00, 0x1f, 0x00, 0x00, 0x00,
  0x8e, 0xff, 0xff, 0xff, 0x04, 0x00, 0x00, 0x00, 0x0c, 0x00, 0x00, 0x00,
  0xff, 0xff, 0xff, 0xff, 0x19, 0x00, 0x00, 0x00, 0x40, 0x00, 0x00, 0x00,
  0xa6, 0xff, 0xff, 0xff, 0x04, 0x00, 0x00, 0x00, 0x0c, 0x00, 0x00, 0x00,
  0xff, 0xff, 0xff, 0xff, 0x19, 0x00, 0x00, 0x00, 0x20, 0x00, 0x00, 0x00,
  0xbe, 0xff, 0xff, 0xff, 0x04, 0x00, 0x00, 0x00, 0x0c, 0x00, 0x00, 0x00,
  0xff, 0xff, 0xff, 0xff, 0x32, 0x00, 0x00, 0x00, 0x20, 0x00, 0x00, 0x00,
  0xd6, 0xff, 0xff, 0xff, 0x04, 0x00, 0x00, 0x00, 0x04, 0x00, 0x00, 0x00,
  0x01, 0x00, 0x00, 0x00, 0xe6, 0xff, 0xff, 0xff, 0x04, 0x00, 0x00, 0x00,
  0x0c, 0x00, 0x00, 0x00, 0xff, 0xff, 0xff, 0xff, 0x64, 0x00, 0x00, 0x00,
  0x20, 0x00, 0x00, 0x00, 0x00, 0x00, 0x06, 0x00, 0x08, 0x00, 0x04, 0x00,
  0x06, 0x00, 0x00, 0x00, 0x04, 0x00, 0x00, 0x00, 0x04, 0x00, 0x00, 0x00,
  0xfd, 0xff, 0xff, 0xff, 0x08, 0xbf, 0xff, 0xff, 0x0c, 0xbf, 0xff, 0xff,
  0x0f, 0x00, 0x00, 0x00, 0x4d, 0x4c, 0x49, 0x52, 0x20, 0x43, 0x6f, 0x6e,
  0x76, 0x65, 0x72, 0x74, 0x65, 0x64, 0x2e, 0x00, 0x01, 0x00, 0x00, 0x00,
  0x14, 0x00, 0x00, 0x00, 0x00, 0x00, 0x0e, 0x00, 0x18, 0x00, 0x14, 0x00,
  0x10, 0x00, 0x0c, 0x00, 0x08, 0x00, 0x04, 0x00, 0x0e, 0x00, 0x00, 0x00,
  0x14, 0x00, 0x00, 0x00, 0x1c, 0x00, 0x00, 0x00, 0x74, 0x05, 0x00, 0x00,
  0x78, 0x05, 0x00, 0x00, 0x7c, 0x05, 0x00, 0x00, 0x04, 0x00, 0x00, 0x00,
  0x6d, 0x61, 0x69, 0x6e, 0x00, 0x00, 0x00, 0x00, 0x17, 0x00, 0x00, 0x00,
  0x2c, 0x05, 0x00, 0x00, 0xe8, 0x04, 0x00, 0x00, 0xa4, 0x04, 0x00, 0x00,
  0x54, 0x04, 0x00, 0x00, 0x2c, 0x04, 0x00, 0x00, 0xec, 0x03, 0x00, 0x00,
  0x98, 0x03, 0x00, 0x00, 0x60, 0x03, 0x00, 0x00, 0x2c, 0x03, 0x00, 0x00,
  0xdc, 0x02, 0x00, 0x00, 0x88, 0x02, 0x00, 0x00, 0x60, 0x02, 0x00, 0x00,
  0x2c, 0x02, 0x00, 0x00, 0xe8, 0x01, 0x00, 0x00, 0xc0, 0x01, 0x00, 0x00,
  0x8c, 0x01, 0x00, 0x00, 0x48, 0x01, 0x00, 0x00, 0x00, 0x01, 0x00, 0x00,
  0xd8, 0x00, 0x00, 0x00, 0xa4, 0x00, 0x00, 0x00, 0x60, 0x00, 0x00, 0x00,
  0x28, 0x00, 0x00, 0x00, 0x04, 0x00, 0x00, 0x00, 0x2a, 0xfc, 0xff, 0xff,
  0x0c, 0x00, 0x00, 0x00, 0x10, 0x00, 0x00, 0x00, 0x09, 0x00, 0x00, 0x00,
  0x01, 0x00, 0x00, 0x00, 0x2d, 0x00, 0x00, 0x00, 0x01, 0x00, 0x00, 0x00,
  0x2c, 0x00, 0x00, 0x00, 0x9e, 0xfb, 0xff, 0xff, 0x14, 0x00, 0x00, 0x00,
  0x00, 0x00, 0x00, 0x08, 0x10, 0x00, 0x00, 0x00, 0x14, 0x00, 0x00, 0x00,
  0x08, 0x00, 0x00, 0x00, 0xf8, 0xbf, 0xff, 0xff, 0x01, 0x00, 0x00, 0x00,
  0x2c, 0x00, 0x00, 0x00, 0x03, 0x00, 0x00, 0x00, 0x2b, 0x00, 0x00, 0x00,
  0x08, 0x00, 0x00, 0x00, 0x07, 0x00, 0x00, 0x00, 0x0e, 0xfd, 0xff, 0xff,
  0x1c, 0x00, 0x00, 0x00, 0x00, 0x00, 0x00, 0x08, 0x1c, 0x00, 0x00, 0x00,
  0x20, 0x00, 0x00, 0x00, 0x08, 0x00, 0x00, 0x00, 0x00, 0x00, 0x06, 0x00,
  0x08, 0x00, 0x07, 0x00, 0x06, 0x00, 0x00, 0x00, 0x00, 0x00, 0x00, 0x01,
  0x01, 0x00, 0x00, 0x00, 0x2b, 0x00, 0x00, 0x00, 0x03, 0x00, 0x00, 0x00,
  0x2a, 0x00, 0x00, 0x00, 0x0a, 0x00, 0x00, 0x00, 0x09, 0x00, 0x00, 0x00,
  0x12, 0xfc, 0xff, 0xff, 0x14, 0x00, 0x00, 0x00, 0x00, 0x00, 0x00, 0x1b,
  0x10, 0x00, 0x00, 0x00, 0x14, 0x00, 0x00, 0x00, 0x07, 0x00, 0x00, 0x00,
  0x6c, 0xc0, 0xff, 0xff, 0x01, 0x00, 0x00, 0x00, 0x2a, 0x00, 0x00, 0x00,
  0x02, 0x00, 0x00, 0x00, 0x29, 0x00, 0x00, 0x00, 0x03, 0x00, 0x00, 0x00,
  0xee, 0xfc, 0xff, 0xff, 0x0c, 0x00, 0x00, 0x00, 0x10, 0x00, 0x00, 0x00,
  0x04, 0x00, 0x00, 0x00, 0x01, 0x00, 0x00, 0x00, 0x29, 0x00, 0x00, 0x00,
  0x02, 0x00, 0x00, 0x00, 0x28, 0x00, 0x00, 0x00, 0x06, 0x00, 0x00, 0x00,
  0x66, 0xfc, 0xff, 0xff, 0x14, 0x00, 0x00, 0x00, 0x00, 0x00, 0x00, 0x01,
  0x20, 0x00, 0x00, 0x00, 0x24, 0x00, 0x00, 0x00, 0x03, 0x00, 0x00, 0x00,
  0x94, 0xfe, 0xff, 0xff, 0x00, 0x00, 0x00, 0x01, 0x01, 0x00, 0x00, 0x00,
  0x01, 0x00, 0x00, 0x00, 0x00, 0x00, 0x00, 0x01, 0x01, 0x00, 0x00, 0x00,
  0x28, 0x00, 0x00, 0x00, 0x03, 0x00, 0x00, 0x00, 0x27, 0x00, 0x00, 0x00,
  0x0c, 0x00, 0x00, 0x00, 0x0b, 0x00, 0x00, 0x00, 0xaa, 0xfc, 0xff, 0xff,
  0x14, 0x00, 0x00, 0x00, 0x00, 0x00, 0x00, 0x02, 0x1c, 0x00, 0x00, 0x00,
  0x20, 0x00, 0x00, 0x00, 0x06, 0x00, 0x00, 0x00, 0x88, 0xfe, 0xff, 0xff,
  0x01, 0x00, 0x00, 0x00, 0x01, 0x00, 0x00, 0x00, 0x01, 0x00, 0x00, 0x00,
  0x01, 0x00, 0x00, 0x00, 0x27, 0x00, 0x00, 0x00, 0x03, 0x00, 0x00, 0x00,
  0x26, 0x00, 0x00, 0x00, 0x0d, 0x00, 0x00, 0x00, 0x11, 0x00, 0x00, 0x00,
  0xea, 0xfc, 0xff, 0xff, 0x14, 0x00, 0x00, 0x00, 0x00, 0x00, 0x00, 0x34,
  0x10, 0x00, 0x00, 0x00, 0x14, 0x00, 0x00, 0x00, 0x02, 0x00, 0x00, 0x00,
  0x44, 0xc1, 0xff, 0xff, 0x01, 0x00, 0x00, 0x00, 0x26, 0x00, 0x00, 0x00,
  0x02, 0x00, 0x00, 0x00, 0x25, 0x00, 0x00, 0x00, 0x03, 0x00, 0x00, 0x00,
  0xc6, 0xfd, 0xff, 0xff, 0x0c, 0x00, 0x00, 0x00, 0x10, 0x00, 0x00, 0x00,
  0x04, 0x00, 0x00, 0x00, 0x01, 0x00, 0x00, 0x00, 0x25, 0x00, 0x00, 0x00,
  0x02, 0x00, 0x00, 0x00, 0x24, 0x00, 0x00, 0x00, 0x05, 0x00, 0x00, 0x00,
  0x3e, 0xfd, 0xff, 0xff, 0x14, 0x00, 0x00, 0x00, 0x00, 0x00, 0x00, 0x05,
  0x24, 0x00, 0x00, 0x00, 0x28, 0x00, 0x00, 0x00, 0x05, 0x00, 0x00, 0x00,
  0x6a, 0xfe, 0xff, 0xff, 0x01, 0x00, 0x00, 0x00, 0x02, 0x00, 0x00, 0x00,
  0x01, 0x00, 0x00, 0x00, 0x02, 0x00, 0x00, 0x00, 0x00, 0x00, 0x00, 0x01,
  0x01, 0x00, 0x00, 0x00, 0x24, 0x00, 0x00, 0x00, 0x01, 0x00, 0x00, 0x00,
  0x23, 0x00, 0x00, 0x00, 0x7e, 0xfd, 0xff, 0xff, 0x14, 0x00, 0x00, 0x00,
  0x00, 0x00, 0x00, 0x34, 0x10, 0x00, 0x00, 0x00, 0x14, 0x00, 0x00, 0x00,
  0x02, 0x00, 0x00, 0x00, 0xd8, 0xc1, 0xff, 0xff, 0x01, 0x00, 0x00, 0x00,
  0x23, 0x00, 0x00, 0x00, 0x02, 0x00, 0x00, 0x00, 0x22, 0x00, 0x00, 0x00,
  0x03, 0x00, 0x00, 0x00, 0x5a, 0xfe, 0xff, 0xff, 0x0c, 0x00, 0x00, 0x00,
  0x10, 0x00, 0x00, 0x00, 0x04, 0x00, 0x00, 0x00, 0x01, 0x00, 0x00, 0x00,
  0x22, 0x00, 0x00, 0x00, 0x02, 0x00, 0x00, 0x00, 0x21, 0x00, 0x00, 0x00,
  0x04, 0x00, 0x00, 0x00, 0xd2, 0xfd, 0xff, 0xff, 0x20, 0x00, 0x00, 0x00,
  0x00, 0x00, 0x00, 0x01, 0x2c, 0x00, 0x00, 0x00, 0x30, 0x00, 0x00, 0x00,
  0x03, 0x00, 0x00, 0x00, 0x0c, 0x00, 0x14, 0x00, 0x13, 0x00, 0x0c, 0x00,
  0x08, 0x00, 0x07, 0x00, 0x0c, 0x00, 0x00, 0x00, 0x00, 0x00, 0x00, 0x01,
  0x01, 0x00, 0x00, 0x00, 0x01, 0x00, 0x00, 0x00, 0x00, 0x00, 0x00, 0x01,
  0x01, 0x00, 0x00, 0x00, 0x21, 0x00, 0x00, 0x00, 0x03, 0x00, 0x00, 0x00,
  0x20, 0x00, 0x00, 0x00, 0x0f, 0x00, 0x00, 0x00, 0x0e, 0x00, 0x00, 0x00,
  0x22, 0xfe, 0xff, 0xff, 0x20, 0x00, 0x00, 0x00, 0x00, 0x00, 0x00, 0x02,
  0x28, 0x00, 0x00, 0x00, 0x2c, 0x00, 0x00, 0x00, 0x06, 0x00, 0x00, 0x00,
  0x0c, 0x00, 0x10, 0x00, 0x00, 0x00, 0x0c, 0x00, 0x08, 0x00, 0x04, 0x00,
  0x0c, 0x00, 0x00, 0x00, 0x01, 0x00, 0x00, 0x00, 0x01, 0x00, 0x00, 0x00,
  0x01, 0x00, 0x00, 0x00, 0x01, 0x00, 0x00, 0x00, 0x20, 0x00, 0x00, 0x00,
  0x03, 0x00, 0x00, 0x00, 0x1f, 0x00, 0x00, 0x00, 0x12, 0x00, 0x00, 0x00,
  0x10, 0x00, 0x00, 0x00, 0x6e, 0xfe, 0xff, 0xff, 0x14, 0x00, 0x00, 0x00,
  0x00, 0x00, 0x00, 0x34, 0x10, 0x00, 0x00, 0x00, 0x14, 0x00, 0x00, 0x00,
  0x02, 0x00, 0x00, 0x00, 0xc8, 0xc2, 0xff, 0xff, 0x01, 0x00, 0x00, 0x00,
  0x1f, 0x00, 0x00, 0x00, 0x02, 0x00, 0x00, 0x00, 0x1e, 0x00, 0x00, 0x00,
  0x03, 0x00, 0x00, 0x00, 0x4a, 0xff, 0xff, 0xff, 0x0c, 0x00, 0x00, 0x00,
  0x10, 0x00, 0x00, 0x00, 0x04, 0x00, 0x00, 0x00, 0x01, 0x00, 0x00, 0x00,
  0x1e, 0x00, 0x00, 0x00, 0x02, 0x00, 0x00, 0x00, 0x1d, 0x00, 0x00, 0x00,
  0x04, 0x00, 0x00, 0x00, 0x00, 0x00, 0x0e, 0x00, 0x1a, 0x00, 0x14, 0x00,
  0x10, 0x00, 0x0c, 0x00, 0x0b, 0x00, 0x04, 0x00, 0x0e, 0x00, 0x00, 0x00,
  0x24, 0x00, 0x00, 0x00, 0x00, 0x00, 0x00, 0x05, 0x34, 0x00, 0x00, 0x00,
  0x38, 0x00, 0x00, 0x00, 0x05, 0x00, 0x00, 0x00, 0x00, 0x00, 0x0e, 0x00,
  0x18, 0x00, 0x17, 0x00, 0x10, 0x00, 0x0c, 0x00, 0x08, 0x00, 0x04, 0x00,
  0x0e, 0x00, 0x00, 0x00, 0x01, 0x00, 0x00, 0x00, 0x02, 0x00, 0x00, 0x00,
  0x01, 0x00, 0x00, 0x00, 0x02, 0x00, 0x00, 0x00, 0x00, 0x00, 0x00, 0x01,
  0x01, 0x00, 0x00, 0x00, 0x1d, 0x00, 0x00, 0x00, 0x01, 0x00, 0x00, 0x00,
  0x1c, 0x00, 0x00, 0x00, 0x22, 0xff, 0xff, 0xff, 0x14, 0x00, 0x00, 0x00,
  0x00, 0x00, 0x00, 0x34, 0x10, 0x00, 0x00, 0x00, 0x14, 0x00, 0x00, 0x00,
  0x02, 0x00, 0x00, 0x00, 0x7c, 0xc3, 0xff, 0xff, 0x01, 0x00, 0x00, 0x00,
  0x1c, 0x00, 0x00, 0x00, 0x02, 0x00, 0x00, 0x00, 0x1b, 0x00, 0x00, 0x00,
  0x03, 0x00, 0x00, 0x00, 0x00, 0x00, 0x0a, 0x00, 0x10, 0x00, 0x0c, 0x00,
  0x08, 0x00, 0x04, 0x00, 0x0a, 0x00, 0x00, 0x00, 0x0c, 0x00, 0x00, 0x00,
  0x10, 0x00, 0x00, 0x00, 0x04, 0x00, 0x00, 0x00, 0x01, 0x00, 0x00, 0x00,
  0x1b, 0x00, 0x00, 0x00, 0x02, 0x00, 0x00, 0x00, 0x1a, 0x00, 0x00, 0x00,
  0x02, 0x00, 0x00, 0x00, 0x82, 0xff, 0xff, 0xff, 0x20, 0x00, 0x00, 0x00,
  0x00, 0x00, 0x00, 0x01, 0x28, 0x00, 0x00, 0x00, 0x2c, 0x00, 0x00, 0x00,
  0x03, 0x00, 0x00, 0x00, 0x0c, 0x00, 0x10, 0x00, 0x00, 0x00, 0x0c, 0x00,
  0x08, 0x00, 0x07, 0x00, 0x0c, 0x00, 0x00, 0x00, 0x00, 0x00, 0x00, 0x01,
  0x01, 0x00, 0x00, 0x00, 0x01, 0x00, 0x00, 0x00, 0x01, 0x00, 0x00, 0x00,
  0x1a, 0x00, 0x00, 0x00, 0x03, 0x00, 0x00, 0x00, 0x19, 0x00, 0x00, 0x00,
  0x14, 0x00, 0x00, 0x00, 0x13, 0x00, 0x00, 0x00, 0xce, 0xff, 0xff, 0xff,
  0x14, 0x00, 0x00, 0x00, 0x00, 0x00, 0x00, 0x34, 0x10, 0x00, 0x00, 0x00,
  0x14, 0x00, 0x00, 0x00, 0x02, 0x00, 0x00, 0x00, 0x28, 0xc4, 0xff, 0xff,
  0x01, 0x00, 0x00, 0x00, 0x19, 0x00, 0x00, 0x00, 0x02, 0x00, 0x00, 0x00,
  0x18, 0x00, 0x00, 0x00, 0x01, 0x00, 0x00, 0x00, 0x00, 0x00, 0x0e, 0x00,
  0x18, 0x00, 0x14, 0x00, 0x10, 0x00, 0x0c, 0x00, 0x0b, 0x00, 0x04, 0x00,
  0x0e, 0x00, 0x00, 0x00, 0x14, 0x00, 0x00, 0x00, 0x00, 0x00, 0x00, 0x15,
  0x10, 0x00, 0x00, 0x00, 0x14, 0x00, 0x00, 0x00, 0x01, 0x00, 0x00, 0x00,
  0x68, 0xc4, 0xff, 0xff, 0x01, 0x00, 0x00, 0x00, 0x18, 0x00, 0x00, 0x00,
  0x02, 0x00, 0x00, 0x00, 0x17, 0x00, 0x00, 0x00, 0x15, 0x00, 0x00, 0x00,
  0x00, 0x00, 0x0e, 0x00, 0x14, 0x00, 0x00, 0x00, 0x10, 0x00, 0x0c, 0x00,
  0x0b, 0x00, 0x04, 0x00, 0x0e, 0x00, 0x00, 0x00, 0x10, 0x00, 0x00, 0x00,
  0x00, 0x00, 0x00, 0x1c, 0x0c, 0x00, 0x00, 0x00, 0x10, 0x00, 0x00, 0x00,
  0xa4, 0xc4, 0xff, 0xff, 0x01, 0x00, 0x00, 0x00, 0x17, 0x00, 0x00, 0x00,
  0x02, 0x00, 0x00, 0x00, 0x00, 0x00, 0x00, 0x00, 0x16, 0x00, 0x00, 0x00,
  0x01, 0x00, 0x00, 0x00, 0x2d, 0x00, 0x00, 0x00, 0x01, 0x00, 0x00, 0x00,
  0x00, 0x00, 0x00, 0x00, 0x2e, 0x00, 0x00, 0x00, 0x90, 0x3b, 0x00, 0x00,
  0x10, 0x3b, 0x00, 0x00, 0x98, 0x3a, 0x00, 0x00, 0x5c, 0x3a, 0x00, 0x00,
  0x1c, 0x3a, 0x00, 0x00, 0xb8, 0x39, 0x00, 0x00, 0x5c, 0x39, 0x00, 0x00,
  0xec, 0x38, 0x00, 0x00, 0x78, 0x38, 0x00, 0x00, 0x34, 0x37, 0x00, 0x00,
  0x10, 0x36, 0x00, 0x00, 0x14, 0x31, 0x00, 0x00, 0x98, 0x2c, 0x00, 0x00,
  0x74, 0x2a, 0x00, 0x00, 0xe0, 0x26, 0x00, 0x00, 0xe4, 0x23, 0x00, 0x00,
  0x10, 0x22, 0x00, 0x00, 0x3c, 0x20, 0x00, 0x00, 0x2c, 0x1e, 0x00, 0x00,
  0xd4, 0x1a, 0x00, 0x00, 0x00, 0x18, 0x00, 0x00, 0x54, 0x17, 0x00, 0x00,
  0xf8, 0x16, 0x00, 0x00, 0x68, 0x16, 0x00, 0x00, 0xac, 0x15, 0x00, 0x00,
  0x04, 0x15, 0x00, 0x00, 0x00, 0x13, 0x00, 0x00, 0x28, 0x11, 0x00, 0x00,
  0x80, 0x10, 0x00, 0x00, 0xe4, 0x0f, 0x00, 0x00, 0x44, 0x0f, 0x00, 0x00,
  0xa4, 0x0e, 0x00, 0x00, 0xf0, 0x0d, 0x00, 0x00, 0xc4, 0x0b, 0x00, 0x00,
  0xd4, 0x09, 0x00, 0x00, 0x2c, 0x09, 0x00, 0x00, 0x90, 0x08, 0x00, 0x00,
  0xf0, 0x07, 0x00, 0x00, 0x50, 0x07, 0x00, 0x00, 0x9c, 0x06, 0x00, 0x00,
  0x70, 0x04, 0x00, 0x00, 0x80, 0x02, 0x00, 0x00, 0xe8, 0x01, 0x00, 0x00,
  0x24, 0x01, 0x00, 0x00, 0x80, 0x00, 0x00, 0x00, 0x04, 0x00, 0x00, 0x00,
  0x3e, 0xc5, 0xff, 0xff, 0x00, 0x00, 0x00, 0x01, 0x18, 0x00, 0x00, 0x00,
  0x20, 0x00, 0x00, 0x00, 0x3c, 0x00, 0x00, 0x00, 0x2e, 0x00, 0x00, 0x00,
  0x00, 0x00, 0x00, 0x09, 0x50, 0x00, 0x00, 0x00, 0x02, 0x00, 0x00, 0x00,
  0xff, 0xff, 0xff, 0xff, 0x01, 0x00, 0x00, 0x00, 0x24, 0xc5, 0xff, 0xff,
  0x08, 0x00, 0x00, 0x00, 0x10, 0x00, 0x00, 0x00, 0x01, 0x00, 0x00, 0x00,
  0x80, 0xff, 0xff, 0xff, 0xff, 0xff, 0xff, 0xff, 0x01, 0x00, 0x00, 0x00,
  0x00, 0x00, 0x80, 0x3b, 0x1b, 0x00, 0x00, 0x00, 0x53, 0x74, 0x61, 0x74,
  0x65, 0x66, 0x75, 0x6c, 0x50, 0x61, 0x72, 0x74, 0x69, 0x74, 0x69, 0x6f,
  0x6e, 0x65, 0x64, 0x43, 0x61, 0x6c, 0x6c, 0x5f, 0x31, 0x3a, 0x30, 0x00,
  0x02, 0x00, 0x00, 0x00, 0x01, 0x00, 0x00, 0x00, 0x01, 0x00, 0x00, 0x00,
  0xb6, 0xc5, 0xff, 0xff, 0x00, 0x00, 0x00, 0x01, 0x18, 0x00, 0x00, 0x00,
  0x20, 0x00, 0x00, 0x00, 0x40, 0x00, 0x00, 0x00, 0x2d, 0x00, 0x00, 0x00,
  0x00, 0x00, 0x00, 0x09, 0x78, 0x00, 0x00, 0x00, 0x02, 0x00, 0x00, 0x00,
  0xff, 0xff, 0xff, 0xff, 0x01, 0x00, 0x00, 0x00, 0x9c, 0xc5, 0xff, 0xff,
  0x08, 0x00, 0x00, 0x00, 0x14, 0x00, 0x00, 0x00, 0x01, 0x00, 0x00, 0x00,
  0x1d, 0x00, 0x00, 0x00, 0x00, 0x00, 0x00, 0x00, 0x00, 0x00, 0x00, 0x00,
  0x01, 0x00, 0x00, 0x00, 0xd0, 0x21, 0xab, 0x3d, 0x3c, 0x00, 0x00, 0x00,
  0x66, 0x75, 0x6e, 0x63, 0x74, 0x69, 0x6f, 0x6e, 0x61, 0x6c, 0x5f, 0x33,
  0x5f, 0x31, 0x2f, 0x64, 0x65, 0x6e, 0x73, 0x65, 0x5f, 0x37, 0x5f, 0x31,
  0x2f, 0x4d, 0x61, 0x74, 0x4d, 0x75, 0x6c, 0x3b, 0x66, 0x75, 0x6e, 0x63,
  0x74, 0x69, 0x6f, 0x6e, 0x61, 0x6c, 0x5f, 0x33, 0x5f, 0x31, 0x2f, 0x64,
  0x65, 0x6e, 0x73, 0x65, 0x5f, 0x37, 0x5f, 0x31, 0x2f, 0x41, 0x64, 0x64,
  0x00, 0x00, 0x00, 0x00, 0x02, 0x00, 0x00, 0x00, 0x01, 0x00, 0x00, 0x00,
  0x01, 0x00, 0x00, 0x00, 0x56, 0xc6, 0xff, 0xff, 0x00, 0x00, 0x00, 0x01,
  0x18, 0x00, 0x00, 0x00, 0x20, 0x00, 0x00, 0x00, 0x40, 0x00, 0x00, 0x00,
  0x2c, 0x00, 0x00, 0x00, 0x00, 0x00, 0x00, 0x09, 0x98, 0x00, 0x00, 0x00,
  0x02, 0x00, 0x00, 0x00, 0xff, 0xff, 0xff, 0xff, 0x10, 0x00, 0x00, 0x00,
  0x3c, 0xc6, 0xff, 0xff, 0x08, 0x00, 0x00, 0x00, 0x14, 0x00, 0x00, 0x00,
  0x01, 0x00, 0x00, 0x00, 0x80, 0xff, 0xff, 0xff, 0xff, 0xff, 0xff, 0xff,
  0x00, 0x00, 0x00, 0x00, 0x01, 0x00, 0x00, 0x00, 0x8b, 0x85, 0xca, 0x3c,
  0x5e, 0x00, 0x00, 0x00, 0x66, 0x75, 0x6e, 0x63, 0x74, 0x69, 0x6f, 0x6e,
  0x61, 0x6c, 0x5f, 0x33, 0x5f, 0x31, 0x2f, 0x64, 0x65, 0x6e, 0x73, 0x65,
  0x5f, 0x36, 0x5f, 0x31, 0x2f, 0x4d, 0x61, 0x74, 0x4d, 0x75, 0x6c, 0x3b,
  0x66, 0x75, 0x6e, 0x63, 0x74, 0x69, 0x6f, 0x6e, 0x61, 0x6c, 0x5f, 0x33,
  0x5f, 0x31, 0x2f, 0x64, 0x65, 0x6e, 0x73, 0x65, 0x5f, 0x36, 0x5f, 0x31,
  0x2f, 0x52, 0x65, 0x6c, 0x75, 0x3b, 0x66, 0x75, 0x6e, 0x63, 0x74, 0x69,
  0x6f, 0x6e, 0x61, 0x6c, 0x5f, 0x33, 0x5f, 0x31, 0x2f, 0x64, 0x65, 0x6e,
  0x73, 0x65, 0x5f, 0x36, 0x5f, 0x31, 0x2f, 0x42, 0x69, 0x61, 0x73, 0x41,
  0x64, 0x64, 0x00, 0x00, 0x02, 0x00, 0x00, 0x00, 0x01, 0x00, 0x00, 0x00,
  0x10, 0x00, 0x00, 0x00, 0x16, 0xc7, 0xff, 0xff, 0x00, 0x00, 0x00, 0x01,
  0x18, 0x00, 0x00, 0x00, 0x20, 0x00, 0x00, 0x00, 0x40, 0x00, 0x00, 0x00,
  0x2b, 0x00, 0x00, 0x00, 0x00, 0x00, 0x00, 0x09, 0x6c, 0x00, 0x00, 0x00,
  0x02, 0x00, 0x00, 0x00, 0xff, 0xff, 0xff, 0xff, 0x40, 0x00, 0x00, 0x00,
  0xfc, 0xc6, 0xff, 0xff, 0x08, 0x00, 0x00, 0x00, 0x14, 0x00, 0x00, 0x00,
  0x01, 0x00, 0x00, 0x00, 0x80, 0xff, 0xff, 0xff, 0xff, 0xff, 0xff, 0xff,
  0x00, 0x00, 0x00, 0x00, 0x01, 0x00, 0x00, 0x00, 0x9d, 0xea, 0x41, 0x3c,
  0x30, 0x00, 0x00, 0x00, 0x66, 0x75, 0x6e, 0x63, 0x74, 0x69, 0x6f, 0x6e,
  0x61, 0x6c, 0x5f, 0x33, 0x5f, 0x31, 0x2f, 0x67, 0x6c, 0x6f, 0x62, 0x61,
  0x6c, 0x5f, 0x61, 0x76, 0x65, 0x72, 0x61, 0x67, 0x65, 0x5f, 0x70, 0x6f,
  0x6f, 0x6c, 0x69, 0x6e, 0x67, 0x31, 0x64, 0x5f, 0x33, 0x5f, 0x31, 0x2f,
  0x4d, 0x65, 0x61, 0x6e, 0x00, 0x00, 0x00, 0x00, 0x02, 0x00, 0x00, 0x00,
  0x01, 0x00, 0x00, 0x00, 0x40, 0x00, 0x00, 0x00, 0xaa, 0xc7, 0xff, 0xff,
  0x00, 0x00, 0x00, 0x01, 0x18, 0x00, 0x00, 0x00, 0x24, 0x00, 0x00, 0x00,
  0x40, 0x00, 0x00, 0x00, 0x2a, 0x00, 0x00, 0x00, 0x00, 0x00, 0x00, 0x09,
  0xc0, 0x01, 0x00, 0x00, 0x03, 0x00, 0x00, 0x00, 0xff, 0xff, 0xff, 0xff,
  0x19, 0x00, 0x00, 0x00, 0x40, 0x00, 0x00, 0x00, 0x94, 0xc7, 0xff, 0xff,
  0x08, 0x00, 0x00, 0x00, 0x10, 0x00, 0x00, 0x00, 0x01, 0x00, 0x00, 0x00,
  0x80, 0xff, 0xff, 0xff, 0xff, 0xff, 0xff, 0xff, 0x01, 0x00, 0x00, 0x00,
  0x3b, 0xbc, 0xb2, 0x3d, 0x85, 0x01, 0x00, 0x00, 0x66, 0x75, 0x6e, 0x63,
  0x74, 0x69, 0x6f, 0x6e, 0x61, 0x6c, 0x5f, 0x33, 0x5f, 0x31, 0x2f, 0x61,
  0x63, 0x74, 0x69, 0x76, 0x61, 0x74, 0x69, 0x6f, 0x6e, 0x5f, 0x31, 0x31,
  0x5f, 0x31, 0x2f, 0x52, 0x65, 0x6c, 0x75, 0x3b, 0x66, 0x75, 0x6e, 0x63,
  0x74, 0x69, 0x6f, 0x6e, 0x61, 0x6c, 0x5f, 0x33, 0x5f, 0x31, 0x2f, 0x62,
  0x61, 0x74, 0x63, 0x68, 0x5f, 0x6e, 0x6f, 0x72, 0x6d, 0x61, 0x6c, 0x69,
  0x7a, 0x61, 0x74, 0x69, 0x6f, 0x6e, 0x5f, 0x31, 0x31, 0x5f, 0x31, 0x2f,
  0x62, 0x61, 0x74, 0x63, 0x68, 0x6e, 0x6f, 0x72, 0x6d, 0x2f, 0x61, 0x64,
  0x64, 0x5f, 0x31, 0x3b, 0x66, 0x75, 0x6e, 0x63, 0x74, 0x69, 0x6f, 0x6e,
  0x61, 0x6c, 0x5f, 0x33, 0x5f, 0x31, 0x2f, 0x73, 0x65, 0x70, 0x61, 0x72,
  0x61, 0x62, 0x6c, 0x65, 0x5f, 0x63, 0x6f, 0x6e, 0x76, 0x31, 0x64, 0x5f,
  0x37, 0x5f, 0x31, 0x2f, 0x53, 0x71, 0x75, 0x65, 0x65, 0x7a, 0x65, 0x3b,
  0x66, 0x75, 0x6e, 0x63, 0x74, 0x69, 0x6f, 0x6e, 0x61, 0x6c, 0x5f, 0x33,
  0x5f, 0x31, 0x2f, 0x62, 0x61, 0x74, 0x63, 0x68, 0x5f, 0x6e, 0x6f, 0x72,
  0x6d, 0x61, 0x6c, 0x69, 0x7a, 0x61, 0x74, 0x69, 0x6f, 0x6e, 0x5f, 0x31,
  0x31, 0x5f, 0x31, 0x2f, 0x62, 0x61, 0x74, 0x63, 0x68, 0x6e, 0x6f, 0x72,
  0x6d, 0x2f, 0x6d, 0x75, 0x6c, 0x5f, 0x31, 0x3b, 0x66, 0x75, 0x6e, 0x63,
  0x74, 0x69, 0x6f, 0x6e, 0x61, 0x6c, 0x5f, 0x33, 0x5f, 0x31, 0x2f, 0x73,
  0x65, 0x70, 0x61, 0x72, 0x61, 0x62, 0x6c, 0x65, 0x5f, 0x63, 0x6f, 0x6e,
  0x76, 0x31, 0x64, 0x5f, 0x37, 0x5f, 0x31, 0x2f, 0x42, 0x69, 0x61, 0x73,
  0x41, 0x64, 0x64, 0x3b, 0x66, 0x75, 0x6e, 0x63, 0x74, 0x69, 0x6f, 0x6e,
  0x61, 0x6c, 0x5f, 0x33, 0x5f, 0x31, 0x2f, 0x73, 0x65, 0x70, 0x61, 0x72,
  0x61, 0x62, 0x6c, 0x65, 0x5f, 0x63, 0x6f, 0x6e, 0x76, 0x31, 0x64, 0x5f,
  0x37, 0x5f, 0x31, 0x2f, 0x53, 0x71, 0x75, 0x65, 0x65, 0x7a, 0x65, 0x5f,
  0x31, 0x3b, 0x66, 0x75, 0x6e, 0x63, 0x74, 0x69, 0x6f, 0x6e, 0x61, 0x6c,
  0x5f, 0x33, 0x5f, 0x31, 0x2f, 0x62, 0x61, 0x74, 0x63, 0x68, 0x5f, 0x6e,
  0x6f, 0x72, 0x6d, 0x61, 0x6c, 0x69, 0x7a, 0x61, 0x74, 0x69, 0x6f, 0x6e,
  0x5f, 0x31, 0x31, 0x5f, 0x31, 0x2f, 0x62, 0x61, 0x74, 0x63, 0x68, 0x6e,
  0x6f, 0x72, 0x6d, 0x2f, 0x6d, 0x75, 0x6c, 0x3b, 0x66, 0x75, 0x6e, 0x63,
  0x74, 0x69, 0x6f, 0x6e, 0x61, 0x6c, 0x5f, 0x33, 0x5f, 0x31, 0x2f, 0x62,
  0x61, 0x74, 0x63, 0x68, 0x5f, 0x6e, 0x6f, 0x72, 0x6d, 0x61, 0x6c, 0x69,
  0x7a, 0x61, 0x74, 0x69, 0x6f, 0x6e, 0x5f, 0x31, 0x31, 0x5f, 0x31, 0x2f,
  0x62, 0x61, 0x74, 0x63, 0x68, 0x6e, 0x6f, 0x72, 0x6d, 0x2f, 0x73, 0x75,
  0x62, 0x00, 0x00, 0x00, 0x03, 0x00, 0x00, 0x00, 0x01, 0x00, 0x00, 0x00,
  0x19, 0x00, 0x00, 0x00, 0x40, 0x00, 0x00, 0x00, 0x96, 0xc9, 0xff, 0xff,
  0x00, 0x00, 0x00, 0x01, 0x18, 0x00, 0x00, 0x00, 0x28, 0x00, 0x00, 0x00,
  0x44, 0x00, 0x00, 0x00, 0x29, 0x00, 0x00, 0x00, 0x00, 0x00, 0x00, 0x09,
  0xf8, 0x01, 0x00, 0x00, 0x04, 0x00, 0x00, 0x00, 0xff, 0xff, 0xff, 0xff,
  0x01, 0x00, 0x00, 0x00, 0x19, 0x00, 0x00, 0x00, 0x40, 0x00, 0x00, 0x00,
  0x84, 0xc9, 0xff, 0xff, 0x08, 0x00, 0x00, 0x00, 0x10, 0x00, 0x00, 0x00,
  0x01, 0x00, 0x00, 0x00, 0x80, 0xff, 0xff, 0xff, 0xff, 0xff, 0xff, 0xff,
  0x01, 0x00, 0x00, 0x00, 0x3b, 0xbc, 0xb2, 0x3d, 0xbb, 0x01, 0x00, 0x00,
  0x66, 0x75, 0x6e, 0x63, 0x74, 0x69, 0x6f, 0x6e, 0x61, 0x6c, 0x5f, 0x33,
  0x5f, 0x31, 0x2f, 0x61, 0x63, 0x74, 0x69, 0x76, 0x61, 0x74, 0x69, 0x6f,
  0x6e, 0x5f, 0x31, 0x31, 0x5f, 0x31, 0x2f, 0x52, 0x65, 0x6c, 0x75, 0x3b,
  0x66, 0x75, 0x6e, 0x63, 0x74, 0x69, 0x6f, 0x6e, 0x61, 0x6c, 0x5f, 0x33,
  0x5f, 0x31, 0x2f, 0x62, 0x61, 0x74, 0x63, 0x68, 0x5f, 0x6e, 0x6f, 0x72,
  0x6d, 0x61, 0x6c, 0x69, 0x7a, 0x61, 0x74, 0x69, 0x6f, 0x6e, 0x5f, 0x31,
  0x31, 0x5f, 0x31, 0x2f, 0x62, 0x61, 0x74, 0x63, 0x68, 0x6e, 0x6f, 0x72,
  0x6d, 0x2f, 0x61, 0x64, 0x64, 0x5f, 0x31, 0x3b, 0x66, 0x75, 0x6e, 0x63,
  0x74, 0x69, 0x6f, 0x6e, 0x61, 0x6c, 0x5f, 0x33, 0x5f, 0x31, 0x2f, 0x73,
  0x65, 0x70, 0x61, 0x72, 0x61, 0x62, 0x6c, 0x65, 0x5f, 0x63, 0x6f, 0x6e,
  0x76, 0x31, 0x64, 0x5f, 0x37, 0x5f, 0x31, 0x2f, 0x53, 0x71, 0x75, 0x65,
  0x65, 0x7a, 0x65, 0x3b, 0x66, 0x75, 0x6e, 0x63, 0x74, 0x69, 0x6f, 0x6e,
  0x61, 0x6c, 0x5f, 0x33, 0x5f, 0x31, 0x2f, 0x62, 0x61, 0x74, 0x63, 0x68,
  0x5f, 0x6e, 0x6f, 0x72, 0x6d, 0x61, 0x6c, 0x69, 0x7a, 0x61, 0x74, 0x69,
  0x6f, 0x6e, 0x5f, 0x31, 0x31, 0x5f, 0x31, 0x2f, 0x62, 0x61, 0x74, 0x63,
  0x68, 0x6e, 0x6f, 0x72, 0x6d, 0x2f, 0x6d, 0x75, 0x6c, 0x5f, 0x31, 0x3b,
  0x66, 0x75, 0x6e, 0x63, 0x74, 0x69, 0x6f, 0x6e, 0x61, 0x6c, 0x5f, 0x33,
  0x5f, 0x31, 0x2f, 0x73, 0x65, 0x70, 0x61, 0x72, 0x61, 0x62, 0x6c, 0x65,
  0x5f, 0x63, 0x6f, 0x6e, 0x76, 0x31, 0x64, 0x5f, 0x37, 0x5f, 0x31, 0x2f,
  0x42, 0x69, 0x61, 0x73, 0x41, 0x64, 0x64, 0x3b, 0x66, 0x75, 0x6e, 0x63,
  0x74, 0x69, 0x6f, 0x6e, 0x61, 0x6c, 0x5f, 0x33, 0x5f, 0x31, 0x2f, 0x73,
  0x65, 0x70, 0x61, 0x72, 0x61, 0x62, 0x6c, 0x65, 0x5f, 0x63, 0x6f, 0x6e,
  0x76, 0x31, 0x64, 0x5f, 0x37, 0x5f, 0x31, 0x2f, 0x53, 0x71, 0x75, 0x65,
  0x65, 0x7a, 0x65, 0x5f, 0x31, 0x3b, 0x66, 0x75, 0x6e, 0x63, 0x74, 0x69,
  0x6f, 0x6e, 0x61, 0x6c, 0x5f, 0x33, 0x5f, 0x31, 0x2f, 0x62, 0x61, 0x74,
  0x63, 0x68, 0x5f, 0x6e, 0x6f, 0x72, 0x6d, 0x61, 0x6c, 0x69, 0x7a, 0x61,
  0x74, 0x69, 0x6f, 0x6e, 0x5f, 0x31, 0x31, 0x5f, 0x31, 0x2f, 0x62, 0x61,
  0x74, 0x63, 0x68, 0x6e, 0x6f, 0x72, 0x6d, 0x2f, 0x6d, 0x75, 0x6c, 0x3b,
  0x66, 0x75, 0x6e, 0x63, 0x74, 0x69, 0x6f, 0x6e, 0x61, 0x6c, 0x5f, 0x33,
  0x5f, 0x31, 0x2f, 0x62, 0x61, 0x74, 0x63, 0x68, 0x5f, 0x6e, 0x6f, 0x72,
  0x6d, 0x61, 0x6c, 0x69, 0x7a, 0x61, 0x74, 0x69, 0x6f, 0x6e, 0x5f, 0x31,
  0x31, 0x5f, 0x31, 0x2f, 0x62, 0x61, 0x74, 0x63, 0x68, 0x6e, 0x6f, 0x72,
  0x6d, 0x2f, 0x73, 0x75, 0x62, 0x3b, 0x66, 0x75, 0x6e, 0x63, 0x74, 0x69,
  0x6f, 0x6e, 0x61, 0x6c, 0x5f, 0x33, 0x5f, 0x31, 0x2f, 0x73, 0x65, 0x70,
  0x61, 0x72, 0x61, 0x62, 0x6c, 0x65, 0x5f, 0x63, 0x6f, 0x6e, 0x76, 0x31,
  0x64, 0x5f, 0x37, 0x5f, 0x31, 0x2f, 0x73, 0x65, 0x70, 0x61, 0x72, 0x61,
  0x62, 0x6c, 0x65, 0x5f, 0x63, 0x6f, 0x6e, 0x76, 0x32, 0x64, 0x31, 0x00,
  0x04, 0x00, 0x00, 0x00, 0x01, 0x00, 0x00, 0x00, 0x01, 0x00, 0x00, 0x00,
  0x19, 0x00, 0x00, 0x00, 0x40, 0x00, 0x00, 0x00, 0xbe, 0xcb, 0xff, 0xff,
  0x00, 0x00, 0x00, 0x01, 0x18, 0x00, 0x00, 0x00, 0x28, 0x00, 0x00, 0x00,
  0x48, 0x00, 0x00, 0x00, 0x28, 0x00, 0x00, 0x00, 0x00, 0x00, 0x00, 0x09,
  0x80, 0x00, 0x00, 0x00, 0x04, 0x00, 0x00, 0x00, 0xff, 0xff, 0xff, 0xff,
  0x01, 0x00, 0x00, 0x00, 0x19, 0x00, 0x00, 0x00, 0x20, 0x00, 0x00, 0x00,
  0xac, 0xcb, 0xff, 0xff, 0x08, 0x00, 0x00, 0x00, 0x14, 0x00, 0x00, 0x00,
  0x01, 0x00, 0x00, 0x00, 0xef, 0xff, 0xff, 0xff, 0xff, 0xff, 0xff, 0xff,
  0x00, 0x00, 0x00, 0x00, 0x01, 0x00, 0x00, 0x00, 0x67, 0x00, 0x10, 0x3d,
  0x3f, 0x00, 0x00, 0x00, 0x66, 0x75, 0x6e, 0x63, 0x74, 0x69, 0x6f, 0x6e,
  0x61, 0x6c, 0x5f, 0x33, 0x5f, 0x31, 0x2f, 0x73, 0x65, 0x70, 0x61, 0x72,
  0x61, 0x62, 0x6c, 0x65, 0x5f, 0x63, 0x6f, 0x6e, 0x76, 0x31, 0x64, 0x5f,
  0x37, 0x5f, 0x31, 0x2f, 0x73, 0x65, 0x70, 0x61, 0x72, 0x61, 0x62, 0x6c,
  0x65, 0x5f, 0x63, 0x6f, 0x6e, 0x76, 0x32, 0x64, 0x2f, 0x64, 0x65, 0x70,
  0x74, 0x68, 0x77, 0x69, 0x73, 0x65, 0x31, 0x00, 0x04, 0x00, 0x00, 0x00,
  0x01, 0x00, 0x00, 0x00, 0x01, 0x00, 0x00, 0x00, 0x19, 0x00, 0x00, 0x00,
  0x20, 0x00, 0x00, 0x00, 0x6e, 0xcc, 0xff, 0xff, 0x00, 0x00, 0x00, 0x01,
  0x18, 0x00, 0x00, 0x00, 0x28, 0x00, 0x00, 0x00, 0x44, 0x00, 0x00, 0x00,
  0x27, 0x00, 0x00, 0x00, 0x00, 0x00, 0x00, 0x09, 0x6c, 0x00, 0x00, 0x00,
  0x04, 0x00, 0x00, 0x00, 0xff, 0xff, 0xff, 0xff, 0x01, 0x00, 0x00, 0x00,
  0x19, 0x00, 0x00, 0x00, 0x20, 0x00, 0x00, 0x00, 0x5c, 0xcc, 0xff, 0xff,
  0x08, 0x00, 0x00, 0x00, 0x10, 0x00, 0x00, 0x00, 0x01, 0x00, 0x00, 0x00,
  0x80, 0xff, 0xff, 0xff, 0xff, 0xff, 0xff, 0xff, 0x01, 0x00, 0x00, 0x00,
  0xf4, 0xf4, 0xbd, 0x3d, 0x2e, 0x00, 0x00, 0x00, 0x66, 0x75, 0x6e, 0x63,
  0x74, 0x69, 0x6f, 0x6e, 0x61, 0x6c, 0x5f, 0x33, 0x5f, 0x31, 0x2f, 0x73,
  0x65, 0x70, 0x61, 0x72, 0x61, 0x62, 0x6c, 0x65, 0x5f, 0x63, 0x6f, 0x6e,
  0x76, 0x31, 0x64, 0x5f, 0x37, 0x5f, 0x31, 0x2f, 0x45, 0x78, 0x70, 0x61,
  0x6e, 0x64, 0x44, 0x69, 0x6d, 0x73, 0x00, 0x00, 0x04, 0x00, 0x00, 0x00,
  0x01, 0x00, 0x00, 0x00, 0x01, 0x00, 0x00, 0x00, 0x19, 0x00, 0x00, 0x00,
  0x20, 0x00, 0x00, 0x00, 0x0a, 0xcd, 0xff, 0xff, 0x00, 0x00, 0x00, 0x01,
  0x18, 0x00, 0x00, 0x00, 0x24, 0x00, 0x00, 0x00, 0x44, 0x00, 0x00, 0x00,
  0x26, 0x00, 0x00, 0x00, 0x00, 0x00, 0x00, 0x09, 0x70, 0x00, 0x00, 0x00,
  0x03, 0x00, 0x00, 0x00, 0xff, 0xff, 0xff, 0xff, 0x19, 0x00, 0x00, 0x00,
  0x20, 0x00, 0x00, 0x00, 0xf4, 0xcc, 0xff, 0xff, 0x08, 0x00, 0x00, 0x00,
  0x14, 0x00, 0x00, 0x00, 0x01, 0x00, 0x00, 0x00, 0x80, 0xff, 0xff, 0xff,
  0xff, 0xff, 0xff, 0xff, 0x00, 0x00, 0x00, 0x00, 0x01, 0x00, 0x00, 0x00,
  0xf4, 0xf4, 0xbd, 0x3d, 0x33, 0x00, 0x00, 0x00, 0x66, 0x75, 0x6e, 0x63,
  0x74, 0x69, 0x6f, 0x6e, 0x61, 0x6c, 0x5f, 0x33, 0x5f, 0x31, 0x2f, 0x6d,
  0x61, 0x78, 0x5f, 0x70, 0x6f, 0x6f, 0x6c, 0x69, 0x6e, 0x67, 0x31, 0x64,
  0x5f, 0x37, 0x5f, 0x31, 0x2f, 0x4d, 0x61, 0x78, 0x50, 0x6f, 0x6f, 0x6c,
  0x31, 0x64, 0x2f, 0x53, 0x71, 0x75, 0x65, 0x65, 0x7a, 0x65, 0x31, 0x00,
  0x03, 0x00, 0x00, 0x00, 0x01, 0x00, 0x00, 0x00, 0x19, 0x00, 0x00, 0x00,
  0x20, 0x00, 0x00, 0x00, 0xa6, 0xcd, 0xff, 0xff, 0x00, 0x00, 0x00, 0x01,
  0x18, 0x00, 0x00, 0x00, 0x28, 0x00, 0x00, 0x00, 0x44, 0x00, 0x00, 0x00,
  0x25, 0x00, 0x00, 0x00, 0x00, 0x00, 0x00, 0x09, 0x68, 0x00, 0x00, 0x00,
  0x04, 0x00, 0x00, 0x00, 0xff, 0xff, 0xff, 0xff, 0x01, 0x00, 0x00, 0x00,
  0x19, 0x00, 0x00, 0x00, 0x20, 0x00, 0x00, 0x00, 0x94, 0xcd, 0xff, 0xff,
  0x08, 0x00, 0x00, 0x00, 0x10, 0x00, 0x00, 0x00, 0x01, 0x00, 0x00, 0x00,
  0x80, 0xff, 0xff, 0xff, 0xff, 0xff, 0xff, 0xff, 0x01, 0x00, 0x00, 0x00,
  0xf4, 0xf4, 0xbd, 0x3d, 0x2a, 0x00, 0x00, 0x00, 0x66, 0x75, 0x6e, 0x63,
  0x74, 0x69, 0x6f, 0x6e, 0x61, 0x6c, 0x5f, 0x33, 0x5f, 0x31, 0x2f, 0x6d,
  0x61, 0x78, 0x5f, 0x70, 0x6f, 0x6f, 0x6c, 0x69, 0x6e, 0x67, 0x31, 0x64,
  0x5f, 0x37, 0x5f, 0x31, 0x2f, 0x4d, 0x61, 0x78, 0x50, 0x6f, 0x6f, 0x6c,
  0x31, 0x64, 0x00, 0x00, 0x04, 0x00, 0x00, 0x00, 0x01, 0x00, 0x00, 0x00,
  0x01, 0x00, 0x00, 0x00, 0x19, 0x00, 0x00, 0x00, 0x20, 0x00, 0x00, 0x00,
  0x3e, 0xce, 0xff, 0xff, 0x00, 0x00, 0x00, 0x01, 0x18, 0x00, 0x00, 0x00,
  0x28, 0x00, 0x00, 0x00, 0x44, 0x00, 0x00, 0x00, 0x24, 0x00, 0x00, 0x00,
  0x00, 0x00, 0x00, 0x09, 0x74, 0x00, 0x00, 0x00, 0x04, 0x00, 0x00, 0x00,
  0xff, 0xff, 0xff, 0xff, 0x01, 0x00, 0x00, 0x00, 0x32, 0x00, 0x00, 0x00,
  0x20, 0x00, 0x00, 0x00, 0x2c, 0xce, 0xff, 0xff, 0x08, 0x00, 0x00, 0x00,
  0x10, 0x00, 0x00, 0x00, 0x01, 0x00, 0x00, 0x00, 0x80, 0xff, 0xff, 0xff,
  0xff, 0xff, 0xff, 0xff, 0x01, 0x00, 0x00, 0x00, 0xf4, 0xf4, 0xbd, 0x3d,
  0x35, 0x00, 0x00, 0x00, 0x66, 0x75, 0x6e, 0x63, 0x74, 0x69, 0x6f, 0x6e,
  0x61, 0x6c, 0x5f, 0x33, 0x5f, 0x31, 0x2f, 0x6d, 0x61, 0x78, 0x5f, 0x70,
  0x6f, 0x6f, 0x6c, 0x69, 0x6e, 0x67, 0x31, 0x64, 0x5f, 0x37, 0x5f, 0x31,
  0x2f, 0x4d, 0x61, 0x78, 0x50, 0x6f, 0x6f, 0x6c, 0x31, 0x64, 0x2f, 0x45,
  0x78, 0x70, 0x61, 0x6e, 0x64, 0x44, 0x69, 0x6d, 0x73, 0x00, 0x00, 0x00,
  0x04, 0x00, 0x00, 0x00, 0x01, 0x00, 0x00, 0x00, 0x01, 0x00, 0x00, 0x00,
  0x32, 0x00, 0x00, 0x00, 0x20, 0x00, 0x00, 0x00, 0xe2, 0xce, 0xff, 0xff,
  0x00, 0x00, 0x00, 0x01, 0x18, 0x00, 0x00, 0x00, 0x24, 0x00, 0x00, 0x00,
  0x40, 0x00, 0x00, 0x00, 0x23, 0x00, 0x00, 0x00, 0x00, 0x00, 0x00, 0x09,
  0xc0, 0x01, 0x00, 0x00, 0x03, 0x00, 0x00, 0x00, 0xff, 0xff, 0xff, 0xff,
  0x32, 0x00, 0x00, 0x00, 0x20, 0x00, 0x00, 0x00, 0xcc, 0xce, 0xff, 0xff,
  0x08, 0x00, 0x00, 0x00, 0x10, 0x00, 0x00, 0x00, 0x01, 0x00, 0x00, 0x00,
  0x80, 0xff, 0xff, 0xff, 0xff, 0xff, 0xff, 0xff, 0x01, 0x00, 0x00, 0x00,
  0xf4, 0xf4, 0xbd, 0x3d, 0x85, 0x01, 0x00, 0x00, 0x66, 0x75, 0x6e, 0x63,
  0x74, 0x69, 0x6f, 0x6e, 0x61, 0x6c, 0x5f, 0x33, 0x5f, 0x31, 0x2f, 0x61,
  0x63, 0x74, 0x69, 0x76, 0x61, 0x74, 0x69, 0x6f, 0x6e, 0x5f, 0x31, 0x30,
  0x5f, 0x31, 0x2f, 0x52, 0x65, 0x6c, 0x75, 0x3b, 0x66, 0x75, 0x6e, 0x63,
  0x74, 0x69, 0x6f, 0x6e, 0x61, 0x6c, 0x5f, 0x33, 0x5f, 0x31, 0x2f, 0x62,
  0x61, 0x74, 0x63, 0x68, 0x5f, 0x6e, 0x6f, 0x72, 0x6d, 0x61, 0x6c, 0x69,
  0x7a, 0x61, 0x74, 0x69, 0x6f, 0x6e, 0x5f, 0x31, 0x30, 0x5f, 0x31, 0x2f,
  0x62, 0x61, 0x74, 0x63, 0x68, 0x6e, 0x6f, 0x72, 0x6d, 0x2f, 0x61, 0x64,
  0x64, 0x5f, 0x31, 0x3b, 0x66, 0x75, 0x6e, 0x63, 0x74, 0x69, 0x6f, 0x6e,
  0x61, 0x6c, 0x5f, 0x33, 0x5f, 0x31, 0x2f, 0x73, 0x65, 0x70, 0x61, 0x72,
  0x61, 0x62, 0x6c, 0x65, 0x5f, 0x63, 0x6f, 0x6e, 0x76, 0x31, 0x64, 0x5f,
  0x36, 0x5f, 0x31, 0x2f, 0x53, 0x71, 0x75, 0x65, 0x65, 0x7a, 0x65, 0x3b,
  0x66, 0x75, 0x6e, 0x63, 0x74, 0x69, 0x6f, 0x6e, 0x61, 0x6c, 0x5f, 0x33,
  0x5f, 0x31, 0x2f, 0x62, 0x61, 0x74, 0x63, 0x68, 0x5f, 0x6e, 0x6f, 0x72,
  0x6d, 0x61, 0x6c, 0x69, 0x7a, 0x61, 0x74, 0x69, 0x6f, 0x6e, 0x5f, 0x31,
  0x30, 0x5f, 0x31, 0x2f, 0x62, 0x61, 0x74, 0x63, 0x68, 0x6e, 0x6f, 0x72,
  0x6d, 0x2f, 0x6d, 0x75, 0x6c, 0x5f, 0x31, 0x3b, 0x66, 0x75, 0x6e, 0x63,
  0x74, 0x69, 0x6f, 0x6e, 0x61, 0x6c, 0x5f, 0x33, 0x5f, 0x31, 0x2f, 0x73,
  0x65, 0x70, 0x61, 0x72, 0x61, 0x62, 0x6c, 0x65, 0x5f, 0x63, 0x6f, 0x6e,
  0x76, 0x31, 0x64, 0x5f, 0x36, 0x5f, 0x31, 0x2f, 0x42, 0x69, 0x61, 0x73,
  0x41, 0x64, 0x64, 0x3b, 0x66, 0x75, 0x6e, 0x63, 0x74, 0x69, 0x6f, 0x6e,
  0x61, 0x6c, 0x5f, 0x33, 0x5f, 0x31, 0x2f, 0x73, 0x65, 0x70, 0x61, 0x72,
  0x61, 0x62, 0x6c, 0x65, 0x5f, 0x63, 0x6f, 0x6e, 0x76, 0x31, 0x64, 0x5f,
  0x36, 0x5f, 0x31, 0x2f, 0x53, 0x71, 0x75, 0x65, 0x65, 0x7a, 0x65, 0x5f,
  0x31, 0x3b, 0x66, 0x75, 0x6e, 0x63, 0x74, 0x69, 0x6f, 0x6e, 0x61, 0x6c,
  0x5f, 0x33, 0x5f, 0x31, 0x2f, 0x62, 0x61, 0x74, 0x63, 0x68, 0x5f, 0x6e,
  0x6f, 0x72, 0x6d, 0x61, 0x6c, 0x69, 0x7a, 0x61, 0x74, 0x69, 0x6f, 0x6e,
  0x5f, 0x31, 0x30, 0x5f, 0x31, 0x2f, 0x62, 0x61, 0x74, 0x63, 0x68, 0x6e,
  0x6f, 0x72, 0x6d, 0x2f, 0x6d, 0x75, 0x6c, 0x3b, 0x66, 0x75, 0x6e, 0x63,
  0x74, 0x69, 0x6f, 0x6e, 0x61, 0x6c, 0x5f, 0x33, 0x5f, 0x31, 0x2f, 0x62,
  0x61, 0x74, 0x63, 0x68, 0x5f, 0x6e, 0x6f, 0x72, 0x6d, 0x61, 0x6c, 0x69,
  0x7a, 0x61, 0x74, 0x69, 0x6f, 0x6e, 0x5f, 0x31, 0x30, 0x5f, 0x31, 0x2f,
  0x62, 0x61, 0x74, 0x63, 0x68, 0x6e, 0x6f, 0x72, 0x6d, 0x2f, 0x73, 0x75,
  0x62, 0x00, 0x00, 0x00, 0x03, 0x00, 0x00, 0x00, 0x01, 0x00, 0x00, 0x00,
  0x32, 0x00, 0x00, 0x00, 0x20, 0x00, 0x00, 0x00, 0xce, 0xd0, 0xff, 0xff,
  0x00, 0x00, 0x00, 0x01, 0x18, 0x00, 0x00, 0x00, 0x28, 0x00, 0x00, 0x00,
  0x44, 0x00, 0x00, 0x00, 0x22, 0x00, 0x00, 0x00, 0x00, 0x00, 0x00, 0x09,
  0xf8, 0x01, 0x00, 0x00, 0x04, 0x00, 0x00, 0x00, 0xff, 0xff, 0xff, 0xff,
  0x01, 0x00, 0x00, 0x00, 0x32, 0x00, 0x00, 0x00, 0x20, 0x00, 0x00, 0x00,
  0xbc, 0xd0, 0xff, 0xff, 0x08, 0x00, 0x00, 0x00, 0x10, 0x00, 0x00, 0x00,
  0x01, 0x00, 0x00, 0x00, 0x80, 0xff, 0xff, 0xff, 0xff, 0xff, 0xff, 0xff,
  0x01, 0x00, 0x00, 0x00, 0xf4, 0xf4, 0xbd, 0x3d, 0xbb, 0x01, 0x00, 0x00,
  0x66, 0x75, 0x6e, 0x63, 0x74, 0x69, 0x6f, 0x6e, 0x61, 0x6c, 0x5f, 0x33,
  0x5f, 0x31, 0x2f, 0x61, 0x63, 0x74, 0x69, 0x76, 0x61, 0x74, 0x69, 0x6f,
  0x6e, 0x5f, 0x31, 0x30, 0x5f, 0x31, 0x2f, 0x52, 0x65, 0x6c, 0x75, 0x3b,
  0x66, 0x75, 0x6e, 0x63, 0x74, 0x69, 0x6f, 0x6e, 0x61, 0x6c, 0x5f, 0x33,
  0x5f, 0x31, 0x2f, 0x62, 0x61, 0x74, 0x63, 0x68, 0x5f, 0x6e, 0x6f, 0x72,
  0x6d, 0x61, 0x6c, 0x69, 0x7a, 0x61, 0x74, 0x69, 0x6f, 0x6e, 0x5f, 0x31,
  0x30, 0x5f, 0x31, 0x2f, 0x62, 0x61, 0x74, 0x63, 0x68, 0x6e, 0x6f, 0x72,
  0x6d, 0x2f, 0x61, 0x64, 0x64, 0x5f, 0x31, 0x3b, 0x66, 0x75, 0x6e, 0x63,
  0x74, 0x69, 0x6f, 0x6e, 0x61, 0x6c, 0x5f, 0x33, 0x5f, 0x31, 0x2f, 0x73,
  0x65, 0x70, 0x61, 0x72, 0x61, 0x62, 0x6c, 0x65, 0x5f, 0x63, 0x6f, 0x6e,
  0x76, 0x31, 0x64, 0x5f, 0x36, 0x5f, 0x31, 0x2f, 0x53, 0x71, 0x75, 0x65,
  0x65, 0x7a, 0x65, 0x3b, 0x66, 0x75, 0x6e, 0x63, 0x74, 0x69, 0x6f, 0x6e,
  0x61, 0x6c, 0x5f, 0x33, 0x5f, 0x31, 0x2f, 0x62, 0x61, 0x74, 0x63, 0x68,
  0x5f, 0x6e, 0x6f, 0x72, 0x6d, 0x61, 0x6c, 0x69, 0x7a, 0x61, 0x74, 0x69,
  0x6f, 0x6e, 0x5f, 0x31, 0x30, 0x5f, 0x31, 0x2f, 0x62, 0x61, 0x74, 0x63,
  0x68, 0x6e, 0x6f, 0x72, 0x6d, 0x2f, 0x6d, 0x75, 0x6c, 0x5f, 0x31, 0x3b,
  0x66, 0x75, 0x6e, 0x63, 0x74, 0x69, 0x6f, 0x6e, 0x61, 0x6c, 0x5f, 0x33,
  0x5f, 0x31, 0x2f, 0x73, 0x65, 0x70, 0x61, 0x72, 0x61, 0x62, 0x6c, 0x65,
  0x5f, 0x63, 0x6f, 0x6e, 0x76, 0x31, 0x64, 0x5f, 0x36, 0x5f, 0x31, 0x2f,
  0x42, 0x69, 0x61, 0x73, 0x41, 0x64, 0x64, 0x3b, 0x66, 0x75, 0x6e, 0x63,
  0x74, 0x69, 0x6f, 0x6e, 0x61, 0x6c, 0x5f, 0x33, 0x5f, 0x31, 0x2f, 0x73,
  0x65, 0x70, 0x61, 0x72, 0x61, 0x62, 0x6c, 0x65, 0x5f, 0x63, 0x6f, 0x6e,
  0x76, 0x31, 0x64, 0x5f, 0x36, 0x5f, 0x31, 0x2f, 0x53, 0x71, 0x75, 0x65,
  0x65, 0x7a, 0x65, 0x5f, 0x31, 0x3b, 0x66, 0x75, 0x6e, 0x63, 0x74, 0x69,
  0x6f, 0x6e, 0x61, 0x6c, 0x5f, 0x33, 0x5f, 0x31, 0x2f, 0x62, 0x61, 0x74,
  0x63, 0x68, 0x5f, 0x6e, 0x6f, 0x72, 0x6d, 0x61, 0x6c, 0x69, 0x7a, 0x61,
  0x74, 0x69, 0x6f, 0x6e, 0x5f, 0x31, 0x30, 0x5f, 0x31, 0x2f, 0x62, 0x61,
  0x74, 0x63, 0x68, 0x6e, 0x6f, 0x72, 0x6d, 0x2f, 0x6d, 0x75, 0x6c, 0x3b,
  0x66, 0x75, 0x6e, 0x63, 0x74, 0x69, 0x6f, 0x6e, 0x61, 0x6c, 0x5f, 0x33,
  0x5f, 0x31, 0x2f, 0x62, 0x61, 0x74, 0x63, 0x68, 0x5f, 0x6e, 0x6f, 0x72,
  0x6d, 0x61, 0x6c, 0x69, 0x7a, 0x61, 0x74, 0x69, 0x6f, 0x6e, 0x5f, 0x31,
  0x30, 0x5f, 0x31, 0x2f, 0x62, 0x61, 0x74, 0x63, 0x68, 0x6e, 0x6f, 0x72,
  0x6d, 0x2f, 0x73, 0x75, 0x62, 0x3b, 0x66, 0x75, 0x6e, 0x63, 0x74, 0x69,
  0x6f, 0x6e, 0x61, 0x6c, 0x5f, 0x33, 0x5f, 0x31, 0x2f, 0x73, 0x65, 0x70,
  0x61, 0x72, 0x61, 0x62, 0x6c, 0x65, 0x5f, 0x63, 0x6f, 0x6e, 0x76, 0x31,
  0x64, 0x5f, 0x36, 0x5f, 0x31, 0x2f, 0x73, 0x65, 0x70, 0x61, 0x72, 0x61,
  0x62, 0x6c, 0x65, 0x5f, 0x63, 0x6f, 0x6e, 0x76, 0x32, 0x64, 0x31, 0x00,
  0x04, 0x00, 0x00, 0x00, 0x01, 0x00, 0x00, 0x00, 0x01, 0x00, 0x00, 0x00,
  0x32, 0x00, 0x00, 0x00, 0x20, 0x00, 0x00, 0x00, 0xf6, 0xd2, 0xff, 0xff,
  0x00, 0x00, 0x00, 0x01, 0x18, 0x00, 0x00, 0x00, 0x28, 0x00, 0x00, 0x00,
  0x48, 0x00, 0x00, 0x00, 0x21, 0x00, 0x00, 0x00, 0x00, 0x00, 0x00, 0x09,
  0x80, 0x00, 0x00, 0x00, 0x04, 0x00, 0x00, 0x00, 0xff, 0xff, 0xff, 0xff,
  0x01, 0x00, 0x00, 0x00, 0x32, 0x00, 0x00, 0x00, 0x20, 0x00, 0x00, 0x00,
  0xe4, 0xd2, 0xff, 0xff, 0x08, 0x00, 0x00, 0x00, 0x14, 0x00, 0x00, 0x00,
  0x01, 0x00, 0x00, 0x00, 0x0f, 0x00, 0x00, 0x00, 0x00, 0x00, 0x00, 0x00,
  0x00, 0x00, 0x00, 0x00, 0x01, 0x00, 0x00, 0x00, 0x27, 0x44, 0x79, 0x3d,
  0x3f, 0x00, 0x00, 0x00, 0x66, 0x75, 0x6e, 0x63, 0x74, 0x69, 0x6f, 0x6e,
  0x61, 0x6c, 0x5f, 0x33, 0x5f, 0x31, 0x2f, 0x73, 0x65, 0x70, 0x61, 0x72,
  0x61, 0x62, 0x6c, 0x65, 0x5f, 0x63, 0x6f, 0x6e, 0x76, 0x31, 0x64, 0x5f,
  0x36, 0x5f, 0x31, 0x2f, 0x73, 0x65, 0x70, 0x61, 0x72, 0x61, 0x62, 0x6c,
  0x65, 0x5f, 0x63, 0x6f, 0x6e, 0x76, 0x32, 0x64, 0x2f, 0x64, 0x65, 0x70,
  0x74, 0x68, 0x77, 0x69, 0x73, 0x65, 0x31, 0x00, 0x04, 0x00, 0x00, 0x00,
  0x01, 0x00, 0x00, 0x00, 0x01, 0x00, 0x00, 0x00, 0x32, 0x00, 0x00, 0x00,
  0x20, 0x00, 0x00, 0x00, 0xa6, 0xd3, 0xff, 0xff, 0x00, 0x00, 0x00, 0x01,
  0x18, 0x00, 0x00, 0x00, 0x28, 0x00, 0x00, 0x00, 0x44, 0x00, 0x00, 0x00,
  0x20, 0x00, 0x00, 0x00, 0x00, 0x00, 0x00, 0x09, 0x6c, 0x00, 0x00, 0x00,
  0x04, 0x00, 0x00, 0x00, 0xff, 0xff, 0xff, 0xff, 0x01, 0x00, 0x00, 0x00,
  0x32, 0x00, 0x00, 0x00, 0x20, 0x00, 0x00, 0x00, 0x94, 0xd3, 0xff, 0xff,
  0x08, 0x00, 0x00, 0x00, 0x10, 0x00, 0x00, 0x00, 0x01, 0x00, 0x00, 0x00,
  0x80, 0xff, 0xff, 0xff, 0xff, 0xff, 0xff, 0xff, 0x01, 0x00, 0x00, 0x00,
  0xc1, 0x29, 0xe3, 0x3d, 0x2e, 0x00, 0x00, 0x00, 0x66, 0x75, 0x6e, 0x63,
  0x74, 0x69, 0x6f, 0x6e, 0x61, 0x6c, 0x5f, 0x33, 0x5f, 0x31, 0x2f, 0x73,
  0x65, 0x70, 0x61, 0x72, 0x61, 0x62, 0x6c, 0x65, 0x5f, 0x63, 0x6f, 0x6e,
  0x76, 0x31, 0x64, 0x5f, 0x36, 0x5f, 0x31, 0x2f, 0x45, 0x78, 0x70, 0x61,
  0x6e, 0x64, 0x44, 0x69, 0x6d, 0x73, 0x00, 0x00, 0x04, 0x00, 0x00, 0x00,
  0x01, 0x00, 0x00, 0x00, 0x01, 0x00, 0x00, 0x00, 0x32, 0x00, 0x00, 0x00,
  0x20, 0x00, 0x00, 0x00, 0x42, 0xd4, 0xff, 0xff, 0x00, 0x00, 0x00, 0x01,
  0x18, 0x00, 0x00, 0x00, 0x24, 0x00, 0x00, 0x00, 0x44, 0x00, 0x00, 0x00,
  0x1f, 0x00, 0x00, 0x00, 0x00, 0x00, 0x00, 0x09, 0x70, 0x00, 0x00, 0x00,
  0x03, 0x00, 0x00, 0x00, 0xff, 0xff, 0xff, 0xff, 0x32, 0x00, 0x00, 0x00,
  0x20, 0x00, 0x00, 0x00, 0x2c, 0xd4, 0xff, 0xff, 0x08, 0x00, 0x00, 0x00,
  0x14, 0x00, 0x00, 0x00, 0x01, 0x00, 0x00, 0x00, 0x80, 0xff, 0xff, 0xff,
  0xff, 0xff, 0xff, 0xff, 0x00, 0x00, 0x00, 0x00, 0x01, 0x00, 0x00, 0x00,
  0xc1, 0x29, 0xe3, 0x3d, 0x32, 0x00, 0x00, 0x00, 0x66, 0x75, 0x6e, 0x63,
  0x74, 0x69, 0x6f, 0x6e, 0x61, 0x6c, 0x5f, 0x33, 0x5f, 0x31, 0x2f, 0x6d,
  0x61, 0x78, 0x5f, 0x70, 0x6f, 0x6f, 0x6c, 0x69, 0x6e, 0x67, 0x31, 0x64,
  0x5f, 0x36, 0x5f, 0x31, 0x2f, 0x4d, 0x61, 0x78, 0x50, 0x6f, 0x6f, 0x6c,
  0x31, 0x64, 0x2f, 0x53, 0x71, 0x75, 0x65, 0x65, 0x7a, 0x65, 0x00, 0x00,
  0x03, 0x00, 0x00, 0x00, 0x01, 0x00, 0x00, 0x00, 0x32, 0x00, 0x00, 0x00,
  0x20, 0x00, 0x00, 0x00, 0xde, 0xd4, 0xff, 0xff, 0x00, 0x00, 0x00, 0x01,
  0x18, 0x00, 0x00, 0x00, 0x28, 0x00, 0x00, 0x00, 0x44, 0x00, 0x00, 0x00,
  0x1e, 0x00, 0x00, 0x00, 0x00, 0x00, 0x00, 0x09, 0x68, 0x00, 0x00, 0x00,
  0x04, 0x00, 0x00, 0x00, 0xff, 0xff, 0xff, 0xff, 0x01, 0x00, 0x00, 0x00,
  0x32, 0x00, 0x00, 0x00, 0x20, 0x00, 0x00, 0x00, 0xcc, 0xd4, 0xff, 0xff,
  0x08, 0x00, 0x00, 0x00, 0x10, 0x00, 0x00, 0x00, 0x01, 0x00, 0x00, 0x00,
  0x80, 0xff, 0xff, 0xff, 0xff, 0xff, 0xff, 0xff, 0x01, 0x00, 0x00, 0x00,
  0xc1, 0x29, 0xe3, 0x3d, 0x2a, 0x00, 0x00, 0x00, 0x66, 0x75, 0x6e, 0x63,
  0x74, 0x69, 0x6f, 0x6e, 0x61, 0x6c, 0x5f, 0x33, 0x5f, 0x31, 0x2f, 0x6d,
  0x61, 0x78, 0x5f, 0x70, 0x6f, 0x6f, 0x6c, 0x69, 0x6e, 0x67, 0x31, 0x64,
  0x5f, 0x36, 0x5f, 0x31, 0x2f, 0x4d, 0x61, 0x78, 0x50, 0x6f, 0x6f, 0x6c,
  0x31, 0x64, 0x00, 0x00, 0x04, 0x00, 0x00, 0x00, 0x01, 0x00, 0x00, 0x00,
  0x01, 0x00, 0x00, 0x00, 0x32, 0x00, 0x00, 0x00, 0x20, 0x00, 0x00, 0x00,
  0x76, 0xd5, 0xff, 0xff, 0x00, 0x00, 0x00, 0x01, 0x18, 0x00, 0x00, 0x00,
  0x28, 0x00, 0x00, 0x00, 0x44, 0x00, 0x00, 0x00, 0x1d, 0x00, 0x00, 0x00,
  0x00, 0x00, 0x00, 0x09, 0x74, 0x00, 0x00, 0x00, 0x04, 0x00, 0x00, 0x00,
  0xff, 0xff, 0xff, 0xff, 0x01, 0x00, 0x00, 0x00, 0x64, 0x00, 0x00, 0x00,
  0x20, 0x00, 0x00, 0x00, 0x64, 0xd5, 0xff, 0xff, 0x08, 0x00, 0x00, 0x00,
  0x10, 0x00, 0x00, 0x00, 0x01, 0x00, 0x00, 0x00, 0x80, 0xff, 0xff, 0xff,
  0xff, 0xff, 0xff, 0xff, 0x01, 0x00, 0x00, 0x00, 0xc1, 0x29, 0xe3, 0x3d,
  0x35, 0x00, 0x00, 0x00, 0x66, 0x75, 0x6e, 0x63, 0x74, 0x69, 0x6f, 0x6e,
  0x61, 0x6c, 0x5f, 0x33, 0x5f, 0x31, 0x2f, 0x6d, 0x61, 0x78, 0x5f, 0x70,
  0x6f, 0x6f, 0x6c, 0x69, 0x6e, 0x67, 0x31, 0x64, 0x5f, 0x36, 0x5f, 0x31,
  0x2f, 0x4d, 0x61, 0x78, 0x50, 0x6f, 0x6f, 0x6c, 0x31, 0x64, 0x2f, 0x45,
  0x78, 0x70, 0x61, 0x6e, 0x64, 0x44, 0x69, 0x6d, 0x73, 0x00, 0x00, 0x00,
  0x04, 0x00, 0x00, 0x00, 0x01, 0x00, 0x00, 0x00, 0x01, 0x00, 0x00, 0x00,
  0x64, 0x00, 0x00, 0x00, 0x20, 0x00, 0x00, 0x00, 0x1a, 0xd6, 0xff, 0xff,
  0x00, 0x00, 0x00, 0x01, 0x18, 0x00, 0x00, 0x00, 0x24, 0x00, 0x00, 0x00,
  0x40, 0x00, 0x00, 0x00, 0x1c, 0x00, 0x00, 0x00, 0x00, 0x00, 0x00, 0x09,
  0xa8, 0x01, 0x00, 0x00, 0x03, 0x00, 0x00, 0x00, 0xff, 0xff, 0xff, 0xff,
  0x64, 0x00, 0x00, 0x00, 0x20, 0x00, 0x00, 0x00, 0x04, 0xd6, 0xff, 0xff,
  0x08, 0x00, 0x00, 0x00, 0x10, 0x00, 0x00, 0x00, 0x01, 0x00, 0x00, 0x00,
  0x80, 0xff, 0xff, 0xff, 0xff, 0xff, 0xff, 0xff, 0x01, 0x00, 0x00, 0x00,
  0xc1, 0x29, 0xe3, 0x3d, 0x6c, 0x01, 0x00, 0x00, 0x66, 0x75, 0x6e, 0x63,
  0x74, 0x69, 0x6f, 0x6e, 0x61, 0x6c, 0x5f, 0x33, 0x5f, 0x31, 0x2f, 0x61,
  0x63, 0x74, 0x69, 0x76, 0x61, 0x74, 0x69, 0x6f, 0x6e, 0x5f, 0x39, 0x5f,
  0x31, 0x2f, 0x52, 0x65, 0x6c, 0x75, 0x3b, 0x66, 0x75, 0x6e, 0x63, 0x74,
  0x69, 0x6f, 0x6e, 0x61, 0x6c, 0x5f, 0x33, 0x5f, 0x31, 0x2f, 0x62, 0x61,
  0x74, 0x63, 0x68, 0x5f, 0x6e, 0x6f, 0x72, 0x6d, 0x61, 0x6c, 0x69, 0x7a,
  0x61, 0x74, 0x69, 0x6f, 0x6e, 0x5f, 0x39, 0x5f, 0x31, 0x2f, 0x62, 0x61,
  0x74, 0x63, 0x68, 0x6e, 0x6f, 0x72, 0x6d, 0x2f, 0x61, 0x64, 0x64, 0x5f,
  0x31, 0x3b, 0x66, 0x75, 0x6e, 0x63, 0x74, 0x69, 0x6f, 0x6e, 0x61, 0x6c,
  0x5f, 0x33, 0x5f, 0x31, 0x2f, 0x63, 0x6f, 0x6e, 0x76, 0x31, 0x64, 0x5f,
  0x33, 0x5f, 0x31, 0x2f, 0x63, 0x6f, 0x6e, 0x76, 0x6f, 0x6c, 0x75, 0x74,
  0x69, 0x6f, 0x6e, 0x2f, 0x53, 0x71, 0x75, 0x65, 0x65, 0x7a, 0x65, 0x3b,
  0x66, 0x75, 0x6e, 0x63, 0x74, 0x69, 0x6f, 0x6e, 0x61, 0x6c, 0x5f, 0x33,
  0x5f, 0x31, 0x2f, 0x62, 0x61, 0x74, 0x63, 0x68, 0x5f, 0x6e, 0x6f, 0x72,
  0x6d, 0x61, 0x6c, 0x69, 0x7a, 0x61, 0x74, 0x69, 0x6f, 0x6e, 0x5f, 0x39,
  0x5f, 0x31, 0x2f, 0x62, 0x61, 0x74, 0x63, 0x68, 0x6e, 0x6f, 0x72, 0x6d,
  0x2f, 0x6d, 0x75, 0x6c, 0x5f, 0x31, 0x3b, 0x66, 0x75, 0x6e, 0x63, 0x74,
  0x69, 0x6f, 0x6e, 0x61, 0x6c, 0x5f, 0x33, 0x5f, 0x31, 0x2f, 0x63, 0x6f,
  0x6e, 0x76, 0x31, 0x64, 0x5f, 0x33, 0x5f, 0x31, 0x2f, 0x42, 0x69, 0x61,
  0x73, 0x41, 0x64, 0x64, 0x3b, 0x66, 0x75, 0x6e, 0x63, 0x74, 0x69, 0x6f,
  0x6e, 0x61, 0x6c, 0x5f, 0x33, 0x5f, 0x31, 0x2f, 0x63, 0x6f, 0x6e, 0x76,
  0x31, 0x64, 0x5f, 0x33, 0x5f, 0x31, 0x2f, 0x53, 0x71, 0x75, 0x65, 0x65,
  0x7a, 0x65, 0x3b, 0x66, 0x75, 0x6e, 0x63, 0x74, 0x69, 0x6f, 0x6e, 0x61,
  0x6c, 0x5f, 0x33, 0x5f, 0x31, 0x2f, 0x62, 0x61, 0x74, 0x63, 0x68, 0x5f,
  0x6e, 0x6f, 0x72, 0x6d, 0x61, 0x6c, 0x69, 0x7a, 0x61, 0x74, 0x69, 0x6f,
  0x6e, 0x5f, 0x39, 0x5f, 0x31, 0x2f, 0x62, 0x61, 0x74, 0x63, 0x68, 0x6e,
  0x6f, 0x72, 0x6d, 0x2f, 0x6d, 0x75, 0x6c, 0x3b, 0x66, 0x75, 0x6e, 0x63,
  0x74, 0x69, 0x6f, 0x6e, 0x61, 0x6c, 0x5f, 0x33, 0x5f, 0x31, 0x2f, 0x62,
  0x61, 0x74, 0x63, 0x68, 0x5f, 0x6e, 0x6f, 0x72, 0x6d, 0x61, 0x6c, 0x69,
  0x7a, 0x61, 0x74, 0x69, 0x6f, 0x6e, 0x5f, 0x39, 0x5f, 0x31, 0x2f, 0x62,
  0x61, 0x74, 0x63, 0x68, 0x6e, 0x6f, 0x72, 0x6d, 0x2f, 0x73, 0x75, 0x62,
  0x00, 0x00, 0x00, 0x00, 0x03, 0x00, 0x00, 0x00, 0x01, 0x00, 0x00, 0x00,
  0x64, 0x00, 0x00, 0x00, 0x20, 0x00, 0x00, 0x00, 0xee, 0xd7, 0xff, 0xff,
  0x00, 0x00, 0x00, 0x01, 0x18, 0x00, 0x00, 0x00, 0x28, 0x00, 0x00, 0x00,
  0x44, 0x00, 0x00, 0x00, 0x1b, 0x00, 0x00, 0x00, 0x00, 0x00, 0x00, 0x09,
  0xd0, 0x01, 0x00, 0x00, 0x04, 0x00, 0x00, 0x00, 0xff, 0xff, 0xff, 0xff,
  0x01, 0x00, 0x00, 0x00, 0x64, 0x00, 0x00, 0x00, 0x20, 0x00, 0x00, 0x00,
  0xdc, 0xd7, 0xff, 0xff, 0x08, 0x00, 0x00, 0x00, 0x10, 0x00, 0x00, 0x00,
  0x01, 0x00, 0x00, 0x00, 0x80, 0xff, 0xff, 0xff, 0xff, 0xff, 0xff, 0xff,
  0x01, 0x00, 0x00, 0x00, 0xc1, 0x29, 0xe3, 0x3d, 0x93, 0x01, 0x00, 0x00,
  0x66, 0x75, 0x6e, 0x63, 0x74, 0x69, 0x6f, 0x6e, 0x61, 0x6c, 0x5f, 0x33,
  0x5f, 0x31, 0x2f, 0x61, 0x63, 0x74, 0x69, 0x76, 0x61, 0x74, 0x69, 0x6f,
  0x6e, 0x5f, 0x39, 0x5f, 0x31, 0x2f, 0x52, 0x65, 0x6c, 0x75, 0x3b, 0x66,
  0x75, 0x6e, 0x63, 0x74, 0x69, 0x6f, 0x6e, 0x61, 0x6c, 0x5f, 0x33, 0x5f,
  0x31, 0x2f, 0x62, 0x61, 0x74, 0x63, 0x68, 0x5f, 0x6e, 0x6f, 0x72, 0x6d,
  0x61, 0x6c, 0x69, 0x7a, 0x61, 0x74, 0x69, 0x6f, 0x6e, 0x5f, 0x39, 0x5f,
  0x31, 0x2f, 0x62, 0x61, 0x74, 0x63, 0x68, 0x6e, 0x6f, 0x72, 0x6d, 0x2f,
  0x61, 0x64, 0x64, 0x5f, 0x31, 0x3b, 0x66, 0x75, 0x6e, 0x63, 0x74, 0x69,
  0x6f, 0x6e, 0x61, 0x6c, 0x5f, 0x33, 0x5f, 0x31, 0x2f, 0x63, 0x6f, 0x6e,
  0x76, 0x31, 0x64, 0x5f, 0x33, 0x5f, 0x31, 0x2f, 0x63, 0x6f, 0x6e, 0x76,
  0x6f, 0x6c, 0x75, 0x74, 0x69, 0x6f, 0x6e, 0x2f, 0x53, 0x71, 0x75, 0x65,
  0x65, 0x7a, 0x65, 0x3b, 0x66, 0x75, 0x6e, 0x63, 0x74, 0x69, 0x6f, 0x6e,
  0x61, 0x6c, 0x5f, 0x33, 0x5f, 0x31, 0x2f, 0x62, 0x61, 0x74, 0x63, 0x68,
  0x5f, 0x6e, 0x6f, 0x72, 0x6d, 0x61, 0x6c, 0x69, 0x7a, 0x61, 0x74, 0x69,
  0x6f, 0x6e, 0x5f, 0x39, 0x5f, 0x31, 0x2f, 0x62, 0x61, 0x74, 0x63, 0x68,
  0x6e, 0x6f, 0x72, 0x6d, 0x2f, 0x6d, 0x75, 0x6c, 0x5f, 0x31, 0x3b, 0x66,
  0x75, 0x6e, 0x63, 0x74, 0x69, 0x6f, 0x6e, 0x61, 0x6c, 0x5f, 0x33, 0x5f,
  0x31, 0x2f, 0x63, 0x6f, 0x6e, 0x76, 0x31, 0x64, 0x5f, 0x33, 0x5f, 0x31,
  0x2f, 0x42, 0x69, 0x61, 0x73, 0x41, 0x64, 0x64, 0x3b, 0x66, 0x75, 0x6e,
  0x63, 0x74, 0x69, 0x6f, 0x6e, 0x61, 0x6c, 0x5f, 0x33, 0x5f, 0x31, 0x2f,
  0x63, 0x6f, 0x6e, 0x76, 0x31, 0x64, 0x5f, 0x33, 0x5f, 0x31, 0x2f, 0x53,
  0x71, 0x75, 0x65, 0x65, 0x7a, 0x65, 0x3b, 0x66, 0x75, 0x6e, 0x63, 0x74,
  0x69, 0x6f, 0x6e, 0x61, 0x6c, 0x5f, 0x33, 0x5f, 0x31, 0x2f, 0x62, 0x61,
  0x74, 0x63, 0x68, 0x5f, 0x6e, 0x6f, 0x72, 0x6d, 0x61, 0x6c, 0x69, 0x7a,
  0x61, 0x74, 0x69, 0x6f, 0x6e, 0x5f, 0x39, 0x5f, 0x31, 0x2f, 0x62, 0x61,
  0x74, 0x63, 0x68, 0x6e, 0x6f, 0x72, 0x6d, 0x2f, 0x6d, 0x75, 0x6c, 0x3b,
  0x66, 0x75, 0x6e, 0x63, 0x74, 0x69, 0x6f, 0x6e, 0x61, 0x6c, 0x5f, 0x33,
  0x5f, 0x31, 0x2f, 0x62, 0x61, 0x74, 0x63, 0x68, 0x5f, 0x6e, 0x6f, 0x72,
  0x6d, 0x61, 0x6c, 0x69, 0x7a, 0x61, 0x74, 0x69, 0x6f, 0x6e, 0x5f, 0x39,
  0x5f, 0x31, 0x2f, 0x62, 0x61, 0x74, 0x63, 0x68, 0x6e, 0x6f, 0x72, 0x6d,
  0x2f, 0x73, 0x75, 0x62, 0x3b, 0x66, 0x75, 0x6e, 0x63, 0x74, 0x69, 0x6f,
  0x6e, 0x61, 0x6c, 0x5f, 0x33, 0x5f, 0x31, 0x2f, 0x63, 0x6f, 0x6e, 0x76,
  0x31, 0x64, 0x5f, 0x33, 0x5f, 0x31, 0x2f, 0x63, 0x6f, 0x6e, 0x76, 0x6f,
  0x6c, 0x75, 0x74, 0x69, 0x6f, 0x6e, 0x31, 0x00, 0x04, 0x00, 0x00, 0x00,
  0x01, 0x00, 0x00, 0x00, 0x01, 0x00, 0x00, 0x00, 0x64, 0x00, 0x00, 0x00,
  0x20, 0x00, 0x00, 0x00, 0xee, 0xd9, 0xff, 0xff, 0x00, 0x00, 0x00, 0x01,
  0x18, 0x00, 0x00, 0x00, 0x28, 0x00, 0x00, 0x00, 0x48, 0x00, 0x00, 0x00,
  0x1a, 0x00, 0x00, 0x00, 0x00, 0x00, 0x00, 0x09, 0x74, 0x00, 0x00, 0x00,
  0x04, 0x00, 0x00, 0x00, 0xff, 0xff, 0xff, 0xff, 0x01, 0x00, 0x00, 0x00,
  0x64, 0x00, 0x00, 0x00, 0x06, 0x00, 0x00, 0x00, 0xdc, 0xd9, 0xff, 0xff,
  0x08, 0x00, 0x00, 0x00, 0x14, 0x00, 0x00, 0x00, 0x01, 0x00, 0x00, 0x00,
  0xf1, 0xff, 0xff, 0xff, 0xff, 0xff, 0xff, 0xff, 0x00, 0x00, 0x00, 0x00,
  0x01, 0x00, 0x00, 0x00, 0x2a, 0x63, 0xa0, 0x3e, 0x30, 0x00, 0x00, 0x00,
  0x66, 0x75, 0x6e, 0x63, 0x74, 0x69, 0x6f, 0x6e, 0x61, 0x6c, 0x5f, 0x33,
  0x5f, 0x31, 0x2f, 0x63, 0x6f, 0x6e, 0x76, 0x31, 0x64, 0x5f, 0x33, 0x5f,
  0x31, 0x2f, 0x63, 0x6f, 0x6e, 0x76, 0x6f, 0x6c, 0x75, 0x74, 0x69, 0x6f,
  0x6e, 0x2f, 0x45, 0x78, 0x70, 0x61, 0x6e, 0x64, 0x44, 0x69, 0x6d, 0x73,
  0x00, 0x00, 0x00, 0x00, 0x04, 0x00, 0x00, 0x00, 0x01, 0x00, 0x00, 0x00,
  0x01, 0x00, 0x00, 0x00, 0x64, 0x00, 0x00, 0x00, 0x06, 0x00, 0x00, 0x00,
  0x92, 0xda, 0xff, 0xff, 0x00, 0x00, 0x00, 0x01, 0x18, 0x00, 0x00, 0x00,
  0x24, 0x00, 0x00, 0x00, 0x40, 0x00, 0x00, 0x00, 0x19, 0x00, 0x00, 0x00,
  0x00, 0x00, 0x00, 0x09, 0x8c, 0x00, 0x00, 0x00, 0x03, 0x00, 0x00, 0x00,
  0xff, 0xff, 0xff, 0xff, 0x64, 0x00, 0x00, 0x00, 0x06, 0x00, 0x00, 0x00,
  0x7c, 0xda, 0xff, 0xff, 0x08, 0x00, 0x00, 0x00, 0x10, 0x00, 0x00, 0x00,
  0x01, 0x00, 0x00, 0x00, 0xf1, 0xff, 0xff, 0xff, 0xff, 0xff, 0xff, 0xff,
  0x01, 0x00, 0x00, 0x00, 0x2a, 0x63, 0xa0, 0x3e, 0x52, 0x00, 0x00, 0x00,
  0x66, 0x75, 0x6e, 0x63, 0x74, 0x69, 0x6f, 0x6e, 0x61, 0x6c, 0x5f, 0x33,
  0x5f, 0x31, 0x2f, 0x6e, 0x6f, 0x72, 0x6d, 0x61, 0x6c, 0x69, 0x7a, 0x61,
  0x74, 0x69, 0x6f, 0x6e, 0x5f, 0x33, 0x5f, 0x31, 0x2f, 0x74, 0x72, 0x75,
  0x65, 0x64, 0x69, 0x76, 0x3b, 0x66, 0x75, 0x6e, 0x63, 0x74, 0x69, 0x6f,
  0x6e, 0x61, 0x6c, 0x5f, 0x33, 0x5f, 0x31, 0x2f, 0x6e, 0x6f, 0x72, 0x6d,
  0x61, 0x6c, 0x69, 0x7a, 0x61, 0x74, 0x69, 0x6f, 0x6e, 0x5f, 0x33, 0x5f,
  0x31, 0x2f, 0x4d, 0x61, 0x78, 0x69, 0x6d, 0x75, 0x6d, 0x31, 0x00, 0x00,
  0x03, 0x00, 0x00, 0x00, 0x01, 0x00, 0x00, 0x00, 0x64, 0x00, 0x00, 0x00,
  0x06, 0x00, 0x00, 0x00, 0x4a, 0xdb, 0xff, 0xff, 0x00, 0x00, 0x00, 0x01,
  0x18, 0x00, 0x00, 0x00, 0x24, 0x00, 0x00, 0x00, 0x40, 0x00, 0x00, 0x00,
  0x18, 0x00, 0x00, 0x00, 0x00, 0x00, 0x00, 0x09, 0x60, 0x00, 0x00, 0x00,
  0x03, 0x00, 0x00, 0x00, 0xff, 0xff, 0xff, 0xff, 0x64, 0x00, 0x00, 0x00,
  0x06, 0x00, 0x00, 0x00, 0x34, 0xdb, 0xff, 0xff, 0x08, 0x00, 0x00, 0x00,
  0x10, 0x00, 0x00, 0x00, 0x01, 0x00, 0x00, 0x00, 0x15, 0x00, 0x00, 0x00,
  0x00, 0x00, 0x00, 0x00, 0x01, 0x00, 0x00, 0x00, 0x9f, 0x04, 0xcb, 0x40,
  0x24, 0x00, 0x00, 0x00, 0x66, 0x75, 0x6e, 0x63, 0x74, 0x69, 0x6f, 0x6e,
  0x61, 0x6c, 0x5f, 0x33, 0x5f, 0x31, 0x2f, 0x6e, 0x6f, 0x72, 0x6d, 0x61,
  0x6c, 0x69, 0x7a, 0x61, 0x74, 0x69, 0x6f, 0x6e, 0x5f, 0x33, 0x5f, 0x31,
  0x2f, 0x53, 0x75, 0x62, 0x00, 0x00, 0x00, 0x00, 0x03, 0x00, 0x00, 0x00,
  0x01, 0x00, 0x00, 0x00, 0x64, 0x00, 0x00, 0x00, 0x06, 0x00, 0x00, 0x00,
  0x52, 0xdc, 0xff, 0xff, 0x00, 0x00, 0x00, 0x01, 0x14, 0x00, 0x00, 0x00,
  0x30, 0x00, 0x00, 0x00, 0x17, 0x00, 0x00, 0x00, 0x00, 0x00, 0x00, 0x09,
  0x30, 0x00, 0x00, 0x00, 0xac, 0xdb, 0xff, 0xff, 0x08, 0x00, 0x00, 0x00,
  0x10, 0x00, 0x00, 0x00, 0x01, 0x00, 0x00, 0x00, 0xc3, 0xff, 0xff, 0xff,
  0xff, 0xff, 0xff, 0xff, 0x01, 0x00, 0x00, 0x00, 0xb6, 0x32, 0x98, 0x3b,
  0x05, 0x00, 0x00, 0x00, 0x43, 0x6f, 0x6e, 0x73, 0x74, 0x00, 0x00, 0x00,
  0x03, 0x00, 0x00, 0x00, 0x01, 0x00, 0x00, 0x00, 0x01, 0x00, 0x00, 0x00,
  0x06, 0x00, 0x00, 0x00, 0xaa, 0xdc, 0xff, 0xff, 0x00, 0x00, 0x00, 0x01,
  0x14, 0x00, 0x00, 0x00, 0x34, 0x00, 0x00, 0x00, 0x16, 0x00, 0x00, 0x00,
  0x00, 0x00, 0x00, 0x09, 0x80, 0x00, 0x00, 0x00, 0x04, 0xdc, 0xff, 0xff,
  0x08, 0x00, 0x00, 0x00, 0x14, 0x00, 0x00, 0x00, 0x01, 0x00, 0x00, 0x00,
  0x80, 0xff, 0xff, 0xff, 0xff, 0xff, 0xff, 0xff, 0x00, 0x00, 0x00, 0x00,
  0x01, 0x00, 0x00, 0x00, 0x08, 0xf0, 0x3a, 0x3c, 0x51, 0x00, 0x00, 0x00,
  0x66, 0x75, 0x6e, 0x63, 0x74, 0x69, 0x6f, 0x6e, 0x61, 0x6c, 0x5f, 0x33,
  0x5f, 0x31, 0x2f, 0x6e, 0x6f, 0x72, 0x6d, 0x61, 0x6c, 0x69, 0x7a, 0x61,
  0x74, 0x69, 0x6f, 0x6e, 0x5f, 0x33, 0x5f, 0x31, 0x2f, 0x74, 0x72, 0x75,
  0x65, 0x64, 0x69, 0x76, 0x3b, 0x66, 0x75, 0x6e, 0x63, 0x74, 0x69, 0x6f,
  0x6e, 0x61, 0x6c, 0x5f, 0x33, 0x5f, 0x31, 0x2f, 0x6e, 0x6f, 0x72, 0x6d,
  0x61, 0x6c, 0x69, 0x7a, 0x61, 0x74, 0x69, 0x6f, 0x6e, 0x5f, 0x33, 0x5f,
  0x31, 0x2f, 0x4d, 0x61, 0x78, 0x69, 0x6d, 0x75, 0x6d, 0x00, 0x00, 0x00,
  0x03, 0x00, 0x00, 0x00, 0x01, 0x00, 0x00, 0x00, 0x01, 0x00, 0x00, 0x00,
  0x06, 0x00, 0x00, 0x00, 0x52, 0xdd, 0xff, 0xff, 0x00, 0x00, 0x00, 0x01,
  0x14, 0x00, 0x00, 0x00, 0xa8, 0x01, 0x00, 0x00, 0x15, 0x00, 0x00, 0x00,
  0x00, 0x00, 0x00, 0x09, 0xa4, 0x02, 0x00, 0x00, 0xac, 0xdc, 0xff, 0xff,
  0x08, 0x00, 0x00, 0x00, 0x0c, 0x01, 0x00, 0x00, 0x20, 0x00, 0x00, 0x00,
  0x00, 0x00, 0x00, 0x00, 0x00, 0x00, 0x00, 0x00, 0x00, 0x00, 0x00, 0x00,
  0x00, 0x00, 0x00, 0x00, 0x00, 0x00, 0x00, 0x00, 0x00, 0x00, 0x00, 0x00,
  0x00, 0x00, 0x00, 0x00, 0x00, 0x00, 0x00, 0x00, 0x00, 0x00, 0x00, 0x00,
  0x00, 0x00, 0x00, 0x00, 0x00, 0x00, 0x00, 0x00, 0x00, 0x00, 0x00, 0x00,
  0x00, 0x00, 0x00, 0x00, 0x00, 0x00, 0x00, 0x00, 0x00, 0x00, 0x00, 0x00,
  0x00, 0x00, 0x00, 0x00, 0x00, 0x00, 0x00, 0x00, 0x00, 0x00, 0x00, 0x00,
  0x00, 0x00, 0x00, 0x00, 0x00, 0x00, 0x00, 0x00, 0x00, 0x00, 0x00, 0x00,
  0x00, 0x00, 0x00, 0x00, 0x00, 0x00, 0x00, 0x00, 0x00, 0x00, 0x00, 0x00,
  0x00, 0x00, 0x00, 0x00, 0x00, 0x00, 0x00, 0x00, 0x00, 0x00, 0x00, 0x00,
  0x00, 0x00, 0x00, 0x00, 0x00, 0x00, 0x00, 0x00, 0x00, 0x00, 0x00, 0x00,
  0x00, 0x00, 0x00, 0x00, 0x00, 0x00, 0x00, 0x00, 0x00, 0x00, 0x00, 0x00,
  0x00, 0x00, 0x00, 0x00, 0x00, 0x00, 0x00, 0x00, 0x00, 0x00, 0x00, 0x00,
  0x00, 0x00, 0x00, 0x00, 0x00, 0x00, 0x00, 0x00, 0x00, 0x00, 0x00, 0x00,
  0x00, 0x00, 0x00, 0x00, 0x00, 0x00, 0x00, 0x00, 0x00, 0x00, 0x00, 0x00,
  0x00, 0x00, 0x00, 0x00, 0x00, 0x00, 0x00, 0x00, 0x00, 0x00, 0x00, 0x00,
  0x00, 0x00, 0x00, 0x00, 0x00, 0x00, 0x00, 0x00, 0x00, 0x00, 0x00, 0x00,
  0x00, 0x00, 0x00, 0x00, 0x00, 0x00, 0x00, 0x00, 0x00, 0x00, 0x00, 0x00,
  0x00, 0x00, 0x00, 0x00, 0x00, 0x00, 0x00, 0x00, 0x00, 0x00, 0x00, 0x00,
  0x00, 0x00, 0x00, 0x00, 0x00, 0x00, 0x00, 0x00, 0x00, 0x00, 0x00, 0x00,
  0x00, 0x00, 0x00, 0x00, 0x00, 0x00, 0x00, 0x00, 0x00, 0x00, 0x00, 0x00,
  0x00, 0x00, 0x00, 0x00, 0x00, 0x00, 0x00, 0x00, 0x00, 0x00, 0x00, 0x00,
  0x00, 0x00, 0x00, 0x00, 0x00, 0x00, 0x00, 0x00, 0x20, 0x00, 0x00, 0x00,
  0x7b, 0x25, 0x02, 0x3b, 0xf3, 0x08, 0x3d, 0x3b, 0xbe, 0x73, 0x34, 0x3b,
  0x59, 0x00, 0x56, 0x3b, 0xb7, 0xcb, 0x83, 0x3b, 0x2d, 0x0c, 0x26, 0x3b,
  0x0c, 0x4e, 0x26, 0x3b, 0xc5, 0xf1, 0x21, 0x3b, 0xc1, 0xd5, 0x42, 0x3b,
  0x00, 0xe9, 0x61, 0x3b, 0x5d, 0xfd, 0x1e, 0x3b, 0x1c, 0xc0, 0x5f, 0x3b,
  0x50, 0x7f, 0x61, 0x3b, 0x0d, 0xe2, 0x2c, 0x3b, 0xf2, 0x62, 0x45, 0x3b,
  0x23, 0x33, 0x40, 0x3b, 0x36, 0xe0, 0x5e, 0x3b, 0x65, 0x35, 0x50, 0x3b,
  0x2b, 0x5a, 0x36, 0x3b, 0xea, 0xa6, 0x83, 0x3b, 0x10, 0x41, 0x43, 0x3b,
  0x44, 0xfd, 0x80, 0x3b, 0xf1, 0x92, 0xe2, 0x3a, 0xad, 0x33, 0xc7, 0x3b,
  0x8a, 0x9a, 0x13, 0x3b, 0xaf, 0x7c, 0x65, 0x3b, 0x1c, 0xd6, 0x42, 0x3b,
  0x27, 0x2f, 0x0f, 0x3b, 0x98, 0x5a, 0x00, 0x3b, 0x9b, 0x4c, 0x67, 0x3b,
  0x4c, 0xd4, 0x49, 0x3b, 0xe5, 0xf6, 0x50, 0x3b, 0x03, 0x01, 0x00, 0x00,
  0x66, 0x75, 0x6e, 0x63, 0x74, 0x69, 0x6f, 0x6e, 0x61, 0x6c, 0x5f, 0x33,
  0x5f, 0x31, 0x2f, 0x62, 0x61, 0x74, 0x63, 0x68, 0x5f, 0x6e, 0x6f, 0x72,
  0x6d, 0x61, 0x6c, 0x69, 0x7a, 0x61, 0x74, 0x69, 0x6f, 0x6e, 0x5f, 0x39,
  0x5f, 0x31, 0x2f, 0x62, 0x61, 0x74, 0x63, 0x68, 0x6e, 0x6f, 0x72, 0x6d,
  0x2f, 0x6d, 0x75, 0x6c, 0x5f, 0x31, 0x3b, 0x66, 0x75, 0x6e, 0x63, 0x74,
  0x69, 0x6f, 0x6e, 0x61, 0x6c, 0x5f, 0x33, 0x5f, 0x31, 0x2f, 0x63, 0x6f,
  0x6e, 0x76, 0x31, 0x64, 0x5f, 0x33, 0x5f, 0x31, 0x2f, 0x63, 0x6f, 0x6e,
  0x76, 0x6f, 0x6c, 0x75, 0x74, 0x69, 0x6f, 0x6e, 0x2f, 0x53, 0x71, 0x75,
  0x65, 0x65, 0x7a, 0x65, 0x3b, 0x66, 0x75, 0x6e, 0x63, 0x74, 0x69, 0x6f,
  0x6e, 0x61, 0x6c, 0x5f, 0x33, 0x5f, 0x31, 0x2f, 0x63, 0x6f, 0x6e, 0x76,
  0x31, 0x64, 0x5f, 0x33, 0x5f, 0x31, 0x2f, 0x42, 0x69, 0x61, 0x73, 0x41,
  0x64, 0x64, 0x3b, 0x66, 0x75, 0x6e, 0x63, 0x74, 0x69, 0x6f, 0x6e, 0x61,
  0x6c, 0x5f, 0x33, 0x5f, 0x31, 0x2f, 0x63, 0x6f, 0x6e, 0x76, 0x31, 0x64,
  0x5f, 0x33, 0x5f, 0x31, 0x2f, 0x53, 0x71, 0x75, 0x65, 0x65, 0x7a, 0x65,
  0x3b, 0x66, 0x75, 0x6e, 0x63, 0x74, 0x69, 0x6f, 0x6e, 0x61, 0x6c, 0x5f,
  0x33, 0x5f, 0x31, 0x2f, 0x62, 0x61, 0x74, 0x63, 0x68, 0x5f, 0x6e, 0x6f,
  0x72, 0x6d, 0x61, 0x6c, 0x69, 0x7a, 0x61, 0x74, 0x69, 0x6f, 0x6e, 0x5f,
  0x39, 0x5f, 0x31, 0x2f, 0x62, 0x61, 0x74, 0x63, 0x68, 0x6e, 0x6f, 0x72,
  0x6d, 0x2f, 0x6d, 0x75, 0x6c, 0x3b, 0x66, 0x75, 0x6e, 0x63, 0x74, 0x69,
  0x6f, 0x6e, 0x61, 0x6c, 0x5f, 0x33, 0x5f, 0x31, 0x2f, 0x63, 0x6f, 0x6e,
  0x76, 0x31, 0x64, 0x5f, 0x33, 0x5f, 0x31, 0x2f, 0x63, 0x6f, 0x6e, 0x76,
  0x6f, 0x6c, 0x75, 0x74, 0x69, 0x6f, 0x6e, 0x00, 0x04, 0x00, 0x00, 0x00,
  0x20, 0x00, 0x00, 0x00, 0x01, 0x00, 0x00, 0x00, 0x05, 0x00, 0x00, 0x00,
  0x06, 0x00, 0x00, 0x00, 0x22, 0xe0, 0xff, 0xff, 0x00, 0x00, 0x00, 0x01,
  0x14, 0x00, 0x00, 0x00, 0xa8, 0x01, 0x00, 0x00, 0x14, 0x00, 0x00, 0x00,
  0x00, 0x00, 0x00, 0x02, 0x34, 0x03, 0x00, 0x00, 0x7c, 0xdf, 0xff, 0xff,
  0x08, 0x00, 0x00, 0x00, 0x0c, 0x01, 0x00, 0x00, 0x20, 0x00, 0x00, 0x00,
  0x00, 0x00, 0x00, 0x00, 0x00, 0x00, 0x00, 0x00, 0x00, 0x00, 0x00, 0x00,
  0x00, 0x00, 0x00, 0x00, 0x00, 0x00, 0x00, 0x00, 0x00, 0x00, 0x00, 0x00,
  0x00, 0x00, 0x00, 0x00, 0x00, 0x00, 0x00, 0x00, 0x00, 0x00, 0x00, 0x00,
  0x00, 0x00, 0x00, 0x00, 0x00, 0x00, 0x00, 0x00, 0x00, 0x00, 0x00, 0x00,
  0x00, 0x00, 0x00, 0x00, 0x00, 0x00, 0x00, 0x00, 0x00, 0x00, 0x00, 0x00,
  0x00, 0x00, 0x00, 0x00, 0x00, 0x00, 0x00, 0x00, 0x00, 0x00, 0x00, 0x00,
  0x00, 0x00, 0x00, 0x00, 0x00, 0x00, 0x00, 0x00, 0x00, 0x00, 0x00, 0x00,
  0x00, 0x00, 0x00, 0x00, 0x00, 0x00, 0x00, 0x00, 0x00, 0x00, 0x00, 0x00,
  0x00, 0x00, 0x00, 0x00, 0x00, 0x00, 0x00, 0x00, 0x00, 0x00, 0x00, 0x00,
  0x00, 0x00, 0x00, 0x00, 0x00, 0x00, 0x00, 0x00, 0x00, 0x00, 0x00, 0x00,
  0x00, 0x00, 0x00, 0x00, 0x00, 0x00, 0x00, 0x00, 0x00, 0x00, 0x00, 0x00,
  0x00, 0x00, 0x00, 0x00, 0x00, 0x00, 0x00, 0x00, 0x00, 0x00, 0x00, 0x00,
  0x00, 0x00, 0x00, 0x00, 0x00, 0x00, 0x00, 0x00, 0x00, 0x00, 0x00, 0x00,
  0x00, 0x00, 0x00, 0x00, 0x00, 0x00, 0x00, 0x00, 0x00, 0x00, 0x00, 0x00,
  0x00, 0x00, 0x00, 0x00, 0x00, 0x00, 0x00, 0x00, 0x00, 0x00, 0x00, 0x00,
  0x00, 0x00, 0x00, 0x00, 0x00, 0x00, 0x00, 0x00, 0x00, 0x00, 0x00, 0x00,
  0x00, 0x00, 0x00, 0x00, 0x00, 0x00, 0x00, 0x00, 0x00, 0x00, 0x00, 0x00,
  0x00, 0x00, 0x00, 0x00, 0x00, 0x00, 0x00, 0x00, 0x00, 0x00, 0x00, 0x00,
  0x00, 0x00, 0x00, 0x00, 0x00, 0x00, 0x00, 0x00, 0x00, 0x00, 0x00, 0x00,
  0x00, 0x00, 0x00, 0x00, 0x00, 0x00, 0x00, 0x00, 0x00, 0x00, 0x00, 0x00,
  0x00, 0x00, 0x00, 0x00, 0x00, 0x00, 0x00, 0x00, 0x00, 0x00, 0x00, 0x00,
  0x00, 0x00, 0x00, 0x00, 0x00, 0x00, 0x00, 0x00, 0x20, 0x00, 0x00, 0x00,
  0xad, 0x13, 0x23, 0x3a, 0xa3, 0xdd, 0x6c, 0x3a, 0x7a, 0x1c, 0x62, 0x3a,
  0x1d, 0x13, 0x86, 0x3a, 0xc0, 0x24, 0xa5, 0x3a, 0xdc, 0x0f, 0x50, 0x3a,
  0x66, 0x62, 0x50, 0x3a, 0xac, 0xeb, 0x4a, 0x3a, 0x23, 0x22, 0x74, 0x3a,
  0x22, 0x89, 0x8d, 0x3a, 0xe0, 0x37, 0x47, 0x3a, 0xbe, 0x2e, 0x8c, 0x3a,
  0xeb, 0x46, 0x8d, 0x3a, 0x80, 0xa0, 0x58, 0x3a, 0x9a, 0x54, 0x77, 0x3a,
  0xd2, 0xd4, 0x70, 0x3a, 0x77, 0xa2, 0x8b, 0x3a, 0x06, 0x72, 0x82, 0x3a,
  0xfb, 0x7d, 0x64, 0x3a, 0xa3, 0xf6, 0xa4, 0x3a, 0x98, 0xa8, 0x74, 0x3a,
  0x83, 0xa0, 0xa1, 0x3a, 0x9b, 0xf3, 0x0d, 0x3a, 0xec, 0x9a, 0xf9, 0x3a,
  0x86, 0xf3, 0x38, 0x3a, 0xd2, 0xc6, 0x8f, 0x3a, 0x95, 0x22, 0x74, 0x3a,
  0xde, 0x69, 0x33, 0x3a, 0xae, 0xd4, 0x20, 0x3a, 0x79, 0xe9, 0x90, 0x3a,
  0xbb, 0xe5, 0x7c, 0x3a, 0x41, 0xeb, 0x82, 0x3a, 0x92, 0x01, 0x00, 0x00,
  0x66, 0x75, 0x6e, 0x63, 0x74, 0x69, 0x6f, 0x6e, 0x61, 0x6c, 0x5f, 0x33,
  0x5f, 0x31, 0x2f, 0x61, 0x63, 0x74, 0x69, 0x76, 0x61, 0x74, 0x69, 0x6f,
  0x6e, 0x5f, 0x39, 0x5f, 0x31, 0x2f, 0x52, 0x65, 0x6c, 0x75, 0x3b, 0x66,
  0x75, 0x6e, 0x63, 0x74, 0x69, 0x6f, 0x6e, 0x61, 0x6c, 0x5f, 0x33, 0x5f,
  0x31, 0x2f, 0x62, 0x61, 0x74, 0x63, 0x68, 0x5f, 0x6e, 0x6f, 0x72, 0x6d,
  0x61, 0x6c, 0x69, 0x7a, 0x61, 0x74, 0x69, 0x6f, 0x6e, 0x5f, 0x39, 0x5f,
  0x31, 0x2f, 0x62, 0x61, 0x74, 0x63, 0x68, 0x6e, 0x6f, 0x72, 0x6d, 0x2f,
  0x61, 0x64, 0x64, 0x5f, 0x31, 0x3b, 0x66, 0x75, 0x6e, 0x63, 0x74, 0x69,
  0x6f, 0x6e, 0x61, 0x6c, 0x5f, 0x33, 0x5f, 0x31, 0x2f, 0x63, 0x6f, 0x6e,
  0x76, 0x31, 0x64, 0x5f, 0x33, 0x5f, 0x31, 0x2f, 0x63, 0x6f, 0x6e, 0x76,
  0x6f, 0x6c, 0x75, 0x74, 0x69, 0x6f, 0x6e, 0x2f, 0x53, 0x71, 0x75, 0x65,
  0x65, 0x7a, 0x65, 0x3b, 0x66, 0x75, 0x6e, 0x63, 0x74, 0x69, 0x6f, 0x6e,
  0x61, 0x6c, 0x5f, 0x33, 0x5f, 0x31, 0x2f, 0x62, 0x61, 0x74, 0x63, 0x68,
  0x5f, 0x6e, 0x6f, 0x72, 0x6d, 0x61, 0x6c, 0x69, 0x7a, 0x61, 0x74, 0x69,
  0x6f, 0x6e, 0x5f, 0x39, 0x5f, 0x31, 0x2f, 0x62, 0x61, 0x74, 0x63, 0x68,
  0x6e, 0x6f, 0x72, 0x6d, 0x2f, 0x6d, 0x75, 0x6c, 0x5f, 0x31, 0x3b, 0x66,
