#ifndef FALL_DETECTION_V17_H
#define FALL_DETECTION_V17_H

const unsigned char fall_detection_model_v17[] = {
  0x1c, 0x00, 0x00, 0x00, 0x54, 0x46, 0x4c, 0x33, 0x14, 0x00, 0x20, 0x00,
  0x1c, 0x00, 0x18, 0x00, 0x14, 0x00, 0x10, 0x00, 0x0c, 0x00, 0x00, 0x00,
  0x08, 0x00, 0x04, 0x00, 0x14, 0x00, 0x00, 0x00, 0x1c, 0x00, 0x00, 0x00,
  0x8c, 0x00, 0x00, 0x00, 0xe4, 0x00, 0x00, 0x00, 0x38, 0x47, 0x00, 0x00,
  0x48, 0x47, 0x00, 0x00, 0x08, 0x9b, 0x00, 0x00, 0x03, 0x00, 0x00, 0x00,
  0x01, 0x00, 0x00, 0x00, 0x04, 0x00, 0x00, 0x00, 0x5a, 0xb4, 0xff, 0xff,
  0x0c, 0x00, 0x00, 0x00, 0x1c, 0x00, 0x00, 0x00, 0x3c, 0x00, 0x00, 0x00,
  0x0f, 0x00, 0x00, 0x00, 0x73, 0x65, 0x72, 0x76, 0x69, 0x6e, 0x67, 0x5f,
  0x64, 0x65, 0x66, 0x61, 0x75, 0x6c, 0x74, 0x00, 0x01, 0x00, 0x00, 0x00,
  0x04, 0x00, 0x00, 0x00, 0x90, 0xff, 0xff, 0xff, 0x2d, 0x00, 0x00, 0x00,
  0x04, 0x00, 0x00, 0x00, 0x08, 0x00, 0x00, 0x00, 0x6f, 0x75, 0x74, 0x70,
  0x75, 0x74, 0x5f, 0x30, 0x00, 0x00, 0x00, 0x00, 0x01, 0x00, 0x00, 0x00,
  0x04, 0x00, 0x00, 0x00, 0x4e, 0xb9, 0xff, 0xff, 0x04, 0x00, 0x00, 0x00,
  0x0f, 0x00, 0x00, 0x00, 0x6b, 0x65, 0x72, 0x61, 0x73, 0x5f, 0x74, 0x65,
  0x6e, 0x73, 0x6f, 0x72, 0x5f, 0x31, 0x37, 0x00, 0x02, 0x00, 0x00, 0x00,
  0x34, 0x00, 0x00, 0x00, 0x04, 0x00, 0x00, 0x00, 0xdc, 0xff, 0xff, 0xff,
  0x30, 0x00, 0x00, 0x00, 0x04, 0x00, 0x00, 0x00, 0x13, 0x00, 0x00, 0x00,
  0x43, 0x4f, 0x4e, 0x56, 0x45, 0x52, 0x53, 0x49, 0x4f, 0x4e, 0x5f, 0x4d,
  0x45, 0x54, 0x41, 0x44, 0x41, 0x54, 0x41, 0x00, 0x08, 0x00, 0x0c, 0x00,
  0x08, 0x00, 0x04, 0x00, 0x08, 0x00, 0x00, 0x00, 0x2f, 0x00, 0x00, 0x00,
  0x04, 0x00, 0x00, 0x00, 0x13, 0x00, 0x00, 0x00, 0x6d, 0x69, 0x6e, 0x5f,
  0x72, 0x75, 0x6e, 0x74, 0x69, 0x6d, 0x65, 0x5f, 0x76, 0x65, 0x72, 0x73,
  0x69, 0x6f, 0x6e, 0x00, 0x31, 0x00, 0x00, 0x00, 0x50, 0x46, 0x00, 0x00,
  0x48, 0x46, 0x00, 0x00, 0x34, 0x46, 0x00, 0x00, 0x10, 0x46, 0x00, 0x00,
  0xfc, 0x45, 0x00, 0x00, 0xe0, 0x45, 0x00, 0x00, 0xc4, 0x45, 0x00, 0x00,
  0xa8, 0x45, 0x00, 0x00, 0x94, 0x45, 0x00, 0x00, 0x74, 0x45, 0x00, 0x00,
  0x24, 0x45, 0x00, 0x00, 0x14, 0x3d, 0x00, 0x00, 0x04, 0x3b, 0x00, 0x00,
  0xf4, 0x1a, 0x00, 0x00, 0x24, 0x1a, 0x00, 0x00, 0x14, 0x19, 0x00, 0x00,
  0x04, 0x09, 0x00, 0x00, 0xf4, 0x07, 0x00, 0x00, 0xec, 0x07, 0x00, 0x00,
  0x1c, 0x07, 0x00, 0x00, 0x0c, 0x06, 0x00, 0x00, 0x7c, 0x01, 0x00, 0x00,
  0x64, 0x01, 0x00, 0x00, 0x4c, 0x01, 0x00, 0x00, 0x44, 0x01, 0x00, 0x00,
  0x3c, 0x01, 0x00, 0x00, 0x34, 0x01, 0x00, 0x00, 0x2c, 0x01, 0x00, 0x00,
  0x24, 0x01, 0x00, 0x00, 0x1c, 0x01, 0x00, 0x00, 0x14, 0x01, 0x00, 0x00,
  0x0c, 0x01, 0x00, 0x00, 0x04, 0x01, 0x00, 0x00, 0xfc, 0x00, 0x00, 0x00,
  0xf4, 0x00, 0x00, 0x00, 0xec, 0x00, 0x00, 0x00, 0xe4, 0x00, 0x00, 0x00,
  0xdc, 0x00, 0x00, 0x00, 0xd4, 0x00, 0x00, 0x00, 0xcc, 0x00, 0x00, 0x00,
  0xc4, 0x00, 0x00, 0x00, 0xbc, 0x00, 0x00, 0x00, 0xb4, 0x00, 0x00, 0x00,
  0xac, 0x00, 0x00, 0x00, 0xa4, 0x00, 0x00, 0x00, 0x9c, 0x00, 0x00, 0x00,
  0x94, 0x00, 0x00, 0x00, 0x74, 0x00, 0x00, 0x00, 0x04, 0x00, 0x00, 0x00,
  0x8e, 0xba, 0xff, 0xff, 0x04, 0x00, 0x00, 0x00, 0x60, 0x00, 0x00, 0x00,
  0x0c, 0x00, 0x00, 0x00, 0x08, 0x00, 0x0e, 0x00, 0x08, 0x00, 0x04, 0x00,
  0x08, 0x00, 0x00, 0x00, 0x10, 0x00, 0x00, 0x00, 0x28, 0x00, 0x00, 0x00,
  0x00, 0x00, 0x06, 0x00, 0x08, 0x00, 0x04, 0x00, 0x06, 0x00, 0x00, 0x00,
  0x04, 0x00, 0x00, 0x00, 0x01, 0x00, 0x00, 0x00, 0xeb, 0x03, 0x00, 0x00,
  0x0c, 0x00, 0x18, 0x00, 0x14, 0x00, 0x10, 0x00, 0x0c, 0x00, 0x04, 0x00,
  0x0c, 0x00, 0x00, 0x00, 0xed, 0x71, 0x5c, 0x55, 0x82, 0x7c, 0x44, 0xbd,
  0x02, 0x00, 0x00, 0x00, 0x02, 0x00, 0x00, 0x00, 0x04, 0x00, 0x00, 0x00,
  0x06, 0x00, 0x00, 0x00, 0x32, 0x2e, 0x32, 0x31, 0x2e, 0x30, 0x00, 0x00,
  0xfa, 0xba, 0xff, 0xff, 0x04, 0x00, 0x00, 0x00, 0x10, 0x00, 0x00, 0x00,
  0x31, 0x2e, 0x31, 0x34, 0x2e, 0x30, 0x00, 0x00, 0x00, 0x00, 0x00, 0x00,
  0x00, 0x00, 0x00, 0x00, 0x18, 0x68, 0xff, 0xff, 0x1c, 0x68, 0xff, 0xff,
  0x20, 0x68, 0xff, 0xff, 0x24, 0x68, 0xff, 0xff, 0x28, 0x68, 0xff, 0xff,
  0x2c, 0x68, 0xff, 0xff, 0x30, 0x68, 0xff, 0xff, 0x34, 0x68, 0xff, 0xff,
  0x38, 0x68, 0xff, 0xff, 0x3c, 0x68, 0xff, 0xff, 0x40, 0x68, 0xff, 0xff,
  0x44, 0x68, 0xff, 0xff, 0x48, 0x68, 0xff, 0xff, 0x4c, 0x68, 0xff, 0xff,
  0x50, 0x68, 0xff, 0xff, 0x54, 0x68, 0xff, 0xff, 0x58, 0x68, 0xff, 0xff,
  0x5c, 0x68, 0xff, 0xff, 0x60, 0x68, 0xff, 0xff, 0x64, 0x68, 0xff, 0xff,
  0x68, 0x68, 0xff, 0xff, 0x6c, 0x68, 0xff, 0xff, 0x70, 0x68, 0xff, 0xff,
  0x72, 0xbb, 0xff, 0xff, 0x04, 0x00, 0x00, 0x00, 0x06, 0x00, 0x00, 0x00,
  0xb0, 0xb7, 0xb4, 0x7f, 0x80, 0x2a, 0x00, 0x00, 0x86, 0xbb, 0xff, 0xff,
  0x04, 0x00, 0x00, 0x00, 0x06, 0x00, 0x00, 0x00, 0x7a, 0x4f, 0x7f, 0x81,
  0x82, 0x81, 0x00, 0x00, 0x9a, 0xbb, 0xff, 0xff, 0x04, 0x00, 0x00, 0x00,
  0x80, 0x04, 0x00, 0x00, 0x51, 0xed, 0x10, 0xe1, 0xee, 0x37, 0xc8, 0xb0,
  0x04, 0xc4, 0x11, 0x69, 0xf6, 0x01, 0x3d, 0x81, 0x10, 0x5e, 0xf7, 0x02,
  0x91, 0xb6, 0x1b, 0x0b, 0x45, 0xf0, 0xc4, 0xf6, 0xdf, 0x01, 0xa4, 0x3d,
  0xc2, 0xae, 0x70, 0x81, 0x1f, 0xbf, 0x90, 0x0a, 0xf1, 0xdb, 0xd3, 0x7f,
  0xc2, 0xd1, 0x56, 0x5c, 0xb5, 0x75, 0xb4, 0x43, 0xe1, 0xdb, 0x6d, 0x69,
  0xf4, 0xd2, 0xa5, 0x9b, 0x32, 0xbe, 0x9e, 0x4e, 0xbf, 0x6b, 0x49, 0xbe,
  0xfd, 0x6b, 0x3f, 0x81, 0x14, 0x94, 0xd7, 0x2c, 0x97, 0x51, 0x7f, 0xbd,
  0xe3, 0xb3, 0xfa, 0x34, 0xd6, 0x2a, 0x4f, 0xef, 0x58, 0xbc, 0xe6, 0x99,
  0x43, 0x31, 0x20, 0x5f, 0x41, 0x81, 0x2e, 0x3c, 0xf1, 0x0b, 0x4b, 0xc7,
  0x87, 0xfa, 0x67, 0x35, 0x72, 0x5d, 0xbb, 0xe8, 0x71, 0xca, 0x33, 0x45,
  0xd1, 0x33, 0xae, 0x36, 0x44, 0x67, 0xd4, 0x68, 0x7f, 0xb0, 0x5f, 0xb6,
  0xc6, 0x92, 0x53, 0x3e, 0xde, 0xe4, 0xd1, 0xf1, 0xf1, 0x9f, 0x7f, 0x01,
  0x8d, 0x62, 0x4c, 0x4f, 0x7f, 0x28, 0x4d, 0x04, 0xd1, 0x61, 0x56, 0xdb,
  0xcb, 0xc6, 0x8c, 0x2b, 0x94, 0xa5, 0xac, 0x20, 0x33, 0x9b, 0xf3, 0x3e,
  0x51, 0x34, 0xd2, 0x7f, 0x45, 0xe1, 0xee, 0x2f, 0x35, 0x6c, 0x3e, 0xc2,
  0xaa, 0x38, 0x6c, 0x4c, 0xf3, 0x4b, 0x0d, 0x23, 0x22, 0x81, 0x74, 0x85,
  0xba, 0xb6, 0xcd, 0x48, 0xc2, 0x81, 0x9e, 0xbc, 0x17, 0x3d, 0x07, 0x4b,
  0x14, 0x3b, 0x5c, 0xb8, 0x81, 0xf5, 0xfa, 0xaf, 0x49, 0xa0, 0x45, 0x13,
  0xbb, 0x25, 0x44, 0xdd, 0x60, 0xf7, 0x93, 0x39, 0x87, 0xa9, 0xae, 0xc8,
  0x29, 0xdb, 0x22, 0x7f, 0x8d, 0x7e, 0xae, 0xd0, 0x47, 0x34, 0x72, 0x36,
  0x67, 0x9d, 0x23, 0x03, 0xd7, 0x41, 0x3a, 0x7f, 0x7a, 0x3c, 0x4a, 0xd7,
  0xda, 0xf6, 0xda, 0x01, 0x2e, 0x21, 0xf3, 0x2c, 0x0e, 0x81, 0xea, 0x0f,
  0x1c, 0xaf, 0x19, 0x19, 0x8f, 0xa5, 0xad, 0x52, 0xbf, 0xa0, 0x5b, 0x08,
  0x86, 0x68, 0x4c, 0x17, 0x7f, 0x7b, 0x95, 0xdf, 0x2d, 0x99, 0xf4, 0x61,
  0x8b, 0xcb, 0x1a, 0x05, 0x0b, 0xef, 0xaa, 0xd7, 0xe7, 0x6c, 0x1c, 0x52,
  0x17, 0xc3, 0x6a, 0x60, 0xf3, 0xf2, 0x49, 0x81, 0xf6, 0x4a, 0xf9, 0x4d,
  0x2d, 0xf8, 0x50, 0x07, 0x7f, 0x46, 0x1f, 0x3d, 0xf9, 0x2d, 0xa9, 0x03,
  0x02, 0x1e, 0x52, 0xd9, 0x5e, 0xd5, 0x98, 0x23, 0x43, 0x34, 0xd8, 0x5e,
  0x91, 0x19, 0x13, 0x7f, 0xf0, 0xfe, 0x4a, 0x3a, 0xfc, 0x26, 0xd0, 0x31,
  0xa3, 0x29, 0x4c, 0x8b, 0xb6, 0xa3, 0xc0, 0x24, 0xbe, 0xcc, 0x8f, 0x4c,
  0xc0, 0x04, 0xed, 0x81, 0x0e, 0xc2, 0xd2, 0x05, 0x8f, 0x64, 0x3d, 0x7f,
  0xbe, 0x47, 0xca, 0xfb, 0x4f, 0x1f, 0x18, 0xde, 0x65, 0x4c, 0xa8, 0x36,
  0xd4, 0x24, 0xca, 0x9e, 0x23, 0x64, 0x8d, 0x7b, 0x00, 0x01, 0x54, 0x81,
  0xb8, 0xaf, 0xa3, 0xb6, 0xce, 0xfb, 0x36, 0xf2, 0xc1, 0xff, 0x43, 0x79,
  0xda, 0x14, 0xd6, 0x40, 0xb2, 0x17, 0x49, 0xac, 0x81, 0x25, 0xe8, 0x43,
  0x5a, 0xd8, 0xdb, 0xdd, 0x76, 0x81, 0x06, 0x5f, 0x27, 0x45, 0x55, 0xce,
  0xb4, 0x57, 0xd9, 0x3a, 0xc6, 0xce, 0xa2, 0x40, 0x3a, 0xdb, 0x81, 0xda,
  0xe7, 0xb2, 0xca, 0x1d, 0xd3, 0x36, 0xcb, 0x73, 0xd5, 0x6a, 0xbb, 0x3a,
  0xe3, 0x12, 0x2c, 0x70, 0xda, 0x35, 0xa1, 0x7f, 0xe4, 0xec, 0x63, 0x89,
  0x52, 0xf5, 0xc9, 0x7f, 0x6a, 0x50, 0x7f, 0x0e, 0xf5, 0xef, 0xd5, 0xe3,
  0x66, 0x6e, 0xb5, 0xe4, 0x94, 0x59, 0x0c, 0xbb, 0x39, 0x01, 0x19, 0xca,
  0xe3, 0x79, 0x85, 0x85, 0x6f, 0x1d, 0xf9, 0x09, 0x66, 0xf7, 0x5f, 0x79,
  0x37, 0x7f, 0x28, 0xb9, 0xfc, 0x01, 0x30, 0x31, 0x99, 0x25, 0xd6, 0xee,
  0xd3, 0x21, 0xda, 0x19, 0x0e, 0x81, 0xd3, 0xe5, 0xd5, 0x1d, 0xd7, 0xcf,
  0xc2, 0xdb, 0xb8, 0x1f, 0xf3, 0x81, 0x4b, 0xe5, 0x1f, 0x21, 0x00, 0xc1,
  0x40, 0x6c, 0x3e, 0x1a, 0xcf, 0x16, 0x3b, 0xd5, 0x86, 0x9d, 0x67, 0xac,
  0xce, 0x83, 0x8e, 0x2e, 0xe1, 0x3c, 0x03, 0x10, 0xcb, 0x81, 0xac, 0x96,
  0x45, 0x28, 0xc3, 0xef, 0x1e, 0x56, 0x46, 0x59, 0x7f, 0xd2, 0xfa, 0x54,
  0xf2, 0x25, 0xbb, 0x00, 0xbb, 0x0c, 0x41, 0xc1, 0x27, 0x69, 0xd6, 0x7f,
  0xf3, 0xe5, 0xc0, 0x20, 0x27, 0xe3, 0x24, 0xb2, 0x14, 0xaa, 0xde, 0xe8,
  0x79, 0xc4, 0x7c, 0xe0, 0xce, 0xa2, 0xeb, 0xa3, 0xe7, 0x37, 0xda, 0x55,
  0x7f, 0xc9, 0xdb, 0x98, 0xa8, 0xbd, 0x57, 0x2f, 0x13, 0xd5, 0x1b, 0x16,
  0x81, 0x3e, 0xc3, 0xb2, 0xa8, 0x9f, 0x35, 0xa8, 0x30, 0x45, 0xd4, 0xbe,
  0xf1, 0x3a, 0xcb, 0x81, 0xc5, 0x70, 0x4c, 0x16, 0x28, 0xe6, 0x24, 0x26,
  0xeb, 0xf7, 0x9c, 0x95, 0xb1, 0xf6, 0xed, 0xd8, 0x36, 0xa2, 0x31, 0xb3,
  0x32, 0x13, 0xe7, 0x10, 0x7f, 0xbd, 0xbc, 0x01, 0xbb, 0xea, 0xd1, 0x7f,
  0x68, 0x77, 0x2e, 0x92, 0x27, 0x67, 0x3c, 0x22, 0x37, 0x55, 0x06, 0x7a,
  0x4f, 0xf9, 0xcd, 0xac, 0xcd, 0xcf, 0x71, 0x6a, 0x76, 0x7c, 0x56, 0x52,
  0x6d, 0xb1, 0xcb, 0x15, 0x93, 0x62, 0x9d, 0xa9, 0x7f, 0x1f, 0x47, 0xf4,
  0xb3, 0x52, 0x1f, 0xc1, 0x8b, 0xdb, 0x77, 0xe1, 0x2b, 0xc2, 0xf4, 0xde,
  0xa0, 0xb4, 0xb3, 0x81, 0x7f, 0x32, 0x13, 0xbe, 0xdd, 0xae, 0xc0, 0xa8,
  0xf7, 0xe7, 0x64, 0xa0, 0x2e, 0xbd, 0xd7, 0xd3, 0xc4, 0x11, 0xec, 0x45,
  0xd8, 0x7b, 0x9f, 0x65, 0xb1, 0x0f, 0x47, 0x7f, 0x28, 0x38, 0xf6, 0xd2,
  0x1b, 0x67, 0x26, 0xfb, 0xf5, 0xe5, 0x44, 0xa6, 0x52, 0xc6, 0x9f, 0x73,
  0xb9, 0x7f, 0x04, 0xc9, 0x10, 0x52, 0xa9, 0x03, 0xe9, 0xc7, 0x1b, 0x10,
  0x06, 0x7f, 0x59, 0x2d, 0x27, 0xdb, 0x1f, 0x6a, 0x25, 0xf4, 0xd5, 0xfc,
  0xcb, 0x1a, 0x3a, 0xda, 0xa8, 0x7f, 0xa2, 0x70, 0x97, 0xb9, 0xee, 0xc8,
  0x58, 0x57, 0xc3, 0x7d, 0x81, 0x37, 0xfa, 0x1c, 0xc6, 0x3b, 0x00, 0x1c,
  0xa5, 0x7f, 0xac, 0xf2, 0xe2, 0xed, 0x1e, 0xa7, 0xef, 0x63, 0x37, 0x6d,
  0x3b, 0x1a, 0x8c, 0xc4, 0xb8, 0x08, 0x0f, 0x51, 0xc0, 0x24, 0x5b, 0x35,
  0xbb, 0x26, 0xf0, 0xb5, 0x6b, 0xc7, 0x01, 0x81, 0x3c, 0x42, 0xbf, 0xe7,
  0xd7, 0xb1, 0x81, 0xee, 0x20, 0xc1, 0x08, 0xd8, 0x4c, 0x6a, 0x31, 0x44,
  0x2d, 0xdc, 0x06, 0xeb, 0xa3, 0x11, 0x59, 0x5f, 0xcf, 0xf5, 0x31, 0x98,
  0x95, 0x25, 0x2e, 0x27, 0x7f, 0xd3, 0xf8, 0xcf, 0x12, 0xf3, 0x5f, 0xc6,
  0xf4, 0xfe, 0xe1, 0x37, 0x07, 0xee, 0xdd, 0x50, 0xdb, 0x81, 0x49, 0xd6,
  0xf7, 0x13, 0xd2, 0xa2, 0xcb, 0xf1, 0xbe, 0x0f, 0x04, 0x7f, 0xa0, 0xd4,
  0xb3, 0xeb, 0xac, 0x1b, 0x0f, 0xd1, 0xf0, 0xf9, 0x35, 0x0b, 0x7c, 0xec,
  0xcc, 0x34, 0x15, 0x33, 0xb7, 0xc7, 0xdb, 0x65, 0x7f, 0xde, 0x8d, 0x18,
  0x9e, 0xc4, 0xd1, 0x50, 0xa9, 0x15, 0xc2, 0x7f, 0x6a, 0x18, 0x0e, 0xc0,
  0xb3, 0x4f, 0xdf, 0x25, 0xcb, 0x34, 0xcc, 0x3c, 0x5a, 0xe8, 0x59, 0xce,
  0x18, 0xdd, 0x34, 0x4c, 0x65, 0x20, 0xdb, 0x9a, 0xd3, 0xc4, 0xab, 0x1c,
  0xee, 0x81, 0x60, 0xd8, 0x9e, 0x42, 0xf4, 0x42, 0x7f, 0x2a, 0x85, 0x1c,
  0x3f, 0xca, 0xf6, 0x11, 0x60, 0xb5, 0xb3, 0x40, 0x52, 0xd5, 0x81, 0xdd,
  0xc7, 0x20, 0x1c, 0xff, 0x17, 0xac, 0xcf, 0x5c, 0xfd, 0xfa, 0x58, 0x13,
  0x24, 0x31, 0x3c, 0x2d, 0x81, 0x12, 0x32, 0x3c, 0x44, 0x5e, 0x40, 0xb8,
  0x9c, 0x2c, 0x2d, 0x81, 0x3d, 0x8b, 0xd3, 0xec, 0xff, 0xfc, 0x52, 0xde,
  0x81, 0xd3, 0x15, 0x12, 0x2b, 0xc7, 0x1f, 0x71, 0xd2, 0x23, 0x79, 0xdb,
  0x86, 0xdb, 0x1d, 0x66, 0xf9, 0x03, 0x81, 0xf3, 0x7e, 0x26, 0x74, 0xe7,
  0x0e, 0x35, 0x0c, 0xf5, 0xcc, 0xc8, 0x23, 0xbc, 0x46, 0x4c, 0x7f, 0xde,
  0x0c, 0x2a, 0xba, 0xc6, 0x69, 0xfa, 0xbc, 0x0d, 0x17, 0xef, 0xcd, 0x2e,
  0x33, 0xb9, 0xd8, 0x55, 0x24, 0xf4, 0x36, 0x48, 0x4e, 0x11, 0x11, 0xed,
  0x95, 0xca, 0x03, 0xf4, 0xc1, 0x3e, 0x81, 0xdd, 0xb3, 0x38, 0x38, 0x61,
  0x81, 0x47, 0xe0, 0x8b, 0x19, 0x79, 0x77, 0x20, 0x6a, 0x88, 0x11, 0xfb,
  0x32, 0x05, 0xe6, 0xfa, 0xf5, 0xcb, 0x94, 0xd3, 0x3d, 0x13, 0x7f, 0x0a,
  0x59, 0x54, 0xbd, 0xb9, 0x12, 0x4f, 0x33, 0x9d, 0xb9, 0xd4, 0x41, 0x02,
  0xb0, 0x0f, 0x44, 0x32, 0x31, 0xa5, 0xde, 0x5f, 0x3a, 0x97, 0x7f, 0xbc,
  0xec, 0xc0, 0x20, 0x9a, 0x26, 0xc0, 0xff, 0xff, 0x04, 0x00, 0x00, 0x00,
  0x00, 0x01, 0x00, 0x00, 0xfd, 0xff, 0xff, 0xff, 0x15, 0x00, 0x00, 0x00,
  0x38, 0x00, 0x00, 0x00, 0xca, 0xff, 0xff, 0xff, 0x75, 0x00, 0x00, 0x00,
  0x06, 0x00, 0x00, 0x00, 0xe4, 0xff, 0xff, 0xff, 0xee, 0xff, 0xff, 0xff,
  0x1c, 0x00, 0x00, 0x00, 0x22, 0x00, 0x00, 0x00, 0xcf, 0xff, 0xff, 0xff,
  0x2b, 0x00, 0x00, 0x00, 0x47, 0x00, 0x00, 0x00, 0x1c, 0x00, 0x00, 0x00,
  0xdb, 0xff, 0xff, 0xff, 0xf4, 0xff, 0xff, 0xff, 0xee, 0xff, 0xff, 0xff,
  0x00, 0x00, 0x00, 0x00, 0xc4, 0xff, 0xff, 0xff, 0xac, 0x00, 0x00, 0x00,
  0xd9, 0xff, 0xff, 0xff, 0xbf, 0xff, 0xff, 0xff, 0xfc, 0xff, 0xff, 0xff,
  0x54, 0x00, 0x00, 0x00, 0xc2, 0xff, 0xff, 0xff, 0xcc, 0xff, 0xff, 0xff,
  0xcb, 0xff, 0xff, 0xff, 0xdd, 0xff, 0xff, 0xff, 0x94, 0xff, 0xff, 0xff,
  0xea, 0xff, 0xff, 0xff, 0xe3, 0xff, 0xff, 0xff, 0x0e, 0x00, 0x00, 0x00,
  0x3b, 0x00, 0x00, 0x00, 0x11, 0x00, 0x00, 0x00, 0xb5, 0xff, 0xff, 0xff,
  0x1a, 0x00, 0x00, 0x00, 0xff, 0xff, 0xff, 0xff, 0xe6, 0x00, 0x00, 0x00,
  0x05, 0x00, 0x00, 0x00, 0xb7, 0xff, 0xff, 0xff, 0x21, 0x00, 0x00, 0x00,
  0x98, 0x00, 0x00, 0x00, 0x31, 0x00, 0x00, 0x00, 0x22, 0x00, 0x00, 0x00,
  0x95, 0x00, 0x00, 0x00, 0xc1, 0xff, 0xff, 0xff, 0xdf, 0xff, 0xff, 0xff,
  0xec, 0xff, 0xff, 0xff, 0xe5, 0xff, 0xff, 0xff, 0xe8, 0xff, 0xff, 0xff,
  0x37, 0x00, 0x00, 0x00, 0xe5, 0xff, 0xff, 0xff, 0xda, 0xff, 0xff, 0xff,
  0xde, 0xff, 0xff, 0xff, 0xf0, 0xff, 0xff, 0xff, 0x45, 0x00, 0x00, 0x00,
  0xd4, 0xff, 0xff, 0xff, 0xda, 0xff, 0xff, 0xff, 0xb3, 0xff, 0xff, 0xff,
  0x2c, 0x00, 0x00, 0x00, 0x09, 0x00, 0x00, 0x00, 0xf8, 0xff, 0xff, 0xff,
  0xf4, 0xff, 0xff, 0xff, 0xeb, 0xff, 0xff, 0xff, 0x32, 0xc1, 0xff, 0xff,
  0x04, 0x00, 0x00, 0x00, 0xc0, 0x00, 0x00, 0x00, 0x7f, 0xb2, 0xe6, 0xa1,
  0xc8, 0x81, 0x7c, 0x3f, 0xd4, 0x5f, 0x07, 0x86, 0xa3, 0x02, 0x81, 0x45,
  0xe2, 0x36, 0xbd, 0x81, 0x92, 0xe8, 0xc8, 0x72, 0x15, 0x82, 0x7f, 0x34,
  0x75, 0xe1, 0x08, 0xaa, 0xc6, 0xb0, 0xb7, 0x54, 0x6c, 0x81, 0x7f, 0x2d,
  0x0d, 0xd3, 0x81, 0xf2, 0x41, 0xdd, 0x70, 0x73, 0x6b, 0x7f, 0xb3, 0x28,
  0x74, 0x7f, 0x81, 0x7f, 0xd0, 0xa0, 0xca, 0x7b, 0xd7, 0x59, 0xb4, 0xfe,
  0x97, 0x08, 0x7f, 0x81, 0x7f, 0x49, 0x7f, 0x25, 0x7f, 0x7f, 0x7f, 0x7f,
  0xce, 0x9e, 0xf0, 0x7f, 0x7f, 0x81, 0xb8, 0x87, 0x81, 0x9d, 0x7f, 0x07,
  0x7f, 0x81, 0x87, 0xfc, 0x7f, 0x81, 0x81, 0x7f, 0x8c, 0x81, 0xdb, 0x7f,
  0x81, 0x3b, 0x10, 0x62, 0x81, 0x33, 0x13, 0x7f, 0xb8, 0x7f, 0x7e, 0x7f,
  0x81, 0xe7, 0xcc, 0xbf, 0x7f, 0x37, 0x3e, 0x86, 0x73, 0x7f, 0x94, 0x81,
  0x81, 0xf7, 0x7f, 0x1e, 0x6f, 0x81, 0x7c, 0xae, 0x25, 0x09, 0xf7, 0x7f,
  0xf0, 0xb0, 0x54, 0x20, 0x7f, 0x81, 0xb2, 0x56, 0x6a, 0x6f, 0x7f, 0x12,
  0x05, 0x81, 0x29, 0x81, 0x4c, 0xbb, 0xfc, 0x7f, 0x84, 0x3f, 0x0a, 0x05,
  0x7f, 0x26, 0x81, 0x6b, 0x6e, 0x45, 0x09, 0x7f, 0xef, 0x81, 0x38, 0x73,
  0x7f, 0x12, 0x7f, 0xef, 0xa7, 0x47, 0x81, 0x81, 0x54, 0x56, 0x17, 0x31,
  0x7f, 0x7f, 0x7f, 0xce, 0xfe, 0x81, 0xa7, 0x81, 0x00, 0x6f, 0xff, 0xff,
  0x02, 0xc2, 0xff, 0xff, 0x04, 0x00, 0x00, 0x00, 0x00, 0x01, 0x00, 0x00,
  0x00, 0x00, 0x00, 0x00, 0x00, 0x00, 0x00, 0x00, 0x00, 0x00, 0x00, 0x00,
  0x00, 0x00, 0x00, 0x00, 0x00, 0x00, 0x00, 0x00, 0x00, 0x00, 0x00, 0x00,
  0x00, 0x00, 0x00, 0x00, 0x00, 0x00, 0x00, 0x00, 0x00, 0x00, 0x00, 0x00,
  0x00, 0x00, 0x00, 0x00, 0x00, 0x00, 0x00, 0x00, 0x00, 0x00, 0x00, 0x00,
  0x00, 0x00, 0x00, 0x00, 0x00, 0x00, 0x00, 0x00, 0x00, 0x00, 0x00, 0x00,
  0x00, 0x00, 0x00, 0x00, 0x00, 0x00, 0x00, 0x00, 0x00, 0x00, 0x00, 0x00,
  0x00, 0x00, 0x00, 0x00, 0x00, 0x00, 0x00, 0x00, 0x00, 0x00, 0x00, 0x00,
  0x00, 0x00, 0x00, 0x00, 0x00, 0x00, 0x00, 0x00, 0x00, 0x00, 0x00, 0x00,
  0x00, 0x00, 0x00, 0x00, 0x00, 0x00, 0x00, 0x00, 0x00, 0x00, 0x00, 0x00,
  0x00, 0x00, 0x00, 0x00, 0x00, 0x00, 0x00, 0x00, 0x00, 0x00, 0x00, 0x00,
  0x00, 0x00, 0x00, 0x00, 0x00, 0x00, 0x00, 0x00, 0x00, 0x00, 0x00, 0x00,
  0x00, 0x00, 0x00, 0x00, 0x00, 0x00, 0x00, 0x00, 0x00, 0x00, 0x00, 0x00,
  0x00, 0x00, 0x00, 0x00, 0x00, 0x00, 0x00, 0x00, 0x00, 0x00, 0x00, 0x00,
  0x00, 0x00, 0x00, 0x00, 0x00, 0x00, 0x00, 0x00, 0x00, 0x00, 0x00, 0x00,
  0x00, 0x00, 0x00, 0x00, 0x00, 0x00, 0x00, 0x00, 0x00, 0x00, 0x00, 0x00,
  0x00, 0x00, 0x00, 0x00, 0x00, 0x00, 0x00, 0x00, 0x00, 0x00, 0x00, 0x00,
  0x00, 0x00, 0x00, 0x00, 0x00, 0x00, 0x00, 0x00, 0x00, 0x00, 0x00, 0x00,
  0x00, 0x00, 0x00, 0x00, 0x00, 0x00, 0x00, 0x00, 0x00, 0x00, 0x00, 0x00,
  0x00, 0x00, 0x00, 0x00, 0x00, 0x00, 0x00, 0x00, 0x00, 0x00, 0x00, 0x00,
  0x00, 0x00, 0x00, 0x00, 0x00, 0x00, 0x00, 0x00, 0x00, 0x00, 0x00, 0x00,
  0x00, 0x00, 0x00, 0x00, 0x00, 0x00, 0x00, 0x00, 0x00, 0x00, 0x00, 0x00,
  0x00, 0x00, 0x00, 0x00, 0x0e, 0xc3, 0xff, 0xff, 0x04, 0x00, 0x00, 0x00,
  0x00, 0x10, 0x00, 0x00, 0xd9, 0x7f, 0xe9, 0xef, 0x10, 0x38, 0x19, 0x98,
  0x6c, 0x62, 0xab, 0x29, 0xf3, 0x1c, 0x16, 0x90, 0x7a, 0x1a, 0x62, 0x6f,
  0x01, 0xfc, 0x6b, 0xac, 0x94, 0x73, 0x1e, 0xf0, 0x91, 0xee, 0x95, 0xc2,
  0xce, 0xa8, 0xf8, 0x20, 0x08, 0xa9, 0x8e, 0xf7, 0x0b, 0x10, 0x28, 0x31,
  0x8c, 0x52, 0x10, 0x69, 0x25, 0x50, 0x36, 0x4a, 0x35, 0x42, 0xf8, 0xf0,
  0x3a, 0x69, 0x02, 0x0e, 0xb7, 0xec, 0xe8, 0xe4, 0x77, 0x38, 0xbe, 0x42,
  0x2c, 0x91, 0x38, 0x2d, 0xa6, 0x48, 0xbb, 0x11, 0xdd, 0x5a, 0x4f, 0x98,
  0x4e, 0x37, 0xfb, 0xf9, 0x24, 0x21, 0x14, 0x65, 0x91, 0x12, 0x17, 0xde,
  0x66, 0xf1, 0xed, 0xbc, 0x70, 0x7f, 0x0b, 0x53, 0xe6, 0x2a, 0x22, 0xb8,
  0x28, 0x61, 0xe4, 0x55, 0x18, 0xb3, 0x63, 0xbd, 0x12, 0x63, 0x65, 0x51,
  0x3d, 0x1e, 0x49, 0x26, 0x59, 0xa0, 0x56, 0xb2, 0x68, 0xc9, 0x30, 0xc4,
  0xf4, 0x59, 0xbd, 0x67, 0xc4, 0x5e, 0xd4, 0x89, 0xe5, 0xd7, 0xac, 0x0e,
  0x2d, 0x20, 0xa4, 0xae, 0x23, 0xe8, 0x69, 0xa8, 0x33, 0x3a, 0xa4, 0x35,
  0x61, 0x5d, 0xc3, 0x2b, 0x73, 0xb1, 0x42, 0xf0, 0x5d, 0x9b, 0xe6, 0xe9,
  0x7f, 0xba, 0x37, 0x99, 0x3d, 0x51, 0x72, 0x99, 0x98, 0xa9, 0x57, 0x75,
  0xb0, 0xb4, 0xfc, 0x24, 0x64, 0xeb, 0x0c, 0xcf, 0xfb, 0x96, 0x54, 0x29,
  0x3d, 0xb4, 0x14, 0x53, 0xe8, 0x41, 0x49, 0x5d, 0xe0, 0x5b, 0xdf, 0x88,
  0x52, 0xe3, 0x2b, 0xe5, 0x68, 0x1d, 0xa6, 0xb7, 0x81, 0xe9, 0xba, 0x33,
  0x42, 0xd8, 0x3f, 0xf0, 0x2d, 0xc5, 0xa8, 0xe9, 0x27, 0xec, 0x2c, 0xd9,
  0x3c, 0x55, 0x2e, 0xc2, 0xf1, 0x1f, 0xc0, 0x34, 0xdf, 0xea, 0x46, 0x46,
  0x1a, 0xf1, 0x0b, 0xce, 0x45, 0xfd, 0x37, 0xed, 0x09, 0xf6, 0xeb, 0x4e,
  0x53, 0xf5, 0x07, 0xac, 0xe7, 0x15, 0x4b, 0x08, 0xb1, 0xc5, 0xdf, 0xeb,
  0x7f, 0x14, 0x15, 0x10, 0x5f, 0xae, 0xb5, 0x0a, 0xf9, 0xd5, 0xe7, 0xfa,
  0x0e, 0x37, 0xb7, 0x30, 0xd2, 0x04, 0xe3, 0x55, 0x37, 0x00, 0xf2, 0x9e,
  0x3d, 0xc5, 0xab, 0xcd, 0x00, 0x3a, 0x35, 0x8f, 0x25, 0x4a, 0xe0, 0xcb,
  0xd5, 0x05, 0x10, 0xf2, 0x9e, 0x2a, 0x91, 0x0b, 0x06, 0xfa, 0x3e, 0x1a,
  0x2d, 0x11, 0x0c, 0xb8, 0x12, 0xb6, 0x05, 0x3b, 0xdd, 0xc1, 0xb6, 0x2f,
  0xdb, 0x94, 0xce, 0x4a, 0x14, 0x11, 0xd7, 0x0a, 0x94, 0xd7, 0xce, 0x45,
  0xda, 0x31, 0x27, 0x1b, 0xc7, 0xbb, 0x10, 0x0a, 0xed, 0x3d, 0x00, 0x99,
  0xe7, 0x39, 0xe0, 0xf0, 0x7f, 0x0d, 0x29, 0x2f, 0xae, 0xbd, 0xba, 0x58,
  0xfc, 0x41, 0x3e, 0xd4, 0x56, 0x2e, 0xd1, 0xc1, 0xf5, 0xee, 0xd8, 0xb4,
  0x24, 0xd6, 0x59, 0xb4, 0x0c, 0xf8, 0x43, 0xde, 0x24, 0xd2, 0xb8, 0x58,
  0xfb, 0x3a, 0xc3, 0xed, 0x52, 0xee, 0x9e, 0xaa, 0x37, 0xb4, 0xfc, 0x04,
  0xe2, 0xdc, 0xd1, 0x22, 0xe4, 0xef, 0xd0, 0xb2, 0x00, 0xbf, 0x43, 0x01,
  0x73, 0xde, 0x2a, 0xef, 0xd2, 0x4f, 0xf1, 0x42, 0x0a, 0xe1, 0xa2, 0xa0,
  0xf8, 0xd0, 0x52, 0x39, 0x02, 0x48, 0xbf, 0xf7, 0xfb, 0xea, 0xcb, 0x15,
  0xfc, 0x30, 0xbf, 0x38, 0x34, 0xf2, 0x7f, 0x46, 0x3a, 0x5b, 0xec, 0xf1,
  0x9a, 0xbd, 0xbf, 0xff, 0x34, 0x22, 0xee, 0xcf, 0xe2, 0x4b, 0xee, 0xbf,
  0xf6, 0xf8, 0x66, 0x62, 0xed, 0xa3, 0xd5, 0x4c, 0x47, 0xf0, 0x3b, 0x21,
  0x6f, 0x1d, 0x12, 0xb4, 0x33, 0xec, 0xc1, 0x62, 0x0a, 0x52, 0xce, 0x70,
  0xe8, 0x23, 0xdf, 0xc7, 0x7f, 0x3c, 0x1a, 0x78, 0x05, 0x3f, 0x95, 0x9f,
  0x4b, 0xee, 0x37, 0x34, 0x15, 0xf0, 0xa2, 0x0d, 0x5d, 0xe9, 0x51, 0xdb,
  0x38, 0x13, 0xf5, 0xfd, 0xa0, 0xcb, 0x54, 0xc8, 0xb9, 0xbe, 0x54, 0xaf,
  0xd5, 0xef, 0x38, 0x22, 0xc9, 0x05, 0xc6, 0xbf, 0xd5, 0x30, 0xb5, 0xbc,
  0xe1, 0x7f, 0x5b, 0xe9, 0x68, 0x5a, 0xfd, 0x19, 0x4e, 0xb6, 0x1a, 0xa7,
  0xeb, 0x9c, 0xd7, 0xd9, 0xbd, 0xb1, 0x45, 0x31, 0xf0, 0x44, 0xef, 0xaf,
  0xc4, 0xf4, 0x53, 0xec, 0x71, 0x39, 0xbd, 0xb2, 0x2a, 0xa6, 0xfa, 0x5a,
  0xe5, 0xb8, 0xd4, 0xc2, 0xee, 0xa1, 0xd2, 0xef, 0x91, 0x43, 0xe9, 0x5e,
  0x65, 0x42, 0x22, 0xbe, 0x20, 0x3d, 0x3a, 0x4b, 0xf7, 0x14, 0xe1, 0x33,
  0x57, 0xe9, 0x05, 0xb2, 0xab, 0x04, 0xe1, 0x95, 0xde, 0x3e, 0x05, 0x7f,
  0xcb, 0x10, 0xa4, 0x2a, 0x40, 0x2b, 0x07, 0x99, 0xd2, 0x56, 0xad, 0xe1,
  0x12, 0x65, 0xd8, 0xf8, 0xf1, 0xf7, 0xd5, 0x3f, 0xe8, 0x1b, 0xf8, 0xd1,
  0x04, 0x27, 0xf1, 0xfe, 0x4b, 0x1e, 0x64, 0x0c, 0xfb, 0x9c, 0xc5, 0xa6,
  0xd5, 0xb1, 0x0b, 0x03, 0x2c, 0xef, 0xbb, 0x3c, 0xcd, 0xd3, 0xf4, 0xb7,
  0x81, 0x1b, 0xcb, 0xde, 0xb0, 0x1f, 0xed, 0xf4, 0x17, 0xd6, 0xb4, 0x2d,
  0xd2, 0xc9, 0xf3, 0x31, 0xdd, 0xbe, 0x0c, 0xd1, 0xe1, 0x16, 0x60, 0xf6,
  0xe4, 0xf6, 0x51, 0xc5, 0x58, 0xfc, 0x4c, 0xdf, 0xe5, 0xdb, 0x42, 0x37,
  0xec, 0x28, 0xc6, 0x21, 0x01, 0x2d, 0x30, 0x4e, 0xd5, 0xad, 0x1a, 0xd9,
  0x43, 0xef, 0x10, 0x29, 0x0b, 0xb2, 0xe8, 0xdb, 0x3f, 0xf5, 0x1f, 0xcb,
  0xdb, 0xe0, 0x73, 0x3a, 0xab, 0x74, 0x06, 0x5a, 0x0e, 0x4c, 0x1f, 0x77,
  0xd0, 0x2e, 0xa7, 0xde, 0x45, 0xf9, 0x07, 0x05, 0xef, 0x95, 0x08, 0xb0,
  0xa1, 0x34, 0x0e, 0xd6, 0x13, 0x30, 0x81, 0x2e, 0x25, 0xa5, 0x28, 0x0b,
  0xb4, 0x6e, 0xb4, 0x50, 0x03, 0x66, 0x9e, 0x33, 0x2b, 0xe3, 0x82, 0x44,
  0x7f, 0x53, 0xc2, 0xf1, 0xf4, 0x05, 0x7f, 0xfb, 0xd7, 0x53, 0x6a, 0xc3,
  0x64, 0x50, 0x0b, 0x31, 0xc6, 0x21, 0xcd, 0x6e, 0x9b, 0x6d, 0xd3, 0xd1,
  0x58, 0x0f, 0x7c, 0x43, 0xf3, 0x39, 0xeb, 0x32, 0xcd, 0xc8, 0x15, 0x5e,
  0x5f, 0x6b, 0xa5, 0x40, 0xf2, 0xcb, 0xaa, 0x4d, 0xb6, 0xc0, 0x75, 0x57,
  0x5b, 0xfa, 0x7f, 0x32, 0x24, 0x26, 0xc7, 0xbd, 0xe0, 0x58, 0x2c, 0x1c,
  0xed, 0xcb, 0xfc, 0xf7, 0xa7, 0x87, 0x13, 0x8a, 0xd7, 0x43, 0x92, 0x33,
  0x0d, 0x6d, 0xef, 0xaf, 0x35, 0xba, 0xcc, 0x52, 0x14, 0x66, 0xd1, 0x93,
  0x19, 0x3c, 0x1f, 0xfe, 0xc0, 0x45, 0x45, 0x97, 0xf1, 0x2d, 0x02, 0x29,
  0xf9, 0x81, 0x7c, 0xb9, 0xf0, 0xda, 0xfb, 0xc1, 0x9f, 0xf1, 0xbd, 0x43,
  0x19, 0xc5, 0xfb, 0x57, 0x6c, 0xf5, 0x14, 0xee, 0x3d, 0x90, 0xf3, 0x30,
  0x02, 0x2c, 0xf5, 0x57, 0x06, 0x11, 0xe1, 0x0a, 0x14, 0xa2, 0xc2, 0x14,
  0x90, 0x02, 0xcc, 0xb6, 0x94, 0x37, 0x08, 0xba, 0x42, 0x1a, 0x27, 0xf4,
  0x23, 0x58, 0x2e, 0xdd, 0xaf, 0xcd, 0xd4, 0xd8, 0x36, 0x81, 0x0b, 0xca,
  0x32, 0x06, 0xc5, 0x1f, 0xd0, 0x5f, 0x0e, 0x6e, 0x54, 0xe0, 0xd6, 0xa4,
  0xcf, 0xba, 0xf8, 0x46, 0xc3, 0x3d, 0x88, 0xf3, 0xc6, 0xca, 0x1f, 0xe3,
  0x67, 0xdf, 0x1a, 0x34, 0x3a, 0xe2, 0x2c, 0x95, 0xab, 0x67, 0xeb, 0x1b,
  0x3e, 0x55, 0x6d, 0x7f, 0x12, 0xa2, 0x52, 0xb7, 0x02, 0x51, 0xd7, 0x0b,
  0x4f, 0xe9, 0xbc, 0xef, 0x09, 0x0f, 0x06, 0x3a, 0xb7, 0x41, 0xab, 0x0e,
  0xe6, 0x8f, 0xe4, 0xc4, 0x5a, 0xf1, 0xa9, 0x77, 0x5e, 0xed, 0x96, 0xeb,
  0x91, 0xde, 0xb8, 0x17, 0xb3, 0xb4, 0xb3, 0xe7, 0xee, 0x43, 0x73, 0xc8,
  0xb5, 0x0e, 0x42, 0xd5, 0x14, 0x40, 0x98, 0x83, 0x7f, 0xf6, 0x17, 0x6c,
  0xbb, 0x57, 0xe2, 0xb9, 0x97, 0xe8, 0x33, 0x7b, 0x35, 0xad, 0xd5, 0x36,
  0xf3, 0xb6, 0x11, 0xc5, 0xf3, 0x08, 0x31, 0xad, 0x2f, 0xec, 0xa1, 0x08,
  0x0c, 0x3c, 0xcf, 0x0c, 0xf3, 0x3c, 0x29, 0x4e, 0x3b, 0x1e, 0xd1, 0x2f,
  0x0a, 0x0c, 0xb9, 0x23, 0x2f, 0xd1, 0x96, 0xaf, 0x5c, 0x62, 0xdc, 0x9f,
  0x4f, 0x9b, 0x1a, 0xd9, 0xf9, 0xbe, 0x5a, 0xb4, 0x3d, 0x2a, 0xf2, 0xdc,
  0x2b, 0x3b, 0x1a, 0x40, 0xe9, 0xc1, 0x37, 0xba, 0xdb, 0x0e, 0x43, 0x5f,
  0x00, 0x3c, 0x7f, 0x8a, 0xc5, 0xe8, 0x25, 0x4f, 0x3d, 0x4a, 0xaf, 0x69,
  0xa6, 0x17, 0xde, 0x5c, 0x31, 0x56, 0xac, 0xe9, 0xfc, 0x1e, 0x4e, 0x81,
  0x6f, 0xdb, 0x53, 0xd0, 0xe0, 0xac, 0xd4, 0xb8, 0x31, 0x01, 0xd6, 0x32,
  0x0b, 0x13, 0xad, 0x44, 0xc1, 0x0b, 0xcb, 0x96, 0xdf, 0x0a, 0xf7, 0xed,
  0xc6, 0xf2, 0xa4, 0xfe, 0x1e, 0xd0, 0xc3, 0x34, 0x35, 0x42, 0xf2, 0x0f,
  0x2a, 0x9b, 0x41, 0x97, 0xc5, 0x0b, 0xb2, 0x1f, 0x25, 0xb2, 0xe1, 0xb2,
  0xb7, 0xd8, 0x1c, 0x57, 0x65, 0xa3, 0x9e, 0xb7, 0xbd, 0xcc, 0xf2, 0xe3,
  0xdd, 0x1e, 0x32, 0x1a, 0xa6, 0xb5, 0xb2, 0x45, 0xf0, 0x5f, 0x00, 0x5b,
  0x98, 0x13, 0xd2, 0xcc, 0x14, 0xdc, 0x32, 0x6b, 0xfe, 0xb9, 0x1d, 0xe7,
  0xbc, 0xe0, 0x7f, 0xaa, 0x27, 0xc2, 0x2a, 0xed, 0x6a, 0x18, 0x0e, 0xe3,
  0xd8, 0xf5, 0x95, 0xe9, 0x28, 0xd5, 0x7f, 0x34, 0x18, 0x34, 0x6a, 0xd4,
  0x33, 0x36, 0xea, 0x15, 0x10, 0xf7, 0x19, 0xec, 0x06, 0x5b, 0x46, 0xcc,
  0xdc, 0xba, 0xc5, 0xfe, 0x1d, 0xf5, 0xd4, 0xc7, 0x47, 0xc5, 0x17, 0x74,
  0x46, 0xbd, 0x2a, 0x3b, 0xd3, 0x52, 0x38, 0x32, 0x81, 0xed, 0x55, 0x24,
  0xa0, 0xb4, 0xb5, 0xe8, 0x4a, 0x5b, 0xd8, 0x8a, 0xe9, 0x31, 0xea, 0x26,
  0x9a, 0x1d, 0x71, 0xb6, 0xc7, 0x20, 0x9b, 0xe8, 0xb3, 0x9f, 0xc6, 0x3a,
  0x41, 0x04, 0x43, 0xe6, 0x49, 0x4a, 0x66, 0x57, 0x3d, 0x02, 0x69, 0xa2,
  0x24, 0x5d, 0x90, 0xa7, 0xa1, 0xfd, 0x00, 0x5b, 0x5e, 0xc6, 0xd8, 0xa7,
  0xa7, 0xa6, 0x69, 0x4f, 0x4f, 0x33, 0x25, 0xbb, 0x5d, 0x0b, 0x35, 0x27,
  0x3d, 0x61, 0x28, 0x62, 0x1e, 0xfb, 0x44, 0x55, 0x0c, 0xd2, 0xd8, 0xb2,
  0x12, 0x57, 0x53, 0x45, 0x58, 0x30, 0xf7, 0x0e, 0x53, 0x13, 0xc5, 0xe5,
  0x61, 0x27, 0x44, 0xd7, 0xf1, 0xc0, 0xf4, 0xb5, 0x81, 0x2d, 0xb4, 0xd8,
  0xbc, 0xdd, 0x2a, 0x0a, 0xe9, 0xbe, 0xde, 0x57, 0x20, 0xf2, 0x08, 0x24,
  0x40, 0x1a, 0x0e, 0xed, 0x4e, 0xe9, 0xd2, 0x1a, 0x4a, 0x3c, 0xea, 0x6f,
  0x7f, 0xe2, 0x16, 0x1a, 0xc1, 0x3d, 0xe4, 0x30, 0x1d, 0x55, 0xf7, 0xd8,
  0xda, 0xb9, 0xc2, 0x42, 0x72, 0x5a, 0xe1, 0xef, 0x4b, 0xf2, 0x14, 0xe0,
  0xe7, 0xf5, 0x86, 0x30, 0x4e, 0xc1, 0x2f, 0x04, 0xfd, 0xcd, 0xd5, 0x32,
  0xe3, 0x08, 0xa7, 0xf5, 0x07, 0xf5, 0x29, 0x65, 0x25, 0xe4, 0x8f, 0x47,
  0x6d, 0xb3, 0xac, 0x40, 0xe0, 0x44, 0x36, 0xe9, 0xad, 0xfd, 0x08, 0x97,
  0x4c, 0xda, 0x11, 0x6e, 0x01, 0xc7, 0xb6, 0xc3, 0x8b, 0xe5, 0xcb, 0x24,
  0x29, 0x59, 0x7f, 0xf2, 0xe9, 0x12, 0xbe, 0xc6, 0xe1, 0x19, 0x34, 0x49,
  0xe8, 0x5d, 0x04, 0xe0, 0x11, 0xa4, 0x44, 0x91, 0x34, 0x18, 0xa2, 0xb7,
  0x0f, 0xd6, 0x11, 0xe8, 0xc7, 0xea, 0xb8, 0x07, 0xa8, 0xc1, 0x09, 0xe7,
  0x18, 0xd6, 0x78, 0x54, 0x31, 0x5f, 0xec, 0xfd, 0x8a, 0xe6, 0x3b, 0x16,
  0xbc, 0xf1, 0x63, 0xf6, 0x0a, 0x15, 0x61, 0xb2, 0x12, 0x41, 0xe3, 0xc3,
  0x3b, 0xc0, 0x27, 0x22, 0xce, 0x35, 0xeb, 0xc3, 0x33, 0x40, 0x1b, 0x2f,
  0xdc, 0x3a, 0x9b, 0x0e, 0x02, 0xf2, 0xda, 0x01, 0x4f, 0x50, 0x8e, 0xaf,
  0xde, 0x98, 0x3d, 0x19, 0x2c, 0x72, 0x7f, 0xd0, 0xd9, 0x28, 0xf9, 0xc4,
  0x92, 0xd1, 0xf1, 0x14, 0x6b, 0xf5, 0x7a, 0xf2, 0xb7, 0xf6, 0x4c, 0x46,
  0xde, 0x17, 0x3c, 0x2e, 0x70, 0xdb, 0xa5, 0xcb, 0xf5, 0xac, 0x5c, 0xa7,
  0x3c, 0xaf, 0x2f, 0xf6, 0xdb, 0x42, 0x7f, 0xd3, 0x1f, 0xe6, 0xcd, 0xaa,
  0x3a, 0xd9, 0x55, 0x1f, 0xeb, 0x29, 0xe8, 0x6a, 0xa4, 0x9d, 0x87, 0x51,
  0xe8, 0xf7, 0x10, 0x51, 0x4e, 0x60, 0xc4, 0xcd, 0x8a, 0x46, 0xf9, 0xa6,
  0xe2, 0x28, 0xfb, 0xd2, 0x1c, 0xe3, 0x4d, 0xb4, 0xa3, 0xc6, 0x54, 0x6d,
  0x48, 0x35, 0x18, 0x0a, 0xa8, 0x8c, 0x3e, 0x26, 0x22, 0x08, 0x98, 0x5d,
  0x03, 0x0b, 0x21, 0x41, 0x7f, 0x92, 0x26, 0x47, 0xf1, 0x23, 0xf6, 0xc4,
  0x26, 0xd1, 0xfd, 0x04, 0xb9, 0xfe, 0xa4, 0x38, 0xf6, 0x0c, 0x1a, 0x63,
  0xd3, 0x39, 0x32, 0xaf, 0x2d, 0x9d, 0x17, 0x2b, 0x2a, 0x1b, 0xe7, 0x04,
  0x1f, 0x1a, 0x53, 0x0a, 0xf9, 0xa0, 0x03, 0x4f, 0x59, 0xe6, 0xf9, 0xf2,
  0xf5, 0x4f, 0x04, 0xbc, 0x99, 0x60, 0xf0, 0xc9, 0xfa, 0xdb, 0x10, 0xcf,
  0xad, 0x11, 0x5d, 0x42, 0xb2, 0xbb, 0xfc, 0xcd, 0x14, 0x0a, 0x1b, 0xa6,
  0x19, 0xc8, 0x34, 0xc1, 0x81, 0x72, 0xc9, 0xec, 0x46, 0x19, 0x3a, 0x1a,
  0xde, 0x5f, 0xb6, 0x9d, 0x38, 0xb5, 0x2a, 0x01, 0x48, 0x17, 0xe6, 0x59,
  0x4f, 0x4c, 0xdf, 0xe5, 0xcb, 0x14, 0x38, 0x02, 0xdf, 0x03, 0x17, 0x15,
  0x2b, 0xcf, 0x36, 0x1e, 0x4f, 0xc1, 0x16, 0xbf, 0xe7, 0xbf, 0xb0, 0x34,
  0xe6, 0x52, 0x28, 0xce, 0x25, 0xdb, 0xce, 0x0c, 0xcc, 0xaa, 0xf4, 0xe4,
  0xf4, 0xaa, 0xd8, 0xf3, 0x35, 0x22, 0x24, 0xda, 0xf7, 0x35, 0x01, 0xbc,
  0xe4, 0x42, 0x0f, 0x3c, 0xe9, 0xfc, 0x33, 0x16, 0x1f, 0xb5, 0xaf, 0xd3,
  0xf0, 0xb5, 0x3f, 0x7f, 0xb6, 0x0b, 0xbe, 0x60, 0x20, 0xd4, 0x5b, 0x2b,
  0xfb, 0xe1, 0x2b, 0xfd, 0x2f, 0xe2, 0x2f, 0xf4, 0x81, 0x57, 0x9e, 0xd4,
  0x15, 0x3e, 0x97, 0x35, 0x08, 0x36, 0xdb, 0xa1, 0xcc, 0x85, 0xea, 0xb9,
  0xb2, 0xdf, 0xfb, 0x98, 0x60, 0xd3, 0xd5, 0xe9, 0xb2, 0x4d, 0x04, 0x4f,
  0xdc, 0xed, 0x6e, 0x69, 0x36, 0x0c, 0xe6, 0xba, 0x9d, 0xf8, 0xa9, 0x20,
  0x92, 0xd8, 0xc7, 0x41, 0xab, 0xf0, 0x0b, 0xea, 0x39, 0x8e, 0x67, 0xc3,
  0x32, 0xf7, 0xca, 0x42, 0x1d, 0x11, 0xae, 0xbb, 0x38, 0x07, 0xed, 0x90,
  0xb4, 0xf8, 0x3a, 0xc5, 0x40, 0xc5, 0xe2, 0x50, 0xbd, 0x59, 0xd2, 0x15,
  0xf6, 0x23, 0xc5, 0xac, 0x30, 0x06, 0xe7, 0xf1, 0x51, 0xa2, 0x3b, 0x50,
  0x28, 0x28, 0x3b, 0x09, 0xc0, 0xb7, 0x8a, 0xa9, 0xf0, 0x33, 0xa8, 0x37,
  0x2e, 0xdc, 0xd1, 0x45, 0xc1, 0x9f, 0x1f, 0x7f, 0x39, 0x1a, 0x5c, 0x7f,
  0x66, 0x0c, 0x9c, 0x19, 0x30, 0x53, 0x49, 0xf7, 0x48, 0xe6, 0x55, 0xf7,
  0xf6, 0xf8, 0x4c, 0x49, 0xb7, 0xd4, 0x1b, 0xc1, 0x62, 0x4c, 0xc8, 0xad,
  0xb8, 0xd1, 0xd1, 0x1b, 0xc0, 0x97, 0x59, 0xd6, 0xc9, 0xb4, 0x2a, 0x12,
  0x29, 0x50, 0x37, 0xf1, 0x13, 0x4b, 0xca, 0x3a, 0x2b, 0x10, 0xe9, 0xef,
  0x17, 0x4f, 0xd4, 0xc1, 0xd8, 0x24, 0x54, 0xe0, 0xd4, 0x7f, 0x6e, 0x0f,
  0xdc, 0xd3, 0xa8, 0x17, 0x27, 0xe6, 0x00, 0xa4, 0xfc, 0xf5, 0x14, 0x99,
  0x02, 0xaf, 0x01, 0xe2, 0x4d, 0x4d, 0x47, 0xb5, 0x98, 0xd1, 0xef, 0xba,
  0x16, 0x27, 0xa9, 0xd2, 0x8b, 0xbe, 0xfd, 0xd0, 0x81, 0xc5, 0xe0, 0xd6,
  0x2c, 0xb9, 0x65, 0x57, 0xd1, 0xc5, 0x36, 0xec, 0x8d, 0xba, 0x65, 0xb5,
  0x25, 0xe5, 0x16, 0x50, 0xde, 0x41, 0xf5, 0xe5, 0xaa, 0xe5, 0xa6, 0x47,
  0x30, 0xd7, 0xcc, 0xb6, 0x93, 0xbe, 0x9c, 0x49, 0xfe, 0x45, 0xf0, 0xc4,
  0x3d, 0xa1, 0xc2, 0xbd, 0xe4, 0x82, 0xe8, 0x39, 0x02, 0xdc, 0x01, 0x34,
  0x86, 0x21, 0x4e, 0x67, 0xe0, 0x22, 0x4b, 0x40, 0x19, 0x3e, 0xb9, 0x45,
  0x29, 0xf3, 0x03, 0x33, 0x4c, 0xfd, 0x45, 0xc5, 0x3d, 0x72, 0x30, 0xe8,
  0x52, 0x25, 0x21, 0x9e, 0x1e, 0x7f, 0x5d, 0x20, 0x0f, 0xf2, 0x04, 0x2f,
  0xc0, 0xeb, 0xd6, 0x1f, 0x2d, 0x2f, 0xcf, 0x2d, 0xd7, 0x0b, 0xf2, 0x35,
  0xd5, 0x21, 0x70, 0xe3, 0xcb, 0xd6, 0x3c, 0x97, 0xed, 0xfa, 0x1c, 0x18,
  0x0f, 0x53, 0x47, 0x6a, 0x62, 0xdc, 0x2e, 0x7c, 0x28, 0x61, 0xf2, 0x69,
  0x7f, 0x47, 0xb5, 0x47, 0x2c, 0x38, 0x24, 0x5e, 0x11, 0x57, 0x09, 0xbf,
  0xcc, 0x4f, 0x22, 0x0d, 0x9a, 0x43, 0x0c, 0x20, 0xea, 0x4a, 0x7c, 0x99,
  0xd7, 0x13, 0x29, 0x90, 0xc5, 0xdd, 0xed, 0xc8, 0xb8, 0x3c, 0x74, 0x08,
  0xf5, 0x86, 0x4c, 0x54, 0x18, 0x5d, 0xe3, 0x6b, 0x8b, 0x08, 0xab, 0x9d,
  0xd6, 0xa4, 0xd8, 0xd3, 0x70, 0x48, 0x0a, 0x97, 0x56, 0x82, 0xb0, 0xf2,
  0xa7, 0xb4, 0xce, 0xae, 0xbc, 0xae, 0xa9, 0xf1, 0x30, 0xb8, 0x35, 0xfd,
  0x2f, 0xda, 0x9e, 0xfb, 0x4b, 0x1c, 0x84, 0xab, 0xb7, 0x18, 0x3f, 0xba,
  0x2b, 0x14, 0xa4, 0xfd, 0xae, 0x23, 0xeb, 0xc1, 0xeb, 0x6d, 0xea, 0xdd,
  0xfc, 0xa9, 0x6f, 0x2e, 0x3c, 0xa3, 0xca, 0xe3, 0x1e, 0xa3, 0xe1, 0xf5,
  0x52, 0xed, 0x6f, 0x58, 0xc9, 0x81, 0xe0, 0x7a, 0x38, 0xe0, 0xd9, 0x48,
  0x13, 0xa3, 0xc8, 0x0b, 0xed, 0xbe, 0x2b, 0x59, 0x35, 0xab, 0x5a, 0x39,
  0x58, 0x71, 0x16, 0xe7, 0xd6, 0x38, 0x0c, 0xa2, 0x16, 0x3c, 0xdc, 0xde,
  0xc7, 0x22, 0x0d, 0x33, 0x97, 0xac, 0xd9, 0xfd, 0xc6, 0x0e, 0xfe, 0xe3,
  0xbb, 0x43, 0xdc, 0xbe, 0x0f, 0x47, 0x69, 0xf5, 0xd4, 0xda, 0xc3, 0x0f,
  0xfd, 0x0e, 0xdd, 0x72, 0x03, 0x1c, 0x32, 0x9e, 0x81, 0x0d, 0x3d, 0xa7,
  0xc7, 0xf7, 0x39, 0xd0, 0x4f, 0x0b, 0xe2, 0x22, 0xb3, 0xf1, 0x3b, 0xc3,
  0x4c, 0xc1, 0x9b, 0xf7, 0x4f, 0x3c, 0x7f, 0x37, 0x17, 0x31, 0xf1, 0x02,
  0x1e, 0x5b, 0x25, 0xcd, 0xcc, 0xf2, 0xdf, 0xc4, 0xfe, 0x20, 0x2f, 0xeb,
  0x4f, 0xfe, 0x0c, 0x24, 0x36, 0xa7, 0x3b, 0xcf, 0xa2, 0x2f, 0xeb, 0x5a,
  0xd4, 0xf2, 0x69, 0x17, 0xbe, 0x71, 0x55, 0x58, 0xbe, 0x96, 0x45, 0x68,
  0xa9, 0xfe, 0xf5, 0xcd, 0xd4, 0xb7, 0xed, 0x22, 0xb9, 0xda, 0xea, 0xf0,
  0x2c, 0x58, 0x88, 0x8c, 0x16, 0x25, 0xd4, 0x81, 0x1b, 0x9c, 0x0d, 0x40,
  0xb2, 0xd4, 0x7f, 0x01, 0x3f, 0x05, 0x2a, 0x2b, 0xab, 0xa3, 0xd9, 0xd3,
  0xd6, 0x57, 0xd3, 0xc8, 0xe6, 0x08, 0x29, 0x9a, 0x0a, 0x9a, 0xb8, 0x5f,
  0x70, 0x2b, 0x9c, 0xf8, 0x93, 0x3f, 0x94, 0x8b, 0x19, 0x27, 0xae, 0x1a,
  0xf7, 0x15, 0xb2, 0x2b, 0xcb, 0xd6, 0x40, 0xba, 0xec, 0xc8, 0xb3, 0x52,
  0x4e, 0x3c, 0x25, 0x13, 0xee, 0x13, 0xce, 0xd4, 0x42, 0x02, 0x81, 0x0d,
  0xe3, 0x1e, 0x40, 0xb5, 0x06, 0xda, 0xec, 0x55, 0xdf, 0x6b, 0x43, 0xf6,
  0x96, 0x60, 0xc1, 0xd1, 0x13, 0x08, 0x32, 0xef, 0x2e, 0xee, 0xc5, 0xd8,
  0xc8, 0xe5, 0x3f, 0xc1, 0x54, 0xcd, 0x28, 0x07, 0xdc, 0xb5, 0x62, 0x1b,
  0xfa, 0x52, 0xb8, 0x42, 0xb4, 0xc6, 0xab, 0x1c, 0xef, 0x40, 0xfa, 0xee,
  0xd3, 0xfa, 0xbf, 0xd7, 0xa6, 0x3b, 0x03, 0x9e, 0xad, 0x5f, 0x60, 0x53,
  0x1d, 0x47, 0xb9, 0x66, 0x27, 0xbf, 0x0f, 0xd8, 0x30, 0xa9, 0x5f, 0x4e,
  0xdd, 0x1a, 0xa0, 0x49, 0x39, 0x4b, 0x52, 0x04, 0x96, 0x04, 0xcf, 0xc7,
  0x0a, 0x0b, 0x7f, 0x05, 0x9d, 0xc0, 0x5a, 0x00, 0x11, 0x64, 0xfd, 0x54,
  0x55, 0xb5, 0x18, 0x75, 0x4e, 0x0f, 0x2b, 0x41, 0x49, 0x1e, 0x40, 0x3e,
  0xdd, 0xe1, 0xeb, 0x16, 0xd6, 0x04, 0x16, 0xef, 0xfb, 0x30, 0x58, 0x4e,
  0x9e, 0xbc, 0xd5, 0xd5, 0xf2, 0x5d, 0x59, 0x07, 0xc0, 0x24, 0x27, 0x9f,
  0xf4, 0xcf, 0xb1, 0x81, 0xcb, 0x2c, 0xf9, 0x27, 0x3f, 0xf0, 0x5a, 0x24,
  0xba, 0xb2, 0x85, 0x04, 0x2f, 0x2e, 0xce, 0xcc, 0xe0, 0xdf, 0xa2, 0xa4,
  0x05, 0xe7, 0xb3, 0xea, 0x64, 0x50, 0x2f, 0x71, 0x9e, 0x1f, 0xed, 0xaf,
  0xbd, 0xc7, 0x31, 0x54, 0xd3, 0x20, 0xd1, 0xc7, 0xd5, 0x08, 0xa3, 0xfa,
  0x32, 0x5a, 0xca, 0x82, 0x50, 0x61, 0x22, 0xff, 0xab, 0x9e, 0x3e, 0x27,
  0xff, 0x59, 0xce, 0xe4, 0x07, 0xcb, 0xea, 0x34, 0x03, 0x0e, 0x9c, 0xe4,
  0xd0, 0xcf, 0xf8, 0x33, 0xf1, 0xc2, 0x24, 0x28, 0x3b, 0xd8, 0xbb, 0xdf,
  0x10, 0x1a, 0xd2, 0xd7, 0xc3, 0x71, 0xe9, 0x9d, 0xb0, 0xf4, 0x23, 0x6d,
  0x1c, 0x01, 0x7f, 0xda, 0xc7, 0xff, 0x3d, 0x4f, 0xd0, 0x4e, 0x32, 0x1e,
  0xf1, 0xe2, 0xc0, 0x43, 0xf0, 0x21, 0xab, 0x2e, 0xb0, 0x49, 0xc2, 0x1d,
  0xd3, 0xe3, 0xfb, 0xf5, 0xeb, 0xc6, 0x5d, 0x18, 0x14, 0xa6, 0x2b, 0x23,
  0x0d, 0xba, 0xbb, 0x40, 0xf2, 0x16, 0x5d, 0x0a, 0xfd, 0x3f, 0xda, 0x5c,
  0x00, 0x31, 0x2d, 0x52, 0x12, 0x1c, 0xf0, 0x25, 0xfd, 0xd3, 0xd8, 0x6b,
  0x1e, 0xab, 0x3f, 0x13, 0x10, 0x03, 0xf9, 0x10, 0xa1, 0x01, 0x36, 0x26,
  0x2a, 0xc1, 0x10, 0xe4, 0xd3, 0x26, 0x7f, 0xe8, 0x4d, 0x63, 0x2c, 0x2d,
  0x37, 0x78, 0x9a, 0x0d, 0x7f, 0x93, 0x64, 0x16, 0x61, 0xcb, 0x0e, 0x17,
  0xce, 0xa7, 0xd6, 0x08, 0x96, 0x50, 0xb2, 0xf9, 0x29, 0x5f, 0xc3, 0xa6,
  0x60, 0x6e, 0x34, 0xad, 0xb0, 0x39, 0xa2, 0xf5, 0x3e, 0x53, 0x1d, 0x86,
  0x99, 0x5e, 0x60, 0xbb, 0xd6, 0xc8, 0xf8, 0xba, 0xb2, 0xb5, 0x46, 0x78,
  0x25, 0xa9, 0x0a, 0x23, 0xbc, 0xab, 0xdf, 0xa7, 0xe6, 0xc6, 0xc4, 0xd3,
  0x58, 0xcf, 0x55, 0x6c, 0xe0, 0xdd, 0xb3, 0x85, 0x9a, 0x48, 0xb5, 0x64,
  0x17, 0xeb, 0x58, 0xa5, 0x81, 0xfa, 0x1b, 0xe7, 0x75, 0xd0, 0xd4, 0x91,
  0xdf, 0xbd, 0x13, 0x02, 0x3f, 0x4f, 0x56, 0x4d, 0x47, 0x53, 0x2e, 0xe8,
  0x90, 0xa9, 0x42, 0x4f, 0x39, 0x76, 0x2f, 0x9d, 0xb1, 0xf9, 0xc1, 0x45,
  0xca, 0x62, 0x13, 0x89, 0xe3, 0xf0, 0xf3, 0x21, 0x0a, 0xf1, 0x5f, 0xd7,
  0x01, 0xbc, 0xfc, 0xc4, 0xe8, 0x27, 0x9c, 0x4e, 0x0b, 0xbb, 0xe3, 0x4b,
  0x17, 0x22, 0xf5, 0x3c, 0x3f, 0xea, 0x06, 0x3f, 0x05, 0x43, 0x28, 0xf3,
  0xdd, 0xda, 0xcc, 0xce, 0x36, 0x26, 0x56, 0x89, 0x32, 0x7f, 0xde, 0xa7,
  0x9b, 0x6e, 0xe0, 0x04, 0xc6, 0xe1, 0x11, 0xc3, 0xd8, 0xb3, 0xc3, 0x97,
  0xf4, 0xb4, 0xb2, 0xc5, 0x12, 0x43, 0xbe, 0x5e, 0xdd, 0xbf, 0xeb, 0xfd,
  0xd0, 0xe8, 0x25, 0xe8, 0xdf, 0xd0, 0x57, 0xcf, 0x1c, 0xf1, 0xb8, 0x08,
  0xc9, 0x51, 0x17, 0x0d, 0xf7, 0x49, 0x3a, 0xce, 0xd6, 0x1d, 0x03, 0xa5,
  0x29, 0x3a, 0x3f, 0xea, 0xba, 0x51, 0x2d, 0x72, 0x84, 0x25, 0xc9, 0x22,
  0xe5, 0x0b, 0xb9, 0xb5, 0x7f, 0x0e, 0xc9, 0x49, 0xa3, 0xb3, 0xf7, 0xc3,
  0x6f, 0xf8, 0x6e, 0x05, 0x85, 0xb9, 0x3c, 0x8e, 0x2e, 0x10, 0x07, 0xd6,
  0x32, 0x13, 0xee, 0xaa, 0x8e, 0xb9, 0xf1, 0x06, 0x5b, 0xef, 0x3b, 0xad,
  0xd7, 0xf8, 0xb2, 0x9c, 0xfb, 0x34, 0x4e, 0x0b, 0x98, 0x6e, 0x0b, 0xd8,
  0x3c, 0xec, 0xaa, 0xf0, 0xe9, 0xcc, 0xb7, 0x4d, 0x17, 0xf6, 0xdc, 0xe7,
  0x45, 0x5e, 0xbf, 0x6a, 0xd9, 0x1c, 0x39, 0x3f, 0x04, 0xfe, 0x7f, 0xb1,
  0xf3, 0xcc, 0xa5, 0xc3, 0xf1, 0x79, 0x37, 0x46, 0xaf, 0x9f, 0xc2, 0xaa,
  0xba, 0x60, 0xe5, 0xe7, 0xba, 0x99, 0x2d, 0x5f, 0xd8, 0xce, 0x30, 0xe8,
  0xd7, 0xfb, 0x10, 0xa6, 0x0b, 0xf3, 0x66, 0xb5, 0x37, 0x3a, 0x58, 0xa4,
  0xb7, 0x61, 0x2e, 0x4f, 0xb5, 0xd9, 0xb0, 0xb2, 0x11, 0x9a, 0x31, 0xb9,
  0x56, 0xaa, 0x06, 0xd3, 0x9f, 0x81, 0x39, 0x50, 0x3b, 0x4f, 0xfb, 0xcf,
  0x65, 0xe0, 0x2e, 0x60, 0x3d, 0x98, 0x15, 0x3d, 0xe2, 0xe5, 0x5a, 0x42,
  0xa7, 0x27, 0x61, 0x14, 0xcc, 0x22, 0x04, 0xb1, 0x0a, 0x55, 0x57, 0x0d,
  0xc4, 0x98, 0x9f, 0xfb, 0x90, 0x15, 0x3f, 0xa1, 0x26, 0xef, 0x10, 0xa5,
  0x90, 0x3c, 0x08, 0xa2, 0x21, 0xf0, 0x81, 0xf9, 0x10, 0xfa, 0x12, 0x0a,
  0x52, 0xb0, 0x19, 0xe2, 0x6b, 0x5f, 0x41, 0xd0, 0xdf, 0x6a, 0x01, 0x4a,
  0x2d, 0xcb, 0xd8, 0xef, 0x2d, 0x94, 0x71, 0xe8, 0x26, 0xba, 0xcb, 0x5a,
  0x12, 0xa8, 0xe3, 0xde, 0x40, 0x58, 0xdb, 0xd6, 0x05, 0x0f, 0x18, 0x04,
  0xd7, 0x17, 0xde, 0x06, 0x3d, 0xc6, 0xc6, 0xe2, 0x7c, 0x48, 0x0c, 0x5e,
  0x3c, 0xcc, 0x00, 0xab, 0xe1, 0x39, 0xc5, 0x51, 0x18, 0xeb, 0x0e, 0xca,
  0xe4, 0x03, 0xf2, 0xfe, 0xfc, 0x2a, 0xdd, 0x22, 0x3b, 0x5e, 0xc4, 0x5d,
  0xf6, 0xdb, 0xbe, 0xb0, 0x20, 0xa0, 0xa9, 0x01, 0x7f, 0x2a, 0x18, 0xbb,
  0xd4, 0x28, 0xe4, 0xc3, 0x12, 0x05, 0x74, 0xb1, 0x4b, 0xe0, 0xa8, 0x41,
  0xfa, 0x17, 0x34, 0xb2, 0xbb, 0xd1, 0x3c, 0x08, 0xde, 0xee, 0x3b, 0x56,
  0xe4, 0xc3, 0xf2, 0x0d, 0x41, 0x18, 0x98, 0x20, 0xaf, 0xd5, 0x2a, 0x1a,
  0xed, 0xda, 0xf2, 0xd9, 0xce, 0x55, 0xcb, 0x02, 0x81, 0xcb, 0x4f, 0x3a,
  0xd7, 0x8e, 0x3b, 0xe5, 0xfa, 0x4d, 0x20, 0x36, 0x28, 0xae, 0xd3, 0xfb,
  0x69, 0xc3, 0xd9, 0xe2, 0x46, 0xc8, 0xa2, 0xb2, 0xb3, 0x28, 0xd4, 0x66,
  0x44, 0xd1, 0x31, 0x3c, 0x40, 0x34, 0x34, 0x22, 0x48, 0xb1, 0x2c, 0xb9,
  0x63, 0x06, 0xd3, 0xff, 0xe9, 0x1a, 0x2d, 0xb1, 0xf5, 0xca, 0x6d, 0x49,
  0x96, 0xe5, 0x71, 0xee, 0xd2, 0x14, 0xf0, 0x40, 0x17, 0x2f, 0x72, 0x32,
  0xbc, 0x00, 0x06, 0xd6, 0xa6, 0x37, 0x20, 0xfc, 0x38, 0x09, 0xf2, 0x0d,
  0x37, 0xb9, 0x52, 0xbb, 0x76, 0xa3, 0x2f, 0xd5, 0x00, 0xf8, 0xd4, 0xa6,
  0x08, 0x50, 0xea, 0x46, 0x29, 0x01, 0x99, 0x0d, 0xe0, 0x3e, 0xf6, 0x7f,
  0x4e, 0xf1, 0xbc, 0x11, 0x99, 0x52, 0xd1, 0xd9, 0x71, 0xf9, 0x05, 0xe5,
  0x8f, 0x26, 0x6b, 0x03, 0x27, 0xe9, 0xc3, 0x56, 0x93, 0x56, 0x4f, 0x10,
  0x77, 0xe1, 0x81, 0x2f, 0xf1, 0x48, 0xdf, 0x16, 0xac, 0x86, 0xee, 0xb8,
  0x06, 0xbd, 0x1c, 0x49, 0x1f, 0xbf, 0xd1, 0x64, 0x2d, 0xc8, 0x24, 0xb9,
  0x58, 0x11, 0x81, 0x1f, 0xfd, 0x27, 0x77, 0x24, 0x49, 0x0a, 0xa9, 0x59,
  0x71, 0x5d, 0xb9, 0x96, 0xb3, 0x5e, 0x27, 0x23, 0x02, 0x96, 0x99, 0x4f,
  0x0c, 0xf5, 0xf8, 0xa2, 0xf6, 0x34, 0xa9, 0xb0, 0xe7, 0x01, 0xd8, 0x03,
  0x36, 0x45, 0xfb, 0x05, 0xed, 0x6d, 0xc4, 0xb4, 0x0e, 0x45, 0x22, 0xa8,
  0x3c, 0xf4, 0x1f, 0xd0, 0xaa, 0x6a, 0x0a, 0x4b, 0xdb, 0x7f, 0xfa, 0xd6,
  0xef, 0x28, 0x9d, 0x01, 0x7c, 0xb4, 0xbf, 0xd2, 0x0d, 0xa0, 0xdd, 0xd5,
  0xc3, 0x07, 0x4f, 0x5e, 0x35, 0x06, 0x03, 0x5f, 0x53, 0xab, 0x65, 0xff,
  0xcb, 0x29, 0xee, 0xdf, 0xa1, 0x00, 0x06, 0x51, 0x42, 0x28, 0xa5, 0xfe,
  0xcb, 0xd7, 0xc8, 0xcf, 0xa9, 0x47, 0x15, 0x10, 0xd6, 0x46, 0x3b, 0xb0,
  0xe5, 0xb9, 0xec, 0x02, 0xde, 0x66, 0x22, 0xd2, 0x81, 0x20, 0xdd, 0xfc,
  0x0f, 0x60, 0x5c, 0x2e, 0x78, 0x26, 0x5a, 0x47, 0xeb, 0xcc, 0x25, 0x60,
  0x42, 0xd5, 0x2d, 0xc9, 0xd9, 0x2a, 0xfb, 0xe9, 0x38, 0x38, 0x17, 0x37,
  0xa8, 0xa9, 0x31, 0xc3, 0xf6, 0xd2, 0x15, 0xd1, 0xbe, 0x16, 0xbf, 0xf5,
  0x28, 0x37, 0x30, 0x34, 0x45, 0x61, 0xdf, 0x3d, 0x6a, 0xcb, 0x69, 0x1b,
  0xfd, 0xad, 0xea, 0xf5, 0xef, 0xf1, 0x6c, 0x4f, 0x34, 0xd6, 0x98, 0xea,
  0xb7, 0xa4, 0x88, 0x2a, 0x4f, 0xa9, 0xb6, 0xa2, 0x7f, 0x61, 0x1c, 0x0b,
  0x63, 0xf7, 0xfc, 0xb9, 0xa7, 0xa4, 0xce, 0x40, 0xd5, 0x44, 0xb6, 0x50,
  0x5e, 0x40, 0xe9, 0x12, 0x2c, 0x20, 0xec, 0xd7, 0x84, 0xc1, 0x44, 0xb8,
  0x0a, 0xf4, 0x2e, 0xba, 0x02, 0x11, 0xc8, 0x7a, 0xbd, 0x4e, 0xfe, 0x92,
  0xd3, 0x68, 0x26, 0x01, 0x48, 0x81, 0x04, 0xf1, 0x91, 0xb4, 0x25, 0x24,
  0x40, 0x8d, 0x5a, 0x0c, 0x7d, 0xae, 0x52, 0x3d, 0x35, 0x7f, 0xdd, 0xdf,
  0xed, 0x38, 0x70, 0x9c, 0xab, 0x5e, 0xe8, 0x96, 0xbe, 0xd3, 0x40, 0xa9,
  0xb9, 0x44, 0xb4, 0xda, 0x17, 0xd6, 0x62, 0xd4, 0xee, 0xfd, 0xd7, 0xd7,
  0x6a, 0xb2, 0xb4, 0x58, 0x11, 0x2f, 0xea, 0xf8, 0xb3, 0x25, 0xe7, 0x50,
  0xac, 0x2c, 0x0f, 0xad, 0x29, 0x00, 0x2b, 0x7f, 0x55, 0x00, 0xfb, 0x32,
  0x25, 0xbf, 0x19, 0x45, 0x29, 0xd1, 0xae, 0xd9, 0xe8, 0x15, 0xf7, 0x89,
  0x60, 0x4f, 0x1d, 0xe7, 0xb6, 0x23, 0xc8, 0x53, 0xde, 0x6f, 0x0a, 0xb8,
  0xbe, 0x15, 0x50, 0xae, 0xb2, 0x15, 0xa4, 0xf9, 0x08, 0xa7, 0x0d, 0x1d,
  0x4a, 0xfd, 0x03, 0xb0, 0x19, 0xbb, 0x9a, 0x05, 0x41, 0xb0, 0x01, 0x37,
  0x42, 0xf2, 0x6c, 0x9d, 0xe2, 0x4e, 0x4a, 0x73, 0x00, 0x10, 0x07, 0xee,
  0xbe, 0x30, 0x01, 0xa3, 0xc0, 0x3d, 0xda, 0x78, 0x61, 0x66, 0x33, 0xc6,
  0xde, 0xd0, 0x3c, 0x93, 0x51, 0x4b, 0x08, 0xbc, 0x5c, 0xf9, 0x11, 0x88,
  0x66, 0xdf, 0x0a, 0xc1, 0x6b, 0x5e, 0xda, 0x4f, 0x9b, 0xfa, 0xe6, 0x56,
  0x90, 0x0f, 0x29, 0x7e, 0x26, 0xa1, 0xee, 0x56, 0x5c, 0xd4, 0xc8, 0x81,
  0xa6, 0x07, 0xee, 0x34, 0xd6, 0x5c, 0xfe, 0x7b, 0xcb, 0x2e, 0xb2, 0x06,
  0x2c, 0xd6, 0x45, 0xe0, 0x63, 0xaf, 0xbd, 0x81, 0x9a, 0xbc, 0xd5, 0x39,
  0xf6, 0xa4, 0x16, 0xd1, 0x30, 0x28, 0xc4, 0x9c, 0x63, 0x3a, 0xcf, 0xe8,
  0x3a, 0x03, 0xf2, 0x9d, 0x49, 0xc0, 0xe0, 0xfd, 0xe7, 0x45, 0x0f, 0xfc,
  0x69, 0x57, 0x3d, 0xbf, 0xd0, 0xee, 0x1b, 0xbd, 0x5d, 0xee, 0x30, 0xc8,
  0x87, 0x93, 0xbb, 0x35, 0x66, 0xc6, 0x2e, 0x63, 0x3c, 0x81, 0x33, 0x70,
  0x0c, 0xe6, 0xd6, 0x31, 0xe8, 0xc9, 0x16, 0x0d, 0x12, 0xe8, 0x30, 0x01,
  0x41, 0x09, 0x15, 0x0c, 0x45, 0xb7, 0x02, 0x20, 0x2c, 0xba, 0x2f, 0x0b,
  0xe9, 0x2e, 0xd5, 0x29, 0x76, 0x4e, 0x24, 0x10, 0x90, 0xcd, 0xea, 0xcb,
  0xa3, 0xe2, 0x5f, 0xf1, 0xd3, 0x40, 0x99, 0x07, 0xc1, 0xb6, 0xa2, 0x08,
  0x4b, 0xd9, 0x38, 0xd2, 0xc7, 0x31, 0xeb, 0x26, 0xe7, 0x21, 0xd3, 0x38,
  0x9c, 0xe3, 0x31, 0xcb, 0xe5, 0xd1, 0xc7, 0x1b, 0xb0, 0x06, 0xbb, 0xd4,
  0xf4, 0xeb, 0x3d, 0xba, 0x91, 0xe1, 0x13, 0x30, 0x11, 0x22, 0xe5, 0xc9,
  0x20, 0x0f, 0xa5, 0xc6, 0x50, 0x4f, 0xea, 0x19, 0x46, 0x30, 0xe2, 0xce,
  0x37, 0xfa, 0x3b, 0xea, 0xdf, 0x5a, 0x5f, 0xbc, 0x1e, 0xb5, 0x81, 0xa1,
  0x17, 0x88, 0xb3, 0xe4, 0x49, 0x28, 0x23, 0x43, 0xbe, 0x3e, 0xfe, 0xf7,
  0x4e, 0x0e, 0x03, 0xf5, 0x69, 0xd2, 0x50, 0x9f, 0xe4, 0x19, 0x94, 0xb1,
  0xc1, 0xce, 0x9d, 0xd2, 0x33, 0x1b, 0x13, 0xde, 0xcf, 0xd9, 0xce, 0x8e,
  0xa9, 0x23, 0xd8, 0xd5, 0x2d, 0x56, 0x0c, 0x74, 0x0d, 0x20, 0x64, 0x33,
  0xce, 0xc3, 0x1f, 0x7f, 0x47, 0x09, 0x31, 0xe0, 0x43, 0x4d, 0x21, 0x95,
  0xb0, 0x0d, 0x9e, 0xe7, 0x62, 0xb7, 0x23, 0xda, 0x7c, 0x9d, 0x04, 0xfa,
  0xc7, 0xa3, 0xd1, 0x5d, 0xc9, 0x41, 0xaa, 0xb5, 0x1a, 0xd3, 0xff, 0xff,
  0x04, 0x00, 0x00, 0x00, 0x00, 0x01, 0x00, 0x00, 0x38, 0x01, 0x00, 0x00,
  0xa7, 0x01, 0x00, 0x00, 0xff, 0x02, 0x00, 0x00, 0xb8, 0x01, 0x00, 0x00,
  0x4e, 0x01, 0x00, 0x00, 0x29, 0x02, 0x00, 0x00, 0xb0, 0x00, 0x00, 0x00,
  0x4e, 0x00, 0x00, 0x00, 0x01, 0x02, 0x00, 0x00, 0x08, 0x03, 0x00, 0x00,
  0xd8, 0xff, 0xff, 0xff, 0x74, 0xff, 0xff, 0xff, 0x51, 0x02, 0x00, 0x00,
  0x7b, 0xff, 0xff, 0xff, 0x4b, 0x02, 0x00, 0x00, 0xd0, 0x01, 0x00, 0x00,
  0xca, 0x01, 0x00, 0x00, 0x58, 0x01, 0x00, 0x00, 0xe5, 0x00, 0x00, 0x00,
  0x65, 0x01, 0x00, 0x00, 0x5c, 0x00, 0x00, 0x00, 0x91, 0x01, 0x00, 0x00,
  0x60, 0x00, 0x00, 0x00, 0x53, 0x00, 0x00, 0x00, 0x30, 0xfd, 0xff, 0xff,
  0x4c, 0xff, 0xff, 0xff, 0x01, 0x01, 0x00, 0x00, 0x35, 0xfe, 0xff, 0xff,
  0x73, 0x01, 0x00, 0x00, 0x10, 0xfc, 0xff, 0xff, 0x27, 0x02, 0x00, 0x00,
  0xa3, 0x01, 0x00, 0x00, 0xad, 0x01, 0x00, 0x00, 0xf0, 0x00, 0x00, 0x00,
  0x47, 0x02, 0x00, 0x00, 0xc8, 0x01, 0x00, 0x00, 0x3f, 0x01, 0x00, 0x00,
  0x28, 0x02, 0x00, 0x00, 0x6e, 0x02, 0x00, 0x00, 0x5d, 0x00, 0x00, 0x00,
  0x52, 0xfe, 0xff, 0xff, 0x46, 0x01, 0x00, 0x00, 0x9d, 0x00, 0x00, 0x00,
  0x8b, 0x02, 0x00, 0x00, 0x7a, 0x02, 0x00, 0x00, 0x57, 0x01, 0x00, 0x00,
  0x45, 0x02, 0x00, 0x00, 0xcc, 0x01, 0x00, 0x00, 0x4c, 0xfc, 0xff, 0xff,
  0x8f, 0x01, 0x00, 0x00, 0xf1, 0x01, 0x00, 0x00, 0xd4, 0xff, 0xff, 0xff,
  0xb8, 0x00, 0x00, 0x00, 0x23, 0xfd, 0xff, 0xff, 0x9b, 0x00, 0x00, 0x00,
  0xf8, 0x03, 0x00, 0x00, 0x15, 0xff, 0xff, 0xff, 0xb7, 0x02, 0x00, 0x00,
  0xd9, 0x02, 0x00, 0x00, 0xbd, 0x01, 0x00, 0x00, 0x2a, 0x02, 0x00, 0x00,
  0xd3, 0xff, 0xff, 0xff, 0x9d, 0x02, 0x00, 0x00, 0xdc, 0x01, 0x00, 0x00,
  0x26, 0xd4, 0xff, 0xff, 0x04, 0x00, 0x00, 0x00, 0xc0, 0x00, 0x00, 0x00,
  0x44, 0xf9, 0xe6, 0x79, 0xd2, 0xc0, 0x84, 0x98, 0x7f, 0xd1, 0x7f, 0x41,
  0x85, 0x6b, 0x81, 0x5e, 0x04, 0x6c, 0x7f, 0xe0, 0x7f, 0x7f, 0x7f, 0xa2,
  0xed, 0x64, 0x17, 0x7f, 0xb2, 0x11, 0x19, 0x7f, 0x31, 0xa5, 0xce, 0x7d,
  0xc0, 0x5d, 0x7f, 0x7f, 0x9c, 0x7f, 0x7f, 0xd7, 0x12, 0x63, 0x5d, 0xc6,
  0xf2, 0xcf, 0x34, 0xd0, 0x81, 0xcb, 0x81, 0x81, 0x63, 0x8b, 0x7f, 0x7f,
  0x3a, 0x31, 0x17, 0x25, 0xba, 0x8d, 0x7f, 0x70, 0x81, 0x81, 0x36, 0x81,
  0x71, 0x56, 0x2d, 0x81, 0xa4, 0x07, 0xb8, 0x33, 0x81, 0x47, 0xb2, 0x1a,
  0x24, 0xc6, 0x6f, 0x81, 0x7f, 0x81, 0x4c, 0xa5, 0x81, 0x7f, 0x45, 0x0d,
  0xd0, 0xdc, 0x81, 0x9c, 0x81, 0x7f, 0x3f, 0x1f, 0x7f, 0xc5, 0x3c, 0xd6,
  0x7f, 0x7f, 0x7f, 0x4a, 0x81, 0x81, 0x61, 0xa5, 0x12, 0xac, 0x09, 0xf0,
  0x33, 0x81, 0x13, 0xef, 0x0d, 0x4c, 0x7f, 0x81, 0x81, 0x81, 0x69, 0x7f,
  0xc5, 0x9f, 0x7f, 0xe0, 0xc8, 0x81, 0x46, 0x99, 0x81, 0x7f, 0x59, 0x81,
  0x8c, 0x7f, 0x6c, 0x81, 0x79, 0xe8, 0xc7, 0x2d, 0x02, 0x86, 0x81, 0x5c,
  0xc5, 0xd1, 0x7f, 0x68, 0x7f, 0x81, 0xc7, 0x7f, 0xa8, 0x7c, 0x1e, 0xdc,
  0xe8, 0x78, 0x66, 0x81, 0x6b, 0x2e, 0x7d, 0x7f, 0x45, 0x91, 0x7f, 0x81,
  0xcf, 0x7f, 0x8e, 0xf5, 0x7f, 0xe7, 0x31, 0x17, 0x7f, 0x7f, 0x4e, 0xe5,
  0xf2, 0xd4, 0xff, 0xff, 0x04, 0x00, 0x00, 0x00, 0x00, 0x20, 0x00, 0x00,
  0xe3, 0xec, 0x8f, 0xc4, 0x56, 0xf5, 0x07, 0xba, 0xbc, 0xc1, 0x81, 0xda,
  0xb9, 0x30, 0xd4, 0x22, 0xe8, 0x98, 0xa7, 0x0b, 0x38, 0x27, 0x5a, 0x19,
  0xec, 0xbc, 0x11, 0x3a, 0xfa, 0x8c, 0xcf, 0xe9, 0x4d, 0xba, 0xfd, 0x0c,
  0xa9, 0x1a, 0x00, 0xaf, 0x3e, 0xd5, 0xe5, 0x4e, 0x8d, 0x06, 0xc4, 0x04,
  0x77, 0xe0, 0xc0, 0xe2, 0x50, 0xca, 0x30, 0xe9, 0x1c, 0x2d, 0x89, 0x22,
  0x35, 0xe7, 0xed, 0x11, 0xbb, 0xe3, 0xfe, 0xb9, 0xf3, 0x05, 0x34, 0xe5,
  0xad, 0x02, 0x97, 0xad, 0x69, 0x12, 0x08, 0xf2, 0x18, 0x0f, 0xfc, 0xca,
  0x43, 0xe7, 0xc4, 0xed, 0x31, 0x12, 0x1b, 0x20, 0xcb, 0x34, 0xb9, 0x9e,
  0x00, 0xbb, 0xe6, 0x4c, 0x0b, 0x0e, 0xe2, 0x99, 0x0f, 0x10, 0xb7, 0x54,
  0xa7, 0xe4, 0x41, 0x2b, 0xea, 0xc8, 0x81, 0x68, 0xf3, 0x15, 0x43, 0xf8,
  0x3c, 0x2a, 0xa6, 0x0a, 0x05, 0x22, 0xc5, 0xe2, 0x0f, 0x7f, 0xdc, 0x22,
  0xe0, 0xbf, 0xd2, 0x35, 0x2c, 0xfb, 0xfa, 0x2c, 0x35, 0x21, 0xe0, 0x0d,
  0xf1, 0x39, 0x19, 0x0b, 0xfb, 0xe2, 0x32, 0xff, 0x3c, 0x09, 0x1f, 0xf4,
  0xd9, 0xcf, 0xf7, 0x0a, 0x10, 0x39, 0x32, 0xc6, 0x5d, 0x2a, 0xed, 0xf7,
  0x12, 0xc3, 0xad, 0x36, 0x06, 0xd6, 0x09, 0x00, 0x09, 0xfa, 0xea, 0xcc,
  0xfa, 0x09, 0x3a, 0x1b, 0xdf, 0x0d, 0x36, 0xd9, 0xfe, 0x1b, 0xf0, 0xba,
  0x22, 0xe4, 0xcd, 0xaf, 0x05, 0x84, 0xef, 0xd0, 0xad, 0x34, 0xcb, 0xd7,
  0x0e, 0x04, 0xdb, 0xd8, 0xab, 0xd8, 0xe2, 0x21, 0x0d, 0x2d, 0x20, 0xe1,
  0x01, 0xca, 0xf9, 0x21, 0x4a, 0xaa, 0xe7, 0x56, 0x29, 0x22, 0xe6, 0x04,
  0x1a, 0xed, 0x16, 0x21, 0x10, 0xcd, 0xfa, 0xcc, 0x7f, 0x48, 0xf0, 0xd0,
  0x52, 0xde, 0x52, 0x31, 0x50, 0xff, 0x64, 0xfb, 0xd8, 0xef, 0x3a, 0x26,
  0x47, 0x23, 0x1f, 0xd5, 0xf8, 0xc9, 0xb3, 0x05, 0x65, 0x1a, 0xdd, 0xa9,
  0x58, 0xf4, 0x96, 0xbc, 0x65, 0xf4, 0xa1, 0x07, 0xf0, 0xa9, 0x1b, 0xbe,
  0x33, 0x21, 0x01, 0xb1, 0xc6, 0xe1, 0x55, 0xf0, 0xe1, 0x09, 0xbc, 0xd3,
  0x32, 0x41, 0x38, 0x0c, 0x2d, 0x39, 0x61, 0xea, 0xd8, 0x2b, 0xf9, 0x3b,
  0x81, 0x10, 0x13, 0xa6, 0xf2, 0xec, 0xc6, 0x01, 0x15, 0x02, 0x1f, 0x2f,
  0x03, 0xd8, 0xf6, 0x27, 0x50, 0x02, 0xb3, 0x2f, 0xae, 0x22, 0x27, 0x08,
  0xe4, 0xe8, 0xb0, 0x5f, 0xc5, 0xb8, 0x5f, 0x11, 0xc3, 0x40, 0xbc, 0x22,
  0x99, 0x04, 0xbe, 0x0c, 0xb4, 0xf9, 0xd5, 0x44, 0x2a, 0xe9, 0xdb, 0x12,
  0xad, 0x2e, 0x18, 0x19, 0xdb, 0x31, 0xbb, 0xf6, 0x06, 0x68, 0x20, 0x53,
  0x37, 0xdc, 0x50, 0xaa, 0xd3, 0x7f, 0xb6, 0x5d, 0xd2, 0xc9, 0x27, 0xed,
  0x3e, 0xe1, 0x1d, 0x1a, 0x05, 0xea, 0x4c, 0xb0, 0xb3, 0xce, 0x05, 0x33,
  0xa8, 0x4f, 0x69, 0xf1, 0xab, 0xde, 0x09, 0xf4, 0xee, 0xac, 0xd2, 0x06,
  0x8c, 0xf7, 0x93, 0x11, 0xc4, 0x25, 0xee, 0xb8, 0xfa, 0xf5, 0x30, 0x73,
  0xd7, 0xf0, 0xe2, 0x6a, 0xf4, 0xdc, 0xe1, 0x02, 0xc7, 0xf9, 0xf8, 0x05,
  0x0e, 0x05, 0xd1, 0xc7, 0x28, 0x1a, 0xe7, 0x12, 0xb6, 0x43, 0xfc, 0x33,
  0x2a, 0x31, 0x0f, 0x81, 0xd4, 0xbb, 0x9b, 0xac, 0x02, 0x9f, 0xd5, 0x2c,
  0x30, 0x21, 0xe7, 0xdd, 0x01, 0x44, 0x56, 0x45, 0x2e, 0x27, 0xd6, 0xd7,
  0xe7, 0x18, 0xcd, 0x0f, 0xb9, 0xc9, 0x11, 0xd0, 0xdb, 0xe1, 0xd6, 0x40,
  0x05, 0x06, 0x24, 0x11, 0x33, 0x1d, 0x02, 0x39, 0xcf, 0xe8, 0xca, 0x28,
  0xe9, 0x30, 0x03, 0xda, 0x7f, 0x3f, 0xde, 0xdc, 0xf5, 0xa3, 0x06, 0xba,
  0x73, 0xe7, 0xc4, 0xfb, 0xfb, 0x22, 0xe5, 0xcb, 0x3c, 0x1e, 0xd2, 0x2b,
  0xbe, 0x3e, 0x17, 0xf9, 0x1c, 0xfc, 0x2a, 0xcd, 0x4c, 0x71, 0x4c, 0x10,
  0xd9, 0x00, 0xd0, 0x16, 0x40, 0x52, 0xea, 0x53, 0x3e, 0xf7, 0xfb, 0xd9,
  0x75, 0xb1, 0x5d, 0xb4, 0x29, 0x08, 0x28, 0xb1, 0xe1, 0xb8, 0xfb, 0x97,
  0xc5, 0xff, 0x23, 0x03, 0xb0, 0xee, 0x99, 0x9f, 0xf6, 0xe8, 0xa7, 0x1f,
  0x02, 0x93, 0x0f, 0xc8, 0x1a, 0x4b, 0x81, 0x95, 0x9c, 0xd1, 0xba, 0xd7,
  0xce, 0xbb, 0x08, 0xd0, 0xfe, 0xb0, 0x59, 0x00, 0xd0, 0x6d, 0x46, 0xb2,
  0x69, 0xfc, 0x43, 0x58, 0x01, 0x9a, 0x31, 0xf4, 0x15, 0xf0, 0xf4, 0x03,
  0x15, 0xe5, 0xc1, 0x23, 0xcb, 0x7e, 0xd9, 0xcd, 0xfc, 0xdb, 0xff, 0x07,
  0xce, 0x4e, 0x26, 0xe4, 0xde, 0xbc, 0x17, 0x23, 0xdf, 0x32, 0x81, 0x9f,
  0x2a, 0x4c, 0x0a, 0xa5, 0x18, 0xb8, 0xc4, 0x21, 0x3a, 0x1d, 0xc1, 0xa8,
  0xf7, 0xba, 0x4f, 0xf9, 0x14, 0x32, 0xcd, 0xe7, 0x5a, 0x2a, 0x5a, 0xdb,
  0x53, 0x03, 0xf8, 0x38, 0xf1, 0xa6, 0xb2, 0xbc, 0x1f, 0x62, 0x1c, 0xc6,
  0xd6, 0xa4, 0xad, 0x1d, 0xb0, 0xfa, 0xb3, 0xab, 0x19, 0x00, 0x99, 0x10,
  0x40, 0xdc, 0xe7, 0x8e, 0x2d, 0x97, 0x24, 0x2f, 0x0f, 0x23, 0xcc, 0x3e,
  0xf1, 0xbc, 0x03, 0x95, 0xe3, 0x84, 0x49, 0xe3, 0x12, 0x45, 0xe1, 0xf3,
  0xc9, 0xd7, 0x7f, 0x01, 0x6e, 0x90, 0xe1, 0x31, 0x08, 0xb0, 0x64, 0xaf,
  0xfd, 0x73, 0xec, 0x2e, 0x00, 0xdb, 0xa5, 0x40, 0x8d, 0x3b, 0x2f, 0x2e,
  0x3a, 0xd7, 0x87, 0x98, 0x53, 0x2b, 0xcf, 0x30, 0x7f, 0x62, 0x27, 0x01,
  0x59, 0x1a, 0x21, 0xcf, 0x45, 0xed, 0x64, 0xef, 0xdd, 0x1e, 0x51, 0xfe,
  0x3e, 0xaf, 0x89, 0xb1, 0xf7, 0x4c, 0x45, 0x34, 0xaf, 0x28, 0x34, 0x51,
  0xd2, 0xf8, 0xf9, 0x2b, 0x8d, 0xfe, 0x05, 0xca, 0x9e, 0x48, 0xc1, 0x66,
  0x66, 0xd8, 0x29, 0x3e, 0x82, 0xbe, 0x97, 0x03, 0x64, 0xf7, 0x9d, 0xa9,
  0xce, 0xe6, 0xc2, 0x52, 0x13, 0x33, 0x43, 0xf2, 0xcb, 0x0e, 0x81, 0xd2,
  0xf8, 0xe0, 0xda, 0x1d, 0xe4, 0xa5, 0xbc, 0xd3, 0x3f, 0x44, 0x45, 0xe0,
  0x16, 0xd4, 0x52, 0x9c, 0x42, 0x49, 0xc8, 0xbc, 0xaf, 0x2f, 0x9c, 0xd1,
  0xe5, 0xb4, 0x5c, 0xd3, 0xf6, 0x05, 0x5b, 0x3b, 0x9d, 0xf2, 0x2c, 0x10,
  0xe7, 0xe0, 0x52, 0x4b, 0x14, 0x11, 0xd2, 0xa3, 0x88, 0x16, 0xb1, 0x3c,
  0xfd, 0xa0, 0x0f, 0x35, 0xc5, 0x9a, 0xab, 0x95, 0x5c, 0xd0, 0x0a, 0x14,
  0x45, 0xf5, 0xe7, 0xb3, 0x14, 0x2d, 0x45, 0xca, 0x29, 0x17, 0x88, 0x7f,
  0xaf, 0xd4, 0x12, 0xed, 0x9d, 0x60, 0x1a, 0x1c, 0xb8, 0xd9, 0x3f, 0x8f,
  0x56, 0xbf, 0xed, 0x29, 0xae, 0x8e, 0x58, 0xb0, 0x2a, 0x05, 0x40, 0x3b,
  0x99, 0xa9, 0x39, 0xa3, 0xe3, 0x83, 0xef, 0xf7, 0x03, 0x41, 0x67, 0xc5,
  0x0f, 0x50, 0x28, 0x32, 0xf5, 0x2c, 0x01, 0x57, 0xc0, 0xd3, 0x49, 0x11,
  0xae, 0x33, 0x2c, 0xd7, 0x30, 0xef, 0x53, 0xd6, 0xfb, 0x7f, 0xe1, 0xe3,
  0xdf, 0x28, 0x0f, 0xc8, 0xc9, 0x08, 0xdb, 0x69, 0xe9, 0x08, 0xf7, 0x27,
  0xa8, 0x24, 0xf5, 0x4d, 0xfe, 0x37, 0x24, 0x1d, 0xde, 0xfd, 0x23, 0x14,
  0x1a, 0x08, 0x1a, 0xde, 0x06, 0x0c, 0x02, 0x31, 0x06, 0xda, 0xd1, 0xfd,
  0x2f, 0xde, 0x1f, 0xf9, 0xe5, 0xf2, 0x05, 0xf7, 0xfb, 0xf2, 0x1e, 0x20,
  0xbb, 0xdd, 0xf1, 0xea, 0xf8, 0x26, 0x38, 0xb4, 0x2d, 0xe9, 0x96, 0x34,
  0xfd, 0x0a, 0xd0, 0x03, 0xe6, 0xf9, 0xd1, 0x4b, 0x3a, 0xd8, 0x6a, 0xcb,
  0xd0, 0x5d, 0x44, 0x38, 0xf6, 0xa8, 0x3b, 0x02, 0x13, 0xd2, 0x2e, 0xd6,
  0x2c, 0x3f, 0x06, 0xc5, 0xfd, 0x48, 0xec, 0x14, 0xb5, 0xed, 0x4d, 0xbd,
  0xe9, 0x45, 0xb8, 0xd4, 0xd7, 0x3b, 0x5b, 0xac, 0xff, 0xe9, 0x81, 0x28,
  0x0f, 0xc6, 0xb7, 0x36, 0x81, 0x27, 0xb8, 0x29, 0x13, 0x65, 0x21, 0xc6,
  0x03, 0x0f, 0xe2, 0x05, 0x0d, 0x03, 0xbe, 0x25, 0xeb, 0xf5, 0x43, 0xcb,
  0x23, 0x22, 0x41, 0xcf, 0xa6, 0xed, 0x33, 0xc1, 0x3d, 0x2c, 0x0d, 0x09,
  0x41, 0x38, 0x66, 0x4b, 0xcf, 0xc2, 0xd2, 0x0e, 0xf6, 0x30, 0x4f, 0xc4,
  0x30, 0xe8, 0xf0, 0xdd, 0x22, 0x1b, 0xb1, 0x03, 0x63, 0x04, 0xc4, 0xc0,
  0xa7, 0x29, 0x1e, 0xc5, 0x9d, 0xf8, 0xc3, 0xf6, 0x27, 0x44, 0x16, 0x52,
  0xff, 0xdd, 0xc4, 0x34, 0xf8, 0xc5, 0x15, 0x35, 0xd8, 0xb8, 0x30, 0x34,
  0x08, 0x41, 0x13, 0x2f, 0xd8, 0x02, 0x3c, 0xc7, 0x20, 0xc3, 0xea, 0x2f,
  0xc8, 0x17, 0x52, 0x0e, 0x37, 0x04, 0x0b, 0xc2, 0x7f, 0x6c, 0x02, 0xd5,
  0x26, 0xdc, 0xec, 0x49, 0x3e, 0x42, 0xe0, 0xcb, 0xbe, 0xf0, 0xc5, 0x4d,
  0xd9, 0x15, 0x2f, 0xdf, 0x00, 0xe8, 0x78, 0x06, 0x55, 0x35, 0xd9, 0xf0,
  0x2f, 0x1b, 0x3e, 0x75, 0xc7, 0x92, 0x16, 0x2b, 0x05, 0xd2, 0x25, 0xe9,
  0x1e, 0xe8, 0xdd, 0x0f, 0x9c, 0x52, 0xd0, 0xec, 0x0f, 0x2d, 0x2a, 0x39,
  0x54, 0x05, 0x20, 0xfb, 0x02, 0xc3, 0x69, 0x7f, 0xd2, 0x06, 0x1e, 0xb8,
  0x36, 0xdb, 0x28, 0xcc, 0x1e, 0x10, 0x37, 0x35, 0xef, 0x00, 0x9c, 0xee,
  0xa0, 0x08, 0x10, 0x23, 0x03, 0xd9, 0x25, 0x1d, 0x15, 0xd1, 0xe5, 0x02,
  0x02, 0x44, 0x34, 0xe0, 0x6a, 0x9f, 0xb1, 0x9f, 0x31, 0xab, 0xc8, 0x5d,
  0xd9, 0x41, 0xb7, 0x3c, 0xe7, 0x13, 0x58, 0x4a, 0x01, 0xb0, 0x65, 0x55,
  0xbb, 0x20, 0xe1, 0x39, 0xa1, 0x38, 0x13, 0xf3, 0x77, 0xd9, 0x34, 0x62,
  0x1b, 0x36, 0x72, 0xb6, 0x10, 0x41, 0xa7, 0x91, 0xed, 0x09, 0xfd, 0x21,
  0x5c, 0xc1, 0x97, 0xd9, 0xcd, 0xc9, 0x87, 0x22, 0xf3, 0xf6, 0xa0, 0x47,
  0xf4, 0x7f, 0xae, 0xe6, 0x91, 0xcc, 0xc9, 0x10, 0xe7, 0x56, 0xde, 0x2a,
  0xae, 0x44, 0xde, 0x3c, 0xb8, 0x1a, 0x5d, 0x60, 0xc4, 0xde, 0x06, 0x04,
  0xfd, 0x08, 0x39, 0xf0, 0x22, 0xd2, 0xf3, 0x2e, 0x25, 0xff, 0x19, 0x1b,
  0x8e, 0x21, 0x16, 0x7c, 0xad, 0x1b, 0x1b, 0xd4, 0x3d, 0x15, 0x33, 0xcb,
  0xfc, 0xba, 0x7f, 0xe0, 0x03, 0xf9, 0xd4, 0xeb, 0x27, 0x7f, 0x2c, 0xb0,
  0xef, 0x35, 0xa5, 0xed, 0x32, 0x30, 0xc6, 0x15, 0x0e, 0x25, 0x27, 0x5c,
  0xd8, 0xff, 0x46, 0x13, 0x5c, 0x4c, 0x7c, 0x42, 0x21, 0x31, 0x85, 0xf4,
  0xb7, 0x19, 0x71, 0xf6, 0x09, 0xcf, 0xc1, 0xe0, 0x31, 0x07, 0x03, 0xd5,
  0x27, 0x9f, 0x30, 0xcf, 0xce, 0x81, 0x16, 0xb6, 0x22, 0x33, 0x2f, 0xa0,
  0x52, 0xc4, 0x01, 0x56, 0xcb, 0xb6, 0xe0, 0x72, 0x24, 0xbc, 0x93, 0x9f,
  0x54, 0xc1, 0xd9, 0xdc, 0x1b, 0x24, 0xcf, 0x41, 0xde, 0x65, 0x9c, 0xbc,
  0xac, 0xca, 0xf8, 0xbd, 0x20, 0x09, 0xd6, 0x37, 0xa8, 0xb4, 0xe9, 0x50,
  0xf7, 0x04, 0xfb, 0x0d, 0xbd, 0xf8, 0x1f, 0xf6, 0xf8, 0x1a, 0x01, 0x3c,
  0x58, 0xeb, 0xc4, 0xff, 0x04, 0x56, 0x16, 0x03, 0xd2, 0xd3, 0x29, 0x7f,
  0x20, 0x06, 0xf9, 0x97, 0x41, 0x72, 0x21, 0xb3, 0xbf, 0xf8, 0xcc, 0x99,
  0x54, 0x5b, 0x2d, 0xd3, 0x39, 0xda, 0x3b, 0x1c, 0x1d, 0xfc, 0x07, 0xba,
  0x5c, 0xb3, 0xd4, 0xb8, 0xed, 0xc5, 0x67, 0xf7, 0x62, 0x83, 0x19, 0x0c,
  0x1d, 0x05, 0x5e, 0x97, 0xa9, 0xe7, 0x00, 0xf1, 0xd4, 0xc2, 0xf3, 0x14,
  0x6f, 0xc5, 0xe4, 0x15, 0xb4, 0x37, 0x66, 0xba, 0x27, 0x13, 0xe3, 0xa0,
  0x25, 0xfa, 0x1c, 0x8e, 0x78, 0xf4, 0xbe, 0x1d, 0x1e, 0xb4, 0x21, 0xfe,
  0xf0, 0x5a, 0x22, 0x2e, 0xc2, 0xb7, 0x9b, 0x81, 0xc0, 0x85, 0x00, 0x1e,
  0x9d, 0x1b, 0xb1, 0x0c, 0xdc, 0x52, 0x13, 0xe7, 0x43, 0x23, 0x05, 0x11,
  0xc1, 0x46, 0x31, 0x13, 0x47, 0xca, 0xd6, 0x09, 0xdf, 0xfb, 0x37, 0x63,
  0x46, 0x36, 0xe1, 0xcc, 0x81, 0x6c, 0x15, 0xc5, 0xae, 0x0b, 0xa8, 0x6d,
  0xdd, 0xdc, 0xf2, 0x17, 0xdd, 0x0e, 0x4f, 0xec, 0x95, 0x17, 0xac, 0xc3,
  0xc0, 0xc4, 0xc5, 0x06, 0xeb, 0x3b, 0x2b, 0xfd, 0x57, 0x40, 0xbc, 0x51,
  0x19, 0xda, 0xb9, 0x93, 0xf3, 0xe1, 0x04, 0x3d, 0x5b, 0x38, 0xc4, 0x4a,
  0xbe, 0xb7, 0xb5, 0x10, 0x0c, 0xf9, 0x31, 0xaf, 0x1d, 0xaf, 0x06, 0xc3,
  0xe6, 0x10, 0xe0, 0x3d, 0x8b, 0xc9, 0x33, 0xb8, 0x81, 0xdf, 0xe4, 0x14,
  0xe0, 0x11, 0x2a, 0x45, 0xd7, 0xa7, 0xf1, 0x17, 0x02, 0x0f, 0x63, 0x00,
  0x0c, 0x3b, 0x22, 0x4e, 0x96, 0xf1, 0x19, 0x35, 0x05, 0xd9, 0x0a, 0xbc,
  0x16, 0xd2, 0xd3, 0x27, 0xea, 0x55, 0x40, 0x84, 0x72, 0xfa, 0xf7, 0x08,
  0x57, 0xce, 0xde, 0x19, 0x47, 0xdf, 0xc1, 0x0a, 0xc8, 0xbf, 0xfb, 0xf9,
  0x7f, 0x4f, 0xf8, 0xe1, 0x56, 0xfe, 0xb7, 0x19, 0xfc, 0x1e, 0xb1, 0xd7,
  0xfb, 0xf1, 0xba, 0x0e, 0xe6, 0xfd, 0x37, 0x2e, 0x0d, 0xad, 0x30, 0xc3,
  0x4f, 0x3d, 0xab, 0xce, 0xeb, 0xdf, 0x47, 0xe9, 0xe0, 0xa8, 0x1a, 0x2c,
  0xd5, 0x30, 0x0f, 0xd1, 0x03, 0xf2, 0x0a, 0x35, 0x14, 0xff, 0x23, 0x13,
  0xe5, 0x12, 0xd2, 0xc9, 0xbe, 0x5c, 0x17, 0x27, 0xe3, 0xd3, 0xdc, 0x26,
  0xdb, 0xec, 0x90, 0xb6, 0xf2, 0x0b, 0x3c, 0xac, 0xea, 0xee, 0xcd, 0xee,
  0xbb, 0x16, 0xfd, 0x1a, 0x16, 0x2e, 0xba, 0x1e, 0x0b, 0x0d, 0x17, 0xd9,
  0x16, 0xcc, 0x2f, 0xe6, 0xf2, 0x52, 0x1c, 0x1d, 0x29, 0x58, 0xce, 0x0c,
  0xa7, 0x29, 0xce, 0x00, 0x19, 0xb5, 0x3e, 0x4e, 0xbf, 0x81, 0xac, 0x31,
  0x62, 0x91, 0xc2, 0x5d, 0xc5, 0x08, 0x19, 0x02, 0x32, 0x2c, 0x04, 0xe4,
  0x16, 0xec, 0xed, 0x0e, 0xeb, 0xe5, 0x04, 0x11, 0x03, 0x18, 0xb7, 0x2f,
  0xde, 0xbc, 0x6c, 0x34, 0x07, 0x46, 0x04, 0xbc, 0xaa, 0x08, 0xc6, 0x4e,
  0xc1, 0x0f, 0x3b, 0x57, 0x1b, 0x45, 0xb0, 0xee, 0xf5, 0x1b, 0x72, 0x30,
  0xf4, 0x47, 0x14, 0x52, 0x15, 0xef, 0xd4, 0x3b, 0xf5, 0xae, 0x43, 0xa4,
  0xbf, 0x07, 0x9e, 0xe8, 0x4a, 0xe1, 0x04, 0xe5, 0x3b, 0x23, 0xd0, 0xad,
  0x4d, 0x81, 0x5f, 0xf7, 0xcf, 0x47, 0xdc, 0x3c, 0x26, 0x21, 0x13, 0x44,
  0x1b, 0xd6, 0x31, 0xd4, 0xb0, 0x97, 0x32, 0x5f, 0x81, 0xc7, 0xeb, 0xbe,
  0x51, 0xd4, 0x37, 0xbd, 0x4b, 0x15, 0x0f, 0x42, 0x86, 0xc1, 0x08, 0x85,
  0xd5, 0x1e, 0x30, 0x3c, 0xa7, 0xe6, 0x29, 0xaf, 0x05, 0xd6, 0x23, 0x8d,
  0xf2, 0xba, 0x0a, 0x82, 0xde, 0x6c, 0xff, 0xae, 0x79, 0xce, 0x5c, 0xc9,
  0x1c, 0x4c, 0xdc, 0xea, 0xa0, 0xc9, 0x20, 0x2b, 0xc5, 0x42, 0x4e, 0x26,
  0xed, 0x13, 0x4c, 0x22, 0x0e, 0x3d, 0xe4, 0xc6, 0x5e, 0xf7, 0x52, 0x2d,
  0x6d, 0x28, 0x4e, 0x03, 0xfb, 0x0e, 0xb8, 0xec, 0xfa, 0x15, 0x50, 0x81,
  0x27, 0x3e, 0x0f, 0x26, 0x2c, 0x4e, 0xd6, 0xc7, 0xb4, 0xb4, 0x30, 0x3f,
  0x39, 0x01, 0x26, 0x4d, 0x0b, 0x00, 0xef, 0x21, 0xc7, 0xc4, 0x67, 0x1b,
  0x90, 0xc0, 0xe7, 0xd7, 0x9c, 0xd7, 0xa7, 0x1d, 0xf5, 0x40, 0xb9, 0xe3,
  0x30, 0x3b, 0xb9, 0xfb, 0xb5, 0xf5, 0xa3, 0xb6, 0x67, 0x0d, 0x19, 0x0d,
  0x0c, 0xb4, 0x9b, 0x8d, 0xc1, 0xd4, 0xbc, 0xbf, 0xab, 0xb4, 0x2e, 0x4d,
  0x25, 0x2b, 0xac, 0xed, 0x56, 0x2b, 0x56, 0xb1, 0x0c, 0xfe, 0xc4, 0x86,
  0x7f, 0x52, 0xff, 0xdd, 0x2e, 0x29, 0xec, 0xf0, 0xc3, 0x45, 0xdf, 0xb8,
  0x94, 0xb5, 0x6b, 0x2a, 0xdd, 0xf3, 0xcc, 0x50, 0x00, 0x38, 0x3b, 0x16,
  0x69, 0xd3, 0x9a, 0xbc, 0x19, 0x22, 0xdc, 0x11, 0x31, 0x20, 0xda, 0x0c,
  0x30, 0x5d, 0xeb, 0xd4, 0xa6, 0x44, 0x81, 0xaf, 0x28, 0x32, 0xe8, 0xd2,
  0xd1, 0x2b, 0xb4, 0xd3, 0x9f, 0x13, 0x6e, 0x0e, 0x15, 0xe9, 0x29, 0x1c,
  0xdd, 0x0c, 0x94, 0x8b, 0x53, 0x21, 0x2d, 0xb9, 0x83, 0x19, 0x08, 0x20,
  0x0b, 0x28, 0x07, 0x39, 0x1e, 0x96, 0xbf, 0x1e, 0xb7, 0x8f, 0xbe, 0xd2,
  0x25, 0x4b, 0xf0, 0x07, 0x99, 0xf6, 0xf1, 0x0b, 0xdf, 0xde, 0x13, 0x03,
  0xae, 0x01, 0xc0, 0x9c, 0x38, 0xdb, 0xb0, 0x3b, 0xfe, 0x1a, 0xd9, 0xa1,
  0x6b, 0x81, 0x22, 0xd6, 0x4b, 0xf1, 0xd7, 0xc7, 0x30, 0xfd, 0x03, 0x25,
  0xf9, 0xbc, 0xce, 0x2c, 0x41, 0x36, 0x16, 0xbd, 0x5f, 0x5e, 0xe6, 0x11,
  0xba, 0xcd, 0x3a, 0xfa, 0xf8, 0xff, 0xc7, 0xeb, 0xf7, 0x12, 0xee, 0xff,
  0xd1, 0xbb, 0x94, 0xe9, 0xd1, 0xde, 0x30, 0xc3, 0xec, 0x61, 0xd8, 0x1a,
  0xea, 0xfe, 0x0b, 0x0f, 0x9d, 0xd0, 0xcb, 0x24, 0x09, 0xfc, 0x15, 0x39,
  0x13, 0x3a, 0x07, 0xf2, 0xfe, 0xde, 0xe5, 0xea, 0xef, 0xce, 0xcb, 0xea,
  0x4b, 0x20, 0xfe, 0xd5, 0x13, 0xd8, 0xe8, 0x00, 0x63, 0x0b, 0x00, 0xdc,
  0x2d, 0x6e, 0x3e, 0x26, 0x0c, 0x0c, 0x1b, 0x0c, 0xcc, 0x48, 0x21, 0xf3,
  0x0c, 0x8b, 0xc0, 0xd7, 0x35, 0x9f, 0x81, 0x20, 0x00, 0xe3, 0x14, 0xeb,
  0xd3, 0xd9, 0xfc, 0x08, 0xbf, 0x42, 0xc3, 0xf6, 0x31, 0x45, 0x45, 0x48,
  0xef, 0x40, 0x2e, 0x20, 0xf6, 0xec, 0x3a, 0xec, 0xcc, 0x0b, 0xbc, 0x34,
  0x10, 0x54, 0xf6, 0xe3, 0xd2, 0x3e, 0xcd, 0x1a, 0x36, 0x48, 0x32, 0x53,
  0x07, 0xf2, 0xef, 0x3a, 0xd3, 0x47, 0xdd, 0xa3, 0x45, 0xc3, 0x81, 0x2f,
  0x48, 0xc8, 0x20, 0xf2, 0xfb, 0x00, 0x8a, 0xe8, 0xb3, 0x72, 0x5b, 0xfd,
  0x0f, 0x53, 0xa7, 0x4e, 0xf5, 0x11, 0x31, 0x41, 0xf5, 0xdd, 0x55, 0x32,
  0x02, 0x9e, 0x2a, 0xdd, 0x75, 0x40, 0x2d, 0x25, 0x3b, 0x11, 0xbf, 0x13,
  0x08, 0xe9, 0x72, 0xa3, 0x53, 0x43, 0x41, 0xfa, 0x0c, 0xb4, 0x1e, 0xcf,
  0xbb, 0xf9, 0x49, 0xe4, 0xec, 0xf8, 0xcd, 0x24, 0xe4, 0xb6, 0x4a, 0xd2,
  0x08, 0x81, 0xd7, 0x3b, 0x1a, 0xbe, 0x30, 0x75, 0x1d, 0x34, 0x4b, 0x28,
  0xcc, 0xf4, 0xb2, 0x27, 0x1d, 0x0a, 0xcf, 0x6a, 0xcb, 0x47, 0xf4, 0xef,
  0x43, 0xca, 0x09, 0xb9, 0x19, 0xe7, 0x18, 0xd0, 0xa6, 0xe3, 0x32, 0xe0,
  0x14, 0x1c, 0xfd, 0x33, 0xcd, 0x6e, 0xfb, 0xf7, 0xbe, 0x1b, 0x0d, 0xee,
  0x9f, 0x14, 0x09, 0x7c, 0x25, 0xc7, 0x00, 0xf4, 0x15, 0x31, 0xfa, 0x59,
  0xe6, 0x01, 0x01, 0x0d, 0x06, 0xea, 0xe3, 0x3f, 0xf8, 0x16, 0x63, 0xfe,
  0x1f, 0xc9, 0x30, 0x06, 0xeb, 0x68, 0xdf, 0x81, 0x43, 0xea, 0xb5, 0x0b,
  0x50, 0xde, 0xf7, 0x09, 0xc4, 0xe3, 0x13, 0x01, 0x11, 0xa8, 0x24, 0xc8,
  0x76, 0x00, 0x21, 0x19, 0x3b, 0xcb, 0xd4, 0x04, 0x34, 0x39, 0xfd, 0xf9,
  0x23, 0xc1, 0x2e, 0x45, 0xf6, 0xe6, 0x56, 0xd3, 0xf4, 0x08, 0x4a, 0xfd,
  0xf4, 0x06, 0xb4, 0xba, 0x38, 0x35, 0xfe, 0x4c, 0xa4, 0x2d, 0xf8, 0xf7,
  0x2e, 0xfe, 0xd0, 0xde, 0x9e, 0x1a, 0x55, 0xeb, 0x4c, 0x81, 0x04, 0xe3,
  0x51, 0xfc, 0xc6, 0xfe, 0xaa, 0x0c, 0xb9, 0xd5, 0x4c, 0xf6, 0xc3, 0x14,
  0x19, 0xf9, 0x3e, 0x5a, 0xc1, 0xa8, 0xee, 0x12, 0xeb, 0x14, 0x27, 0xe0,
  0x3d, 0xfb, 0xc4, 0xe4, 0x47, 0x07, 0x02, 0xe0, 0x06, 0x07, 0x07, 0xb7,
  0xed, 0x16, 0xea, 0xf8, 0x06, 0xca, 0xc8, 0x61, 0x16, 0x28, 0xad, 0x06,
  0x7f, 0x06, 0xdb, 0xf3, 0xe9, 0xff, 0x99, 0xdb, 0x69, 0x0e, 0xbe, 0xed,
  0xdf, 0xd0, 0x2b, 0x19, 0x1c, 0x08, 0x51, 0x18, 0xd1, 0xae, 0x20, 0xfa,
  0xf5, 0x0d, 0x03, 0xf6, 0xbb, 0x06, 0xef, 0xcf, 0x77, 0x08, 0xe5, 0xaa,
  0x41, 0xc5, 0xff, 0xf8, 0x59, 0xdf, 0x23, 0xb8, 0x3d, 0x42, 0xee, 0x19,
  0xc7, 0xcd, 0x35, 0x02, 0x11, 0xcf, 0x47, 0xd6, 0x5b, 0xab, 0x07, 0xbb,
  0x03, 0xfe, 0x4b, 0x34, 0xc0, 0xeb, 0x23, 0xa5, 0xb9, 0xe4, 0x06, 0x43,
  0xf8, 0xe9, 0x59, 0xcd, 0xe0, 0xbe, 0x81, 0x12, 0xe7, 0x30, 0xf9, 0xaf,
  0xd7, 0x0e, 0xac, 0xc0, 0xb7, 0x20, 0xea, 0xb4, 0xa4, 0x8d, 0x40, 0xff,
  0x7f, 0x43, 0xe3, 0xa3, 0x70, 0x0e, 0x21, 0x1e, 0x69, 0xbd, 0x96, 0xec,
  0x61, 0xc8, 0x0c, 0x35, 0x05, 0x24, 0x03, 0xe5, 0x1c, 0xfe, 0x29, 0x1b,
  0x7e, 0xc9, 0x1f, 0xee, 0xfa, 0xee, 0x63, 0x41, 0x35, 0xd8, 0x35, 0xad,
  0xef, 0x01, 0x24, 0xcb, 0x18, 0x34, 0x3a, 0x11, 0x9f, 0x92, 0x08, 0x54,
  0xfc, 0xc0, 0xee, 0x08, 0xc6, 0x29, 0xcf, 0xeb, 0xd3, 0x39, 0x25, 0x17,
  0xe7, 0xfb, 0x2a, 0xd8, 0x5a, 0xca, 0x1f, 0xe4, 0xc2, 0xbf, 0xf1, 0x46,
  0xe5, 0x16, 0xd2, 0xdd, 0xea, 0x24, 0x61, 0xe6, 0x2c, 0xe9, 0x42, 0xf0,
  0x4c, 0xf8, 0xee, 0x96, 0x35, 0xa0, 0xb8, 0x57, 0xe3, 0xd7, 0x11, 0x08,
  0x2c, 0x0b, 0xeb, 0x20, 0x24, 0x91, 0xb7, 0x1d, 0x3d, 0xb7, 0x37, 0xea,
  0x47, 0x88, 0x0b, 0x2d, 0x0f, 0x0e, 0x39, 0xe4, 0x81, 0xa5, 0xe6, 0x2a,
  0x27, 0x0b, 0x42, 0x13, 0x69, 0x56, 0x21, 0x59, 0xef, 0xcb, 0x36, 0xb9,
  0xd6, 0x1b, 0x32, 0x01, 0x60, 0x1a, 0x5c, 0xe8, 0x14, 0x7f, 0xf3, 0xc4,
  0x45, 0x2a, 0xb8, 0xc6, 0xd0, 0x3d, 0xfb, 0xe2, 0x57, 0xe3, 0x05, 0x01,
  0x02, 0xde, 0x4d, 0x2e, 0xde, 0xe6, 0xbb, 0xd5, 0xfa, 0xab, 0x11, 0xbc,
  0xc9, 0xfb, 0xa9, 0xed, 0x07, 0xc5, 0xb7, 0x5d, 0xc8, 0xbe, 0x67, 0x32,
  0x23, 0xb6, 0x6d, 0x23, 0xc0, 0x47, 0x1b, 0xbb, 0xbe, 0x92, 0xa8, 0xd8,
  0x3a, 0x78, 0x44, 0x29, 0x0e, 0x17, 0xca, 0x97, 0x55, 0xe2, 0xdb, 0x19,
  0x18, 0xc1, 0xb9, 0x94, 0x10, 0x49, 0xd9, 0xba, 0xf3, 0x21, 0x29, 0x4f,
  0xbd, 0xf7, 0x26, 0xe6, 0x5e, 0x55, 0xf4, 0x46, 0x07, 0xe8, 0x35, 0x8e,
  0x06, 0xf1, 0x15, 0x99, 0xb1, 0xe6, 0xd6, 0xfc, 0xba, 0x21, 0x1f, 0x1e,
  0x6b, 0xfc, 0x2c, 0x81, 0xc8, 0x28, 0xbb, 0x09, 0xed, 0xeb, 0xde, 0x4b,
  0x09, 0xdd, 0x6d, 0x16, 0xc1, 0xfb, 0x0e, 0xf6, 0x1f, 0x1a, 0x1b, 0xe8,
  0xda, 0x2f, 0xc8, 0x16, 0xbc, 0x0c, 0xcf, 0xf9, 0x46, 0x1b, 0xad, 0xe8,
  0x38, 0x0a, 0x1e, 0x11, 0xae, 0xbb, 0x16, 0xef, 0x11, 0xf1, 0xbd, 0xdd,
  0xd7, 0xd2, 0xb1, 0x27, 0xfd, 0x32, 0xee, 0xf2, 0xe3, 0xfa, 0x29, 0x47,
  0xcf, 0x37, 0xd0, 0x81, 0x45, 0x0c, 0xf1, 0xee, 0x09, 0xb8, 0xce, 0xfb,
  0xe0, 0xa6, 0x08, 0x29, 0x11, 0x2f, 0x87, 0x8e, 0x00, 0x56, 0x45, 0xe7,
  0x23, 0x3e, 0x81, 0x90, 0x48, 0x06, 0xc7, 0xbc, 0x2f, 0x31, 0xd2, 0xcc,
  0x3a, 0x00, 0x42, 0x37, 0xfd, 0x93, 0x50, 0x98, 0xe1, 0xf5, 0xa9, 0xad,
  0x2b, 0xc3, 0x55, 0x52, 0x3d, 0x0d, 0xeb, 0x26, 0xd4, 0x28, 0x0d, 0x51,
  0x40, 0x99, 0x68, 0x31, 0x1f, 0xf7, 0xd9, 0xb3, 0x63, 0xfb, 0x47, 0xd1,
  0xba, 0x2f, 0x09, 0xf2, 0x43, 0xfd, 0xa6, 0xcf, 0x9f, 0x38, 0xe5, 0xe1,
  0x16, 0xbf, 0x56, 0x57, 0xed, 0x52, 0xa7, 0x50, 0x54, 0xaf, 0x26, 0xdb,
  0x81, 0x38, 0x45, 0x05, 0xd7, 0xff, 0x0a, 0xc2, 0x29, 0xe0, 0x02, 0x33,
  0x17, 0xcf, 0x26, 0xce, 0xf7, 0x15, 0xeb, 0x1d, 0xcd, 0x4a, 0x47, 0xd1,
  0xec, 0xd7, 0x20, 0xe2, 0xd1, 0xba, 0x5c, 0xc1, 0xc3, 0xfa, 0x01, 0x2e,
  0xd0, 0x08, 0xe1, 0x24, 0x48, 0xc7, 0x4a, 0x36, 0x0a, 0x23, 0xe6, 0x2f,
  0xc2, 0x8d, 0x49, 0xd9, 0x7f, 0x46, 0x26, 0xe9, 0xfd, 0xea, 0x99, 0x37,
  0xcd, 0x90, 0xb1, 0xcb, 0x3a, 0x31, 0x2b, 0x1c, 0x45, 0x09, 0x25, 0xb9,
  0x23, 0x3a, 0xe1, 0x31, 0xff, 0x10, 0xab, 0xdc, 0x20, 0xfa, 0x27, 0x22,
  0x0f, 0x97, 0x30, 0x1f, 0x09, 0xd9, 0x11, 0x5b, 0xdb, 0xd6, 0x54, 0xf4,
  0xca, 0xe7, 0xbf, 0x14, 0xd1, 0xe5, 0xec, 0xdd, 0x9f, 0x5f, 0xfd, 0x24,
  0x22, 0x1b, 0xe0, 0x00, 0x08, 0x1a, 0x0a, 0xd4, 0x25, 0x53, 0xff, 0xa8,
  0xa6, 0x05, 0xb1, 0x09, 0x1b, 0xb6, 0x17, 0xb5, 0x32, 0xaa, 0xac, 0x15,
  0x5e, 0x38, 0xc6, 0xed, 0xdb, 0x0c, 0x45, 0x39, 0xe0, 0x31, 0xce, 0xbc,
  0x37, 0x2f, 0x77, 0xef, 0xca, 0xb5, 0x0b, 0xc1, 0xf5, 0xeb, 0x26, 0xa9,
  0x81, 0x06, 0xe7, 0xf6, 0x27, 0xe8, 0xf7, 0xdf, 0x2b, 0x17, 0x4c, 0x23,
  0x08, 0xe1, 0xf2, 0xfa, 0xe7, 0x4f, 0x0f, 0x2d, 0xf9, 0x5b, 0x25, 0x66,
  0x8d, 0x18, 0xfc, 0x13, 0xfb, 0x14, 0xf4, 0xea, 0x31, 0x09, 0x1e, 0x1e,
  0xdc, 0x11, 0xda, 0xc8, 0xd1, 0x26, 0xe2, 0x2d, 0x4a, 0x21, 0xf2, 0xef,
  0xf9, 0xf1, 0x4c, 0x2c, 0x20, 0xd1, 0xf1, 0x22, 0x67, 0xe1, 0xe1, 0xd0,
  0x13, 0xda, 0x20, 0xe5, 0xf1, 0x14, 0xae, 0xee, 0xce, 0x21, 0x50, 0x09,
  0x1f, 0xe7, 0x37, 0x28, 0xcf, 0x14, 0x7f, 0x1a, 0x51, 0xeb, 0x53, 0xee,
  0x1c, 0x45, 0x1e, 0x2d, 0x5e, 0x78, 0x1d, 0xde, 0x76, 0x55, 0xa9, 0x06,
  0x1e, 0xcb, 0x33, 0x22, 0x02, 0x1b, 0xb0, 0x42, 0x08, 0xe6, 0xfe, 0x86,
  0x81, 0xaf, 0xc9, 0x26, 0x7b, 0xbe, 0xef, 0x35, 0x33, 0x25, 0x44, 0xb8,
  0x9b, 0xd4, 0xde, 0x02, 0x02, 0x05, 0xe6, 0xea, 0x5c, 0x35, 0xbf, 0xff,
  0xf2, 0x38, 0xea, 0x18, 0x9c, 0xd2, 0x08, 0x30, 0xe8, 0x07, 0x9e, 0x02,
  0xed, 0xe0, 0xea, 0x49, 0x39, 0xe8, 0x31, 0x15, 0xce, 0xe3, 0xf7, 0x74,
  0xda, 0xcc, 0x0f, 0x5e, 0x00, 0x0e, 0x3e, 0x9d, 0x2c, 0x75, 0xf2, 0xc6,
  0xc3, 0xf5, 0x8d, 0xcc, 0x0b, 0x3e, 0xe7, 0x46, 0x35, 0x47, 0x7f, 0x5e,
  0x07, 0x5f, 0xb9, 0xf6, 0x69, 0x2c, 0x1b, 0x83, 0xd8, 0xda, 0x12, 0x57,
  0xc0, 0x53, 0xc5, 0xb9, 0xab, 0xaf, 0x65, 0xa7, 0xcd, 0x3f, 0xdd, 0x4c,
  0xa2, 0xa3, 0x0f, 0xbb, 0x2f, 0x48, 0x50, 0x47, 0x1c, 0x10, 0x0d, 0xb3,
  0x00, 0xb3, 0x3f, 0x35, 0x0b, 0x4e, 0xcd, 0xf0, 0xbe, 0x02, 0x09, 0x05,
  0x58, 0x5a, 0x29, 0xf7, 0xdf, 0x0f, 0xf0, 0x03, 0xc3, 0x07, 0xdf, 0xf1,
  0x5e, 0x28, 0xaa, 0xf0, 0x27, 0x24, 0xa6, 0x05, 0xd1, 0xc8, 0xd3, 0x9b,
  0xe1, 0x30, 0x3d, 0x57, 0x3a, 0xdd, 0x48, 0x0f, 0x0c, 0x12, 0xee, 0x7f,
  0x0a, 0x22, 0x71, 0xc5, 0x11, 0xd6, 0xb0, 0xc4, 0x0e, 0x31, 0xef, 0x27,
  0xe8, 0xe7, 0x09, 0x15, 0xb7, 0x47, 0x17, 0x54, 0xe3, 0x2a, 0x7f, 0x22,
  0x49, 0x2c, 0xf4, 0x34, 0xc4, 0x16, 0x5a, 0x5f, 0xaa, 0xf2, 0x9f, 0x36,
  0xe3, 0xef, 0xbb, 0xf3, 0x32, 0xa1, 0xaf, 0x2b, 0xa9, 0x04, 0xf9, 0xda,
  0x58, 0x2d, 0x22, 0x39, 0x03, 0x5f, 0x47, 0xba, 0xca, 0x52, 0x81, 0x67,
  0xb6, 0x29, 0x7b, 0xcb, 0xc6, 0xe8, 0xa0, 0x4a, 0x2e, 0xf0, 0xd5, 0x1d,
  0x3a, 0xea, 0xc7, 0x36, 0xd3, 0x2e, 0x1b, 0xb1, 0x6e, 0x1b, 0x5c, 0x98,
  0x5b, 0x9c, 0x8f, 0xd1, 0xd8, 0xbd, 0xa2, 0x07, 0x50, 0xf6, 0x19, 0xd9,
  0x27, 0xd0, 0xdf, 0xb8, 0xc3, 0xf2, 0xf5, 0xe8, 0x7a, 0x67, 0x81, 0xc4,
  0x79, 0xd9, 0xb6, 0x32, 0x15, 0x21, 0xb6, 0x53, 0xf9, 0xbe, 0xfb, 0x0e,
  0x32, 0xe6, 0xd6, 0x1e, 0x8b, 0xf7, 0x13, 0x2d, 0xa7, 0xf6, 0x9b, 0xb7,
  0xe5, 0x2e, 0x28, 0xc1, 0xc2, 0x38, 0xac, 0xd6, 0xd1, 0x2c, 0xb7, 0x02,
  0x1c, 0x51, 0x22, 0x4c, 0x31, 0xab, 0xb0, 0xc0, 0x41, 0x41, 0x03, 0xee,
  0x3e, 0x7f, 0xdc, 0xda, 0x05, 0x33, 0xb7, 0xc2, 0xdd, 0x0b, 0x12, 0xb8,
  0x1f, 0x2b, 0xc8, 0x2a, 0xb6, 0x38, 0x9e, 0xff, 0x3d, 0xd0, 0xbc, 0xc0,
  0xde, 0x29, 0xaf, 0xf6, 0x58, 0xee, 0xab, 0xd3, 0x50, 0x20, 0xd1, 0xc9,
  0xe6, 0xe3, 0x5c, 0x36, 0xd9, 0xcb, 0x50, 0x03, 0x56, 0xd5, 0x3e, 0xef,
  0xb6, 0x05, 0x94, 0xdc, 0xe0, 0xb5, 0xca, 0x06, 0x14, 0xe4, 0xce, 0xc9,
  0x06, 0x34, 0x26, 0x04, 0x37, 0xd8, 0x2d, 0xc8, 0x3c, 0x1b, 0x1c, 0x68,
  0x34, 0xaa, 0x61, 0xd7, 0x13, 0xe8, 0xfb, 0x94, 0xba, 0x6f, 0x29, 0x4f,
  0x4e, 0xa1, 0x3d, 0xd8, 0xb7, 0xf9, 0x08, 0x39, 0x97, 0x44, 0x18, 0xc2,
  0xd3, 0x85, 0x81, 0x63, 0x18, 0xf9, 0xd4, 0x22, 0xeb, 0x53, 0x14, 0xf9,
  0x35, 0x4a, 0xfe, 0x09, 0xfc, 0x31, 0xfc, 0x52, 0x81, 0x1f, 0xba, 0x4e,
  0xe2, 0xae, 0xfb, 0x3e, 0xd6, 0x43, 0x15, 0x0d, 0x18, 0x54, 0xea, 0xe7,
  0xe9, 0x15, 0x1c, 0x1f, 0x49, 0xfb, 0x14, 0x20, 0x03, 0x2b, 0x00, 0x20,
  0xba, 0xd6, 0xbf, 0x14, 0xbd, 0xde, 0x22, 0xef, 0x3c, 0x27, 0x1f, 0x09,
  0x13, 0x77, 0xea, 0x4e, 0xc8, 0x21, 0xcf, 0xa8, 0x58, 0xf2, 0xf7, 0x18,
  0x3a, 0xd4, 0x28, 0x1a, 0x19, 0xec, 0x5b, 0xe6, 0xdc, 0x54, 0x53, 0x41,
  0xbe, 0x8c, 0x0b, 0x7e, 0xba, 0x50, 0x3e, 0x51, 0x87, 0x2e, 0xdf, 0xab,
  0xcf, 0xdc, 0x62, 0x54, 0x88, 0x26, 0xf3, 0x27, 0xbf, 0x8e, 0x50, 0x66,
  0xda, 0x61, 0xef, 0xc2, 0xdb, 0x29, 0x44, 0x29, 0x02, 0xc3, 0x3a, 0x2a,
  0xce, 0x25, 0x14, 0x1e, 0x31, 0xf8, 0xac, 0x39, 0x9d, 0xba, 0x62, 0xb5,
  0xd3, 0xd2, 0xdc, 0xc5, 0xd6, 0x01, 0x7f, 0xdb, 0xb5, 0x54, 0xea, 0x23,
  0x0d, 0x63, 0x43, 0x02, 0x31, 0x9c, 0x30, 0xb4, 0x04, 0x28, 0x0f, 0x0e,
  0xb2, 0x0b, 0xe0, 0xbf, 0xba, 0x09, 0xc0, 0x45, 0xae, 0x48, 0x08, 0x1d,
  0xd1, 0xed, 0xda, 0xe4, 0x25, 0x50, 0x48, 0x5c, 0xc9, 0x15, 0x81, 0x47,
  0x1c, 0x7b, 0xe7, 0xdb, 0x3f, 0xea, 0xd8, 0x0b, 0x47, 0xc4, 0x1d, 0xcd,
  0x41, 0x55, 0xd5, 0xb4, 0x51, 0xb3, 0xcd, 0xd2, 0xfa, 0xd4, 0x13, 0x0c,
  0x29, 0x5f, 0x3b, 0xf5, 0x19, 0x52, 0xea, 0xbd, 0xe6, 0xcd, 0xa4, 0xe4,
  0x39, 0x0d, 0x02, 0x0e, 0x7f, 0x06, 0xd1, 0x4d, 0x33, 0x81, 0x4f, 0xfb,
  0x3e, 0xd1, 0x4e, 0x44, 0x19, 0xe5, 0x0e, 0x15, 0xf0, 0x25, 0x8d, 0x36,
  0xf1, 0xc4, 0xee, 0xda, 0x5b, 0xcd, 0x5f, 0xf4, 0xd6, 0xb8, 0xf3, 0xbc,
  0xb5, 0x2c, 0x34, 0x86, 0xc7, 0xa5, 0x03, 0x3e, 0x9e, 0x4b, 0x77, 0x4f,
  0x08, 0x4c, 0xe9, 0x5e, 0x14, 0xc0, 0xae, 0xbc, 0x21, 0x9c, 0xc5, 0x8e,
  0x41, 0x46, 0xc1, 0xd3, 0xe6, 0xf5, 0x81, 0xeb, 0x10, 0x04, 0x00, 0x17,
  0xb4, 0xb6, 0xc2, 0x38, 0x35, 0x2f, 0xfd, 0xdf, 0xee, 0x2f, 0x24, 0x0f,
  0xe4, 0xea, 0xd1, 0x2b, 0x57, 0x08, 0xdc, 0xd7, 0xe4, 0xf6, 0xfc, 0xf0,
  0x26, 0xc2, 0x29, 0xc1, 0xe2, 0xe1, 0x30, 0xf9, 0xe9, 0xb3, 0xf2, 0x06,
  0x08, 0xfe, 0xf5, 0xc2, 0x2a, 0x48, 0xb6, 0xfd, 0xfa, 0x2f, 0xe4, 0xdd,
  0x54, 0x72, 0x32, 0x21, 0xe7, 0xa4, 0xd3, 0x03, 0x33, 0xe5, 0x08, 0x33,
  0x52, 0xf7, 0x35, 0x12, 0x42, 0x79, 0x08, 0x34, 0xea, 0xe0, 0xe0, 0xd6,
  0x57, 0x2e, 0xfa, 0x11, 0x34, 0xda, 0x67, 0x13, 0x03, 0x0a, 0x07, 0xad,
  0x52, 0x4e, 0xf3, 0x8d, 0xd3, 0x32, 0xc1, 0xaa, 0x50, 0xdd, 0x13, 0xd6,
  0x53, 0xe8, 0xb4, 0xe2, 0xde, 0xdf, 0x12, 0x0c, 0x0c, 0x9e, 0x4f, 0xc6,
  0x0f, 0xde, 0x7f, 0x05, 0x55, 0xac, 0x29, 0xbf, 0x71, 0xc0, 0xff, 0xd8,
  0x9f, 0x26, 0xaa, 0x81, 0x49, 0xe1, 0x9b, 0xcb, 0x09, 0xfd, 0xf5, 0x2f,
  0xe6, 0x14, 0xf1, 0x58, 0x1f, 0xf6, 0x33, 0xd5, 0xdb, 0x96, 0x95, 0xf0,
  0xf7, 0xac, 0x4d, 0xfe, 0x33, 0xc0, 0x0d, 0xe3, 0x0c, 0xe7, 0x0e, 0x10,
  0x0e, 0x99, 0xdf, 0xfb, 0xc3, 0x29, 0xc7, 0x2a, 0xbd, 0x10, 0xb3, 0xe3,
  0xf0, 0x07, 0xf1, 0xc3, 0x11, 0x13, 0xd0, 0x41, 0x4f, 0x11, 0x7f, 0x33,
  0xe6, 0x22, 0xc4, 0x5a, 0xf9, 0x38, 0x12, 0x05, 0x3e, 0x1c, 0xf9, 0x24,
  0x1b, 0x7b, 0xfd, 0xbf, 0xdf, 0x2b, 0xb1, 0xe8, 0xa9, 0xc2, 0xe3, 0xb5,
  0xfc, 0x2a, 0x3c, 0xd8, 0x13, 0x30, 0x0b, 0x02, 0x3b, 0x0b, 0x9d, 0xeb,
  0x20, 0x3f, 0xbb, 0x29, 0x34, 0x53, 0x95, 0xfd, 0x11, 0xb3, 0xe4, 0xa6,
  0x51, 0x30, 0x72, 0x3a, 0xc1, 0x17, 0x02, 0x26, 0x03, 0xfc, 0x4d, 0x12,
  0x1f, 0x45, 0x03, 0xc5, 0x25, 0x98, 0xd4, 0x09, 0x39, 0xd1, 0x43, 0xc8,
  0xf6, 0xc7, 0xea, 0xd8, 0x16, 0x7f, 0xac, 0xd6, 0xdc, 0x12, 0x15, 0xcc,
  0x16, 0xd1, 0xff, 0xcd, 0xdf, 0xc9, 0x10, 0x4e, 0xee, 0x4b, 0xce, 0x9c,
  0x04, 0x03, 0xaa, 0xf1, 0x28, 0xd1, 0x01, 0x11, 0x6d, 0xdf, 0xba, 0x08,
  0xcb, 0x35, 0x1a, 0x14, 0xd8, 0xe3, 0x4d, 0xe2, 0xff, 0xff, 0x13, 0xfc,
  0xfd, 0xe7, 0x4a, 0xcf, 0x31, 0x57, 0x54, 0x13, 0x88, 0x2c, 0x11, 0x18,
  0x13, 0xc5, 0x54, 0x3b, 0xf3, 0x60, 0xb9, 0x1a, 0x27, 0x4c, 0x29, 0xca,
  0xeb, 0xfd, 0x81, 0x50, 0xb5, 0xe3, 0xd7, 0x61, 0x38, 0xf4, 0x30, 0x79,
  0xad, 0x5c, 0xd1, 0x3b, 0x51, 0x25, 0x0a, 0xda, 0x21, 0xed, 0xe1, 0x1c,
  0xf9, 0x2f, 0xfc, 0x2d, 0x28, 0xe8, 0xde, 0xc0, 0x32, 0xde, 0x44, 0xc0,
  0xfb, 0xc0, 0x3a, 0xee, 0xd2, 0xab, 0x3d, 0x3b, 0xeb, 0xce, 0xeb, 0x2f,
  0xee, 0x09, 0xf1, 0xc2, 0xd5, 0x1f, 0x19, 0x1c, 0xe4, 0xf7, 0x24, 0x0e,
  0x31, 0xff, 0x3e, 0x1a, 0x1b, 0xfa, 0x08, 0xdf, 0x03, 0x37, 0xe4, 0xf6,
  0xe1, 0x1c, 0xc3, 0x1c, 0x0f, 0xec, 0xe5, 0x15, 0x22, 0x05, 0x06, 0x0d,
  0xff, 0x3d, 0x55, 0x0c, 0xdf, 0xec, 0x10, 0xe8, 0x12, 0x46, 0x1b, 0xcb,
  0x1c, 0xe9, 0x41, 0x2a, 0x4a, 0x10, 0x81, 0xec, 0x27, 0x1c, 0xf3, 0x28,
  0xec, 0xcb, 0xfa, 0x91, 0x7f, 0x5b, 0x31, 0x0e, 0xc6, 0x18, 0xf6, 0xb3,
  0x2c, 0xf6, 0xcd, 0xb1, 0xcf, 0x95, 0x1d, 0x0c, 0xcc, 0x1b, 0xc0, 0x8e,
  0x22, 0xc0, 0xd7, 0xd7, 0xeb, 0x0d, 0xd9, 0x5b, 0x34, 0x3f, 0xde, 0x41,
  0x55, 0xe1, 0x05, 0xe0, 0xe3, 0x0a, 0xb7, 0x4f, 0x33, 0xe8, 0xda, 0xce,
  0x08, 0x91, 0xfe, 0x22, 0x3f, 0xce, 0x10, 0xea, 0x19, 0xbc, 0x09, 0xd4,
  0x0a, 0x0a, 0x08, 0x1c, 0x45, 0x7f, 0xf2, 0x5d, 0x02, 0xa7, 0xde, 0x19,
  0x35, 0xc8, 0x70, 0x01, 0x4c, 0x2e, 0xbe, 0x48, 0x33, 0x75, 0x21, 0xe2,
  0xb6, 0xf4, 0x1e, 0xdf, 0xbd, 0x29, 0x15, 0xb2, 0xcc, 0x42, 0xc3, 0x5e,
  0x19, 0x2e, 0xed, 0xbb, 0x5e, 0x57, 0xb0, 0xd4, 0xf8, 0x3f, 0x4a, 0x40,
  0x51, 0xc3, 0x36, 0x4a, 0x4f, 0x54, 0x06, 0xf2, 0x52, 0x3a, 0x04, 0x3c,
  0x46, 0xcb, 0xdd, 0xd7, 0x11, 0xe1, 0xd3, 0xab, 0xf3, 0x6f, 0x6c, 0x0e,
  0x31, 0x13, 0xeb, 0x6f, 0xd7, 0xe7, 0x29, 0x7b, 0xa5, 0x0b, 0x18, 0xce,
  0xc8, 0xeb, 0x71, 0x0f, 0x39, 0x24, 0x1d, 0x36, 0x3c, 0x25, 0xca, 0xd2,
  0xc6, 0xe1, 0xf6, 0x42, 0xe0, 0xc4, 0xcb, 0x4e, 0xa5, 0x2e, 0x0c, 0xdb,
  0xbf, 0xde, 0x75, 0xcb, 0xb4, 0xcb, 0x8a, 0xf9, 0x45, 0x14, 0xbe, 0x89,
  0x49, 0x3b, 0xad, 0xef, 0x7f, 0xa6, 0x09, 0x38, 0xda, 0x17, 0xdc, 0x0e,
  0xd5, 0xb6, 0x59, 0xef, 0xc0, 0xaa, 0x2e, 0x70, 0xcf, 0x2f, 0x5d, 0x24,
  0x9e, 0xde, 0xb9, 0xa9, 0xd9, 0x66, 0x16, 0xc5, 0x1c, 0xfe, 0x95, 0x5a,
  0x60, 0x34, 0x2b, 0x09, 0xae, 0xcb, 0xfd, 0x7f, 0x15, 0xa6, 0xc5, 0xfe,
  0x0c, 0xbd, 0x42, 0x48, 0xce, 0x33, 0xb9, 0xec, 0x48, 0xd4, 0xc3, 0xf9,
  0x30, 0x16, 0x53, 0xe4, 0x2d, 0xf2, 0xe7, 0x3a, 0xfa, 0x34, 0xc7, 0x3d,
  0x2b, 0xb6, 0x11, 0xc8, 0x43, 0x63, 0x67, 0xce, 0x02, 0x81, 0xea, 0x40,
  0x34, 0xdd, 0x1f, 0xe8, 0xf0, 0x00, 0xc4, 0x11, 0xf1, 0x63, 0xb6, 0x3f,
  0xaf, 0xd3, 0xea, 0x24, 0x4c, 0x3d, 0xe2, 0x0e, 0xf6, 0x02, 0x3a, 0x1d,
  0xeb, 0x50, 0xf8, 0x59, 0xf3, 0x56, 0x9e, 0x30, 0xed, 0x29, 0xdf, 0xd5,
  0x31, 0x6b, 0x4c, 0x44, 0x51, 0xf8, 0xdb, 0xb4, 0xd0, 0x34, 0xb3, 0x09,
  0x3a, 0x8c, 0x38, 0xe6, 0xb5, 0xe7, 0x1e, 0x14, 0x55, 0x62, 0x5e, 0x00,
  0x35, 0x31, 0x00, 0x3f, 0x26, 0xe0, 0x11, 0x40, 0xc5, 0xe8, 0x34, 0x2c,
  0xfb, 0x2a, 0xde, 0x3e, 0xec, 0x1d, 0xc6, 0xc3, 0x46, 0xd2, 0xf3, 0x06,
  0xde, 0xe0, 0x23, 0x22, 0x15, 0x2f, 0xa9, 0xab, 0x7f, 0x28, 0x17, 0x1e,
  0x0b, 0xaa, 0x83, 0x47, 0xca, 0x43, 0x9a, 0xbe, 0xea, 0xc0, 0xcd, 0x2e,
  0xbd, 0x12, 0x00, 0xe4, 0x2d, 0xaf, 0x4a, 0x22, 0x41, 0xe2, 0x5c, 0x03,
  0xed, 0xed, 0x25, 0xc4, 0xc6, 0x29, 0x0f, 0x00, 0x39, 0x4c, 0x2a, 0x45,
  0xb5, 0xf7, 0x29, 0xda, 0xd5, 0x61, 0x09, 0xdd, 0x33, 0xf8, 0x15, 0xee,
  0x4b, 0xcf, 0xf0, 0x67, 0xce, 0xe8, 0xeb, 0x46, 0x1c, 0xf3, 0xbd, 0x4c,
  0xd5, 0xb8, 0xae, 0x7f, 0xfe, 0xd0, 0x6b, 0x65, 0xe4, 0xd8, 0xd0, 0xf8,
  0x1c, 0x22, 0xc8, 0x2d, 0x22, 0xad, 0xce, 0xf7, 0x49, 0xc2, 0x42, 0xd9,
  0x0c, 0xe7, 0xb3, 0x1f, 0x82, 0x27, 0xff, 0x0c, 0x3e, 0xe9, 0xe1, 0xd7,
  0xad, 0xc3, 0x3d, 0x42, 0xd9, 0xdf, 0xc3, 0x23, 0x09, 0xad, 0xb6, 0x19,
  0xf9, 0x4c, 0xed, 0xfb, 0xa7, 0x1a, 0x2d, 0xbf, 0x1f, 0x40, 0xdf, 0x04,
  0x05, 0x11, 0xfb, 0xce, 0xcb, 0x3e, 0x32, 0x31, 0x09, 0x0e, 0xff, 0x27,
  0xbf, 0xf2, 0x3b, 0x98, 0x51, 0xc7, 0x81, 0xe8, 0x03, 0xf3, 0xd6, 0x46,
  0xca, 0xf5, 0xe7, 0x39, 0xb9, 0xfb, 0xa0, 0x0e, 0xe4, 0x7f, 0xe9, 0x6b,
  0xb2, 0xb9, 0xa6, 0x18, 0xf1, 0xef, 0x42, 0xfa, 0xea, 0x2d, 0xf4, 0xd3,
  0x3b, 0xdd, 0xa8, 0xbc, 0x98, 0xda, 0x04, 0x40, 0x99, 0x18, 0xd6, 0x07,
  0x09, 0xcd, 0xe7, 0x14, 0xd8, 0x46, 0xe0, 0xfd, 0x55, 0x62, 0x9e, 0x27,
  0xce, 0xb8, 0xf0, 0x36, 0x37, 0xee, 0xcc, 0xe0, 0x09, 0xd9, 0x6a, 0xbb,
  0x5c, 0xd6, 0xfd, 0x2f, 0x30, 0x06, 0x5e, 0xd2, 0xb0, 0xaa, 0x3a, 0x01,
  0x26, 0x0a, 0x7e, 0x7e, 0xdb, 0xd9, 0xf1, 0xe7, 0x01, 0x22, 0x56, 0x02,
  0xda, 0xf9, 0xf8, 0xd9, 0x29, 0x78, 0x22, 0x08, 0x27, 0xfe, 0x8e, 0xfb,
  0x81, 0x2a, 0xf9, 0x26, 0xb0, 0x2e, 0xbc, 0x2e, 0xdb, 0xcf, 0xd1, 0xfe,
  0xb8, 0xc7, 0x11, 0x04, 0xfb, 0x2d, 0x46, 0x31, 0x94, 0xd5, 0xd6, 0x00,
  0x11, 0x63, 0x63, 0x88, 0x70, 0x19, 0x62, 0x3f, 0x1a, 0xf6, 0x01, 0x08,
  0xd3, 0xff, 0xe6, 0x3f, 0x3d, 0x4a, 0x3c, 0xde, 0xce, 0x1a, 0x43, 0x28,
  0x2d, 0x3b, 0xe2, 0x52, 0xc3, 0x3d, 0x04, 0xdd, 0xa0, 0x52, 0xfb, 0x24,
  0x81, 0x26, 0x3b, 0x10, 0x03, 0xf6, 0x27, 0x68, 0x8f, 0xb9, 0x65, 0x03,
  0x32, 0x64, 0x21, 0xb6, 0xc6, 0x68, 0xda, 0xc4, 0x3c, 0x52, 0xbf, 0x97,
  0x4f, 0xc8, 0xb2, 0x08, 0xa6, 0x07, 0xcb, 0xc1, 0xb3, 0x12, 0xf1, 0xc4,
  0xac, 0xe0, 0x30, 0xde, 0x52, 0x53, 0x15, 0x36, 0x7f, 0x38, 0xf8, 0x4c,
  0xe0, 0x5b, 0x40, 0xfe, 0x04, 0xbd, 0xeb, 0xa1, 0x33, 0xc6, 0xca, 0xce,
  0x28, 0xe8, 0x2b, 0x31, 0x2b, 0x44, 0xb8, 0x8e, 0xd3, 0xdd, 0x55, 0xd9,
  0x67, 0xa2, 0xef, 0x32, 0xd7, 0xea, 0x2d, 0x01, 0x27, 0xdd, 0xe9, 0xd3,
  0xea, 0x0b, 0xf9, 0xf3, 0xc3, 0xa4, 0xe7, 0x3c, 0xbd, 0x25, 0x8f, 0x1b,
  0x11, 0xa5, 0x0c, 0x13, 0xe9, 0xfd, 0xa4, 0xd2, 0x47, 0x55, 0x9c, 0xd3,
  0xb7, 0x59, 0x22, 0xe6, 0xa9, 0x3c, 0x13, 0x74, 0xd6, 0xdf, 0x7f, 0xfd,
  0x23, 0x45, 0xa7, 0xba, 0x83, 0x4a, 0x35, 0x07, 0xd2, 0x27, 0xae, 0xe0,
  0x19, 0xcc, 0x1e, 0xbf, 0xe1, 0xf8, 0x08, 0x50, 0xe8, 0x5b, 0x86, 0xec,
  0x0b, 0x3a, 0xc9, 0x2c, 0xb6, 0x11, 0x01, 0x9b, 0xf2, 0xe8, 0xa5, 0x3c,
  0xa6, 0xf4, 0x38, 0x9c, 0x59, 0x38, 0x99, 0x16, 0xfa, 0x29, 0xcb, 0x0c,
  0xca, 0x9f, 0x01, 0x47, 0xa7, 0xb9, 0x9a, 0xad, 0xf3, 0x7f, 0x22, 0xa8,
  0x4d, 0xc6, 0xb2, 0x38, 0x59, 0xab, 0x92, 0x08, 0x27, 0xe1, 0xe0, 0x4a,
  0xb6, 0xda, 0xfe, 0x03, 0x28, 0x31, 0x55, 0x99, 0x28, 0xf5, 0x59, 0xd6,
  0x3e, 0xc8, 0x7d, 0x07, 0xcf, 0x07, 0x06, 0xf8, 0x2c, 0x49, 0xdc, 0xf9,
  0x86, 0xf6, 0x5c, 0x2e, 0x50, 0xdb, 0x29, 0xb3, 0xeb, 0xc5, 0x32, 0xb0,
  0xea, 0x4a, 0xa3, 0xdc, 0x57, 0x10, 0x0a, 0x26, 0x41, 0x6b, 0x22, 0x5f,
  0x81, 0xf2, 0xc5, 0x72, 0xea, 0xd8, 0xc1, 0x06, 0x2a, 0xff, 0x1c, 0xd6,
  0x8a, 0x52, 0x01, 0x13, 0x21, 0x1a, 0x91, 0xea, 0x1c, 0x59, 0xe7, 0x53,
  0xaf, 0x28, 0x6c, 0xed, 0x2b, 0xde, 0x20, 0x44, 0xf5, 0xff, 0x26, 0xa1,
  0xde, 0x54, 0x00, 0xb5, 0x7f, 0x59, 0xcf, 0x07, 0x44, 0x0f, 0xee, 0xe2,
  0x54, 0xe1, 0xac, 0xc3, 0x09, 0x13, 0x7e, 0xe0, 0x06, 0xbb, 0xe3, 0x24,
  0x75, 0x5f, 0x18, 0x1a, 0xf5, 0xd2, 0xea, 0x4b, 0xf3, 0xaf, 0x79, 0xf9,
  0x13, 0x38, 0xd0, 0xb4, 0x41, 0x69, 0x03, 0x5b, 0x19, 0x06, 0xbc, 0xda,
  0xa1, 0xbf, 0x1c, 0xab, 0x68, 0xa9, 0x35, 0x3d, 0xd7, 0xfb, 0x26, 0x2d,
  0xfb, 0xd0, 0x23, 0x64, 0xac, 0x6a, 0x63, 0xf5, 0xda, 0x44, 0xc1, 0xd1,
  0xba, 0xfb, 0xc1, 0x36, 0x43, 0x0e, 0xde, 0xf0, 0x70, 0xe1, 0x7f, 0xe7,
  0xf4, 0xa6, 0xf9, 0x45, 0xf8, 0x7f, 0x48, 0xf8, 0x24, 0x3d, 0xa9, 0x58,
  0x48, 0xe2, 0x46, 0x42, 0x38, 0x3c, 0xc4, 0x0d, 0x3c, 0x7a, 0xea, 0x3b,
  0x49, 0x2b, 0x2a, 0x3d, 0x04, 0xe6, 0x25, 0xb8, 0x22, 0xb8, 0x4e, 0x15,
  0x2d, 0x16, 0xbe, 0xf8, 0x1a, 0xd4, 0x0b, 0xa8, 0x18, 0xaf, 0xa2, 0xe8,
  0x62, 0xbf, 0xe7, 0x16, 0x22, 0xb0, 0x52, 0xe6, 0xb9, 0xc8, 0x65, 0x0d,
  0xde, 0xfb, 0xe2, 0xe0, 0x08, 0x31, 0x2d, 0xeb, 0xbb, 0x45, 0xf0, 0xde,
  0x24, 0x5b, 0x2c, 0xa6, 0x3e, 0x26, 0x17, 0xf2, 0x01, 0xb5, 0xf2, 0x69,
  0x5e, 0x29, 0xc0, 0x99, 0x04, 0xe4, 0x03, 0xff, 0x0d, 0x4d, 0xee, 0xec,
  0xd0, 0x4b, 0x04, 0x08, 0x62, 0xc0, 0x21, 0xbe, 0x45, 0xe9, 0x23, 0x34,
  0xd7, 0xf4, 0x21, 0x0d, 0xa0, 0x82, 0x29, 0x5b, 0xa4, 0x4f, 0xc7, 0x1e,
  0xb5, 0xfb, 0x3c, 0x27, 0xad, 0x2e, 0x06, 0x0f, 0x81, 0xb0, 0x1d, 0x0d,
  0xb5, 0xd3, 0x06, 0x65, 0x1d, 0xf9, 0xc4, 0x32, 0x08, 0x32, 0xf3, 0x23,
  0x43, 0x37, 0x0e, 0xd5, 0xbf, 0x36, 0x2b, 0x48, 0x30, 0x25, 0xad, 0x6a,
  0x57, 0xbd, 0x12, 0x24, 0xe0, 0x59, 0x4f, 0x3a, 0xfc, 0xa5, 0xfd, 0x32,
  0xeb, 0xf3, 0xcf, 0x3b, 0xeb, 0x7f, 0x63, 0x4e, 0x16, 0x67, 0xbd, 0x35,
  0xac, 0x29, 0x1e, 0xe4, 0x62, 0xef, 0xb1, 0xe9, 0x08, 0x9e, 0x34, 0x2c,
  0xe8, 0x13, 0x56, 0xd4, 0x16, 0xf2, 0x59, 0xe6, 0xca, 0x9a, 0x1b, 0x3e,
  0x99, 0xbb, 0x4a, 0x64, 0x2c, 0xe7, 0x18, 0x17, 0x7f, 0x38, 0x33, 0x07,
  0xca, 0xe5, 0x1b, 0xe5, 0xe6, 0x64, 0x25, 0x15, 0x5d, 0x93, 0x93, 0x31,
  0x12, 0x47, 0xe3, 0x86, 0x7e, 0x5f, 0x2e, 0x85, 0x22, 0xe5, 0x98, 0x1c,
  0xd3, 0x36, 0xd5, 0x27, 0x21, 0xff, 0xc1, 0x99, 0x15, 0x3e, 0x2a, 0x27,
  0x32, 0xf7, 0x20, 0xc0, 0x68, 0xd0, 0xb7, 0xf5, 0x87, 0xcc, 0xbe, 0xf6,
  0xe5, 0x32, 0x0c, 0xf1, 0x89, 0x70, 0x3e, 0x64, 0x2d, 0xf9, 0xf0, 0xd1,
  0x27, 0xc4, 0x1d, 0x66, 0x72, 0xe3, 0x4c, 0xb1, 0x3f, 0x6b, 0x31, 0x73,
  0x96, 0x34, 0xab, 0x46, 0x63, 0x26, 0xc5, 0xb6, 0x8f, 0x51, 0xf8, 0x1b,
  0x35, 0x0a, 0xd3, 0xd4, 0x7b, 0x13, 0x4b, 0xe5, 0x74, 0xa5, 0x51, 0x55,
  0x30, 0xad, 0xdc, 0xdb, 0x7f, 0x91, 0x3b, 0x58, 0xab, 0x88, 0xe7, 0x2d,
  0x44, 0xc8, 0x99, 0xd0, 0x9e, 0x11, 0x41, 0x3b, 0x30, 0x0d, 0x8f, 0xe7,
  0x23, 0x8d, 0xcb, 0x2d, 0x45, 0x13, 0x40, 0x16, 0xdc, 0xef, 0xa1, 0xf9,
  0xea, 0x4b, 0x02, 0x9a, 0x21, 0xa3, 0x1f, 0xef, 0x41, 0xce, 0xc6, 0x3a,
  0xad, 0x7f, 0x30, 0x51, 0x12, 0x16, 0x5e, 0xed, 0x6f, 0x56, 0xb3, 0x0d,
  0x4c, 0xe4, 0xf6, 0x18, 0xc5, 0xb3, 0xc4, 0x14, 0x4f, 0x8f, 0xda, 0xfc,
  0xf8, 0xe9, 0xf5, 0xec, 0xcd, 0x0f, 0x37, 0x1e, 0x81, 0xe2, 0x27, 0xfc,
  0x22, 0xed, 0x4c, 0x11, 0xdb, 0x45, 0xf5, 0xcf, 0x97, 0x0a, 0xb2, 0xb7,
  0xb1, 0xe4, 0xeb, 0x56, 0x6a, 0x47, 0x1b, 0x4c, 0xee, 0x05, 0x00, 0xf5,
  0xb9, 0x43, 0xd8, 0xe9, 0x4e, 0x5e, 0xc6, 0x37, 0x14, 0x02, 0x41, 0x41,
  0x1d, 0x00, 0x19, 0x19, 0x35, 0x38, 0xf3, 0xde, 0x13, 0x27, 0xa2, 0xff,
  0x46, 0xd5, 0xfb, 0xe5, 0x06, 0x96, 0x14, 0xbd, 0xf4, 0xc2, 0xc3, 0x58,
  0xbf, 0x0b, 0xc7, 0x37, 0x5a, 0xe3, 0xd2, 0x21, 0x28, 0xfc, 0x2a, 0x21,
  0xe1, 0xed, 0xa5, 0xdf, 0x20, 0x2b, 0xcd, 0x08, 0x06, 0x01, 0x20, 0x03,
  0x27, 0xca, 0xf6, 0x60, 0x04, 0x7f, 0x0f, 0xae, 0x55, 0xd6, 0x0d, 0xba,
  0xf5, 0xcf, 0x1c, 0xda, 0x18, 0xf7, 0x9a, 0x01, 0xc3, 0x33, 0xf8, 0x13,
  0x19, 0xca, 0xe7, 0xfa, 0xee, 0x21, 0xd7, 0x13, 0x36, 0x02, 0xdf, 0xf4,
  0x14, 0x6c, 0x2c, 0x24, 0xb6, 0xd9, 0xec, 0x04, 0x49, 0x31, 0x2b, 0x18,
  0xca, 0x24, 0xf0, 0xee, 0xea, 0x7f, 0xc0, 0x52, 0x24, 0x1b, 0x24, 0xd0,
  0xa8, 0xcf, 0x2c, 0xa3, 0x2b, 0x40, 0x37, 0x69, 0x31, 0x3e, 0x21, 0xd8,
  0x12, 0xf2, 0xf8, 0x30, 0x1b, 0xc1, 0x3e, 0x18, 0x44, 0xc7, 0x93, 0xb8,
  0x3c, 0x47, 0xc0, 0xe7, 0x22, 0x12, 0xf0, 0xd0, 0x15, 0xcf, 0xe7, 0xe6,
  0x10, 0xd7, 0xcd, 0xba, 0xab, 0xc1, 0xdb, 0xc3, 0xff, 0x03, 0x3d, 0x0a,
  0x40, 0xdf, 0xb9, 0xe8, 0xc4, 0x29, 0xea, 0x39, 0x04, 0xe2, 0xcd, 0xea,
  0x34, 0x0b, 0xde, 0xcb, 0xb4, 0xc5, 0x19, 0x30, 0x65, 0xfb, 0xe7, 0xaf,
  0x1a, 0xee, 0xda, 0x0f, 0xc3, 0xde, 0xe4, 0xad, 0xee, 0x2a, 0xc4, 0xe2,
  0x81, 0xc0, 0x60, 0x09, 0x0b, 0xeb, 0x94, 0xe4, 0x09, 0xd3, 0x27, 0xe7,
  0xb9, 0x28, 0xe8, 0x1f, 0x4a, 0xc8, 0xbe, 0x0e, 0xc9, 0x2f, 0xe1, 0x67,
  0xb2, 0x18, 0x03, 0xea, 0x54, 0x2e, 0x7b, 0xe8, 0x46, 0x23, 0x25, 0x2c,
  0x81, 0x71, 0x47, 0x1e, 0x22, 0xc8, 0xb1, 0x2f, 0xc9, 0xca, 0x05, 0x13,
  0xb6, 0x1e, 0x4f, 0xc9, 0x9a, 0xf7, 0x9e, 0xe1, 0xb9, 0xd2, 0xb5, 0xff,
  0x34, 0x0d, 0x3e, 0x53, 0xdf, 0x78, 0x9a, 0x1d, 0x56, 0xc0, 0xdd, 0xc7,
  0x05, 0xbb, 0x4f, 0x5b, 0xf8, 0xe6, 0x2a, 0xee, 0x6b, 0xc5, 0x53, 0x32,
  0x81, 0xea, 0xe1, 0xea, 0x30, 0x5d, 0x47, 0x40, 0x08, 0xca, 0x01, 0xfd,
  0x1a, 0x10, 0xe4, 0x13, 0xe1, 0xfe, 0xb9, 0xc2, 0x32, 0x37, 0x0b, 0xb5,
  0xae, 0xf6, 0x30, 0x93, 0xf6, 0x0f, 0x96, 0xb2, 0x30, 0xd9, 0x6b, 0xee,
  0x47, 0x35, 0xe6, 0xfe, 0x18, 0x2e, 0xd6, 0x14, 0x01, 0x23, 0x1e, 0x3a,
  0x23, 0x14, 0xeb, 0xd8, 0xd2, 0x05, 0x14, 0xb8, 0xe3, 0x6a, 0x28, 0xfd,
  0xa8, 0x45, 0x97, 0x02, 0x24, 0x7f, 0x64, 0x13, 0xb7, 0x15, 0xc8, 0x2c,
  0xb6, 0xea, 0xbd, 0x37, 0x29, 0xe7, 0x20, 0xff, 0xc5, 0xe9, 0xaa, 0xd3,
  0x9e, 0x4a, 0xc7, 0x11, 0xd3, 0xd1, 0x0a, 0xd0, 0xff, 0x48, 0xe0, 0x2f,
  0xfb, 0x04, 0x27, 0x4d, 0x5a, 0xfa, 0x16, 0xfb, 0xe6, 0x3e, 0x06, 0x28,
  0x38, 0x33, 0xf9, 0x5a, 0xe6, 0x1b, 0x65, 0x55, 0x2f, 0x07, 0xac, 0x2a,
  0x35, 0xa0, 0x19, 0xca, 0xab, 0x3c, 0xfd, 0xd2, 0xff, 0x96, 0xf2, 0x05,
  0x50, 0x06, 0xf8, 0x4e, 0x0f, 0xd2, 0x9d, 0x24, 0x32, 0xb6, 0xf8, 0x00,
  0x17, 0xc5, 0x22, 0xd0, 0xff, 0x35, 0x4a, 0x14, 0xbc, 0xde, 0x1c, 0xfd,
  0xe8, 0x3c, 0x9a, 0xd5, 0xc5, 0x16, 0xed, 0xe9, 0x22, 0x81, 0x2b, 0xf1,
  0xe3, 0xc3, 0x2e, 0x2d, 0xb3, 0xc4, 0x51, 0x3a, 0x68, 0x34, 0xe3, 0xb6,
  0xfe, 0xbf, 0xaa, 0x19, 0xb9, 0xe5, 0xfa, 0xf7, 0xe0, 0x2d, 0x1a, 0x41,
  0x0b, 0x23, 0xe8, 0xd8, 0x2a, 0xe3, 0xb3, 0xbd, 0xec, 0xcf, 0xc3, 0xb0,
  0x27, 0xe4, 0x3e, 0x18, 0x62, 0x99, 0x12, 0x1d, 0x3d, 0x17, 0x41, 0xaf,
  0xbe, 0xd4, 0xfe, 0x42, 0xbf, 0xa2, 0xe4, 0x0a, 0xdd, 0x20, 0x7f, 0x00,
  0xeb, 0x00, 0xde, 0x36, 0x2e, 0xc5, 0x95, 0xfb, 0xe3, 0xd3, 0xa9, 0x0c,
  0x5b, 0x9f, 0xdb, 0x27, 0xc5, 0xad, 0xac, 0xe5, 0xd9, 0xd9, 0xac, 0xde,
  0x49, 0x49, 0x9e, 0xbb, 0xaf, 0xbb, 0xbf, 0x00, 0x2a, 0x42, 0x40, 0x4f,
  0xed, 0x14, 0x81, 0x99, 0xb2, 0xc4, 0x21, 0x37, 0x18, 0xb8, 0xe7, 0xdb,
  0x24, 0x05, 0xdc, 0x33, 0x43, 0xe3, 0x48, 0x40, 0x1b, 0xbb, 0xa9, 0xe0,
  0xcd, 0x22, 0x61, 0x3d, 0x0f, 0xbc, 0x4d, 0x1d, 0x27, 0xbb, 0xb9, 0xd3,
  0xf8, 0xe0, 0xe8, 0x3f, 0x64, 0x0c, 0x12, 0xe5, 0x0c, 0xda, 0xbc, 0xec,
  0xf3, 0x02, 0x21, 0x16, 0xcf, 0x27, 0xfc, 0xf3, 0x23, 0x2e, 0x55, 0x1a,
  0xd8, 0x4f, 0xd7, 0xb9, 0x47, 0x29, 0x56, 0xb9, 0x61, 0x6b, 0x52, 0xdf,
  0x6c, 0x33, 0x1b, 0x4f, 0xbd, 0xef, 0xca, 0xf3, 0x5d, 0xff, 0xe0, 0x21,
  0x02, 0x4b, 0x07, 0xae, 0xc1, 0xa5, 0xfe, 0xb4, 0xfd, 0x32, 0xe5, 0x04,
  0x13, 0xb7, 0xe2, 0x7a, 0x14, 0x11, 0xf4, 0x03, 0x67, 0x6b, 0xb7, 0x21,
  0xab, 0xea, 0x86, 0xf3, 0x3c, 0x7f, 0xac, 0x51, 0xb9, 0x0d, 0xe3, 0xe1,
  0xc7, 0x8b, 0x8e, 0x9b, 0x66, 0xec, 0xef, 0xfa, 0xf7, 0x18, 0x81, 0x8c,
  0xd4, 0x02, 0xe1, 0xc0, 0x0e, 0xf7, 0xdb, 0xa4, 0x40, 0xc2, 0xd3, 0x18,
  0x09, 0xa2, 0xff, 0xf6, 0x09, 0xe9, 0x3a, 0xd6, 0x01, 0xf4, 0xca, 0x23,
  0xf2, 0x07, 0x31, 0xd4, 0x36, 0xe7, 0xe0, 0xef, 0xf0, 0xe5, 0x6c, 0x24,
  0xe4, 0xf3, 0xf8, 0x2d, 0x10, 0xa5, 0xc8, 0xed, 0x0f, 0xbf, 0x92, 0x0c,
  0x1f, 0x3a, 0xc0, 0x32, 0x3b, 0xb4, 0xb9, 0xa5, 0x1e, 0x0d, 0xb2, 0x48,
  0x45, 0xbf, 0x1d, 0x13, 0x04, 0x00, 0x98, 0xf4, 0x0b, 0xcf, 0x3c, 0xde,
  0x56, 0x00, 0x4c, 0x1f, 0x38, 0xc8, 0x13, 0x10, 0xfa, 0x23, 0xc4, 0x16,
  0x09, 0x48, 0x7f, 0x39, 0x1f, 0xce, 0x39, 0x9a, 0x35, 0xd2, 0xa6, 0x03,
  0xd2, 0xb9, 0x05, 0x38, 0xe3, 0xf4, 0xc7, 0x1e, 0x2f, 0xc1, 0x30, 0xb8,
  0xc0, 0x24, 0xa5, 0xac, 0x4b, 0x23, 0xef, 0xde, 0x82, 0x81, 0xf8, 0xaa,
  0xde, 0x4b, 0xdb, 0x8a, 0x5f, 0x1f, 0x97, 0x3d, 0x1c, 0xb1, 0x31, 0xea,
  0xbe, 0xf6, 0x9d, 0x9f, 0x5c, 0xc2, 0x32, 0x1e, 0x27, 0x41, 0x15, 0xba,
  0x64, 0xd7, 0xa8, 0xef, 0xb5, 0x11, 0x3c, 0x08, 0x9a, 0xe5, 0x4e, 0x0c,
  0x2b, 0x0f, 0x31, 0xa6, 0x2c, 0x0b, 0x2c, 0x06, 0xfd, 0x25, 0x81, 0xba,
  0x4a, 0xf2, 0x2c, 0xd8, 0xc5, 0xa7, 0xee, 0x1f, 0x18, 0x46, 0xbe, 0x37,
  0xc2, 0xc8, 0xdf, 0x3c, 0x34, 0xe0, 0x4f, 0xf3, 0x33, 0xd6, 0xde, 0xdd,
  0x01, 0x4c, 0x2d, 0x17, 0xf4, 0xcd, 0x4d, 0x09, 0x22, 0xc9, 0x2e, 0xc6,
  0xf1, 0xfa, 0x18, 0xd9, 0x6d, 0xb8, 0xd2, 0xa1, 0xdb, 0x57, 0x7f, 0x2c,
  0x37, 0x2b, 0x31, 0x10, 0x2c, 0x45, 0xc9, 0xa7, 0xd1, 0xee, 0x10, 0x0e,
  0x1e, 0x9c, 0x92, 0x34, 0x51, 0xc9, 0xab, 0x22, 0xce, 0x51, 0x89, 0x0a,
  0xcb, 0xea, 0x0e, 0xb1, 0xe4, 0xb2, 0xf4, 0x16, 0x7c, 0x45, 0x0e, 0xec,
  0x2f, 0x0a, 0x81, 0x02, 0x54, 0xf2, 0xb3, 0x38, 0x0c, 0xe2, 0xc5, 0x00,
  0x1b, 0x20, 0x1b, 0xb3, 0x1e, 0x1e, 0x4c, 0xc4, 0xda, 0x3d, 0xf4, 0x0c,
  0xcd, 0xb5, 0x13, 0x03, 0xce, 0x01, 0xf9, 0xf5, 0xf8, 0xfd, 0xbd, 0x48,
  0xc7, 0xd4, 0x20, 0xf9, 0xd0, 0xff, 0xf1, 0xd1, 0xe1, 0x10, 0x32, 0x01,
  0xa9, 0x19, 0xcd, 0xdd, 0x1c, 0x0c, 0xf2, 0x37, 0xd9, 0x7f, 0xc7, 0xfe,
  0x22, 0xbb, 0x37, 0x6c, 0x32, 0x22, 0xe2, 0xcb, 0xd3, 0x0a, 0xd7, 0xda,
  0x6c, 0x68, 0x40, 0x32, 0xa2, 0x1d, 0x13, 0xd0, 0xb7, 0x37, 0xc2, 0x4d,
  0x17, 0x0d, 0xc8, 0x45, 0xd1, 0x53, 0x47, 0x06, 0xdd, 0x29, 0x18, 0xe7,
  0x15, 0x30, 0x9f, 0xfb, 0xbc, 0xe7, 0x54, 0x9a, 0xd2, 0x55, 0x22, 0x33,
  0x33, 0xe8, 0x4f, 0xc8, 0xec, 0xe0, 0x3b, 0x17, 0x2f, 0x5d, 0x1a, 0x1f,
  0xcc, 0x5d, 0x1d, 0x16, 0xf2, 0x55, 0xcb, 0xe4, 0xb6, 0x16, 0x44, 0x26,
  0xcb, 0x38, 0xfb, 0x8b, 0xef, 0x55, 0x54, 0x46, 0x34, 0xdb, 0x0c, 0x46,
  0xd2, 0xf0, 0x2a, 0x08, 0xf9, 0xd8, 0x3a, 0x40, 0xed, 0x2d, 0xaf, 0xb3,
  0xf6, 0x1d, 0xef, 0x40, 0x13, 0xfc, 0x7f, 0x17, 0x72, 0x62, 0xf6, 0x3c,
  0xce, 0x5d, 0xbc, 0xa1, 0x51, 0x15, 0x47, 0x2f, 0x31, 0xf1, 0xee, 0x0e,
  0xed, 0xa8, 0xec, 0x55, 0xa7, 0x56, 0x2b, 0xcd, 0x47, 0x5f, 0x01, 0xbc,
  0x42, 0xb2, 0xfa, 0x45, 0xe5, 0xbb, 0x1c, 0x9a, 0xf9, 0xac, 0x13, 0x19,
  0x3b, 0xf4, 0x03, 0xe3, 0x4a, 0x28, 0xfc, 0x4a, 0xf7, 0x37, 0xc1, 0x0f,
  0xd6, 0x58, 0xbd, 0x81, 0xb5, 0x22, 0xcf, 0xbb, 0xbe, 0x07, 0xaa, 0xb7,
  0xef, 0xa1, 0x18, 0xfc, 0x36, 0xfd, 0x1f, 0x23, 0x2e, 0x33, 0x3f, 0xfc,
  0xf8, 0x4d, 0xb5, 0xf6, 0xea, 0xd4, 0xac, 0xce, 0x14, 0x2f, 0x48, 0x5d,
  0xaf, 0xcd, 0x0a, 0xc7, 0xa2, 0xf0, 0x26, 0x4d, 0x4d, 0xa9, 0x09, 0xf7,
  0x81, 0x60, 0x52, 0x45, 0xf7, 0x4c, 0xf8, 0x57, 0xa0, 0xe5, 0xca, 0x4e,
  0x16, 0xf8, 0x0a, 0xe5, 0xbe, 0xee, 0xaa, 0xe3, 0x28, 0x4c, 0xad, 0xcc,
  0xd7, 0xc4, 0x3b, 0x0c, 0xfa, 0xec, 0xa1, 0xee, 0xf7, 0x0e, 0x5e, 0x08,
  0x38, 0x1c, 0xb7, 0xd4, 0x35, 0xc7, 0x7a, 0x12, 0xf7, 0x21, 0xff, 0xee,
  0xe7, 0x54, 0x2f, 0x2f, 0x30, 0x09, 0xf5, 0xc8, 0x48, 0x27, 0xec, 0x06,
  0xbc, 0xd1, 0xe0, 0xe3, 0x4e, 0x3a, 0x2b, 0x23, 0xf5, 0xfa, 0xaa, 0x39,
  0xcb, 0x4d, 0xf0, 0x08, 0x32, 0xf3, 0x51, 0x5a, 0x29, 0x4e, 0x0f, 0xc4,
  0x7f, 0x48, 0xbf, 0x1d, 0x11, 0xdc, 0x01, 0x03, 0x29, 0x58, 0xc7, 0x3a,
  0xd5, 0x41, 0x5c, 0xda, 0x4e, 0xdc, 0x0a, 0xb8, 0x43, 0xc4, 0x43, 0xb5,
  0xcc, 0xe2, 0x22, 0x01, 0x49, 0x0b, 0xb9, 0x9a, 0x6b, 0xd9, 0x32, 0x2a,
  0x8b, 0x04, 0x2d, 0x1d, 0xd1, 0xcf, 0xe3, 0xec, 0x4a, 0x81, 0x95, 0x96,
  0x54, 0x41, 0x11, 0xfa, 0xc2, 0xb5, 0xfc, 0x02, 0x61, 0x51, 0xdb, 0x2e,
  0x0b, 0xff, 0x6c, 0xeb, 0x1c, 0x23, 0xd1, 0x9e, 0x3c, 0xb9, 0xcd, 0xb7,
  0xa0, 0xd0, 0xc8, 0xfc, 0xba, 0xfe, 0xde, 0x2f, 0x5b, 0xc7, 0xd9, 0xc9,
  0x1c, 0x15, 0x43, 0xfb, 0xe9, 0x1d, 0x27, 0x2c, 0x92, 0xed, 0x4f, 0xda,
  0x1a, 0xfe, 0x2e, 0x32, 0x78, 0x2e, 0x96, 0x97, 0x59, 0x39, 0xe7, 0x29,
  0x2a, 0xf6, 0xe6, 0xea, 0x4d, 0x01, 0x10, 0xe9, 0xd1, 0xb5, 0x22, 0xde,
  0xd2, 0x08, 0xc4, 0xde, 0x5a, 0xd8, 0x22, 0x39, 0x00, 0xa4, 0x16, 0xfb,
  0xe1, 0xea, 0xa6, 0x51, 0xfc, 0xdf, 0xca, 0xfc, 0xa6, 0x30, 0xbd, 0x12,
  0xad, 0x3c, 0x24, 0x26, 0x97, 0xd8, 0x81, 0xa4, 0x13, 0x3c, 0x82, 0x01,
  0xbb, 0x11, 0xc3, 0x1b, 0x3b, 0x6f, 0x41, 0x5a, 0x0d, 0x2b, 0x9b, 0xef,
  0x70, 0x1b, 0xc1, 0xe6, 0x56, 0xa2, 0xa1, 0xb4, 0x14, 0x28, 0xb3, 0xf0,
  0x2e, 0xbd, 0xd9, 0x1b, 0x5e, 0x0f, 0xeb, 0xee, 0xe4, 0xb3, 0xf2, 0x45,
  0xb9, 0x03, 0xfc, 0x9b, 0xd4, 0x22, 0xf7, 0x3c, 0x87, 0x8a, 0x38, 0x1e,
  0xe1, 0x1d, 0x81, 0x0a, 0x37, 0x11, 0x6d, 0xdd, 0x0d, 0x23, 0xfd, 0x0a,
  0xe0, 0x07, 0x16, 0x07, 0xc9, 0x1c, 0x34, 0x04, 0x65, 0xfe, 0x45, 0x40,
  0x0e, 0x02, 0xc9, 0xc8, 0x35, 0x9d, 0x2f, 0xb7, 0x5d, 0xf6, 0x1d, 0xa5,
  0xc4, 0xfc, 0xc6, 0x00, 0xb9, 0xd9, 0x04, 0x30, 0x6c, 0xed, 0xf8, 0x29,
  0xe7, 0x3f, 0xe1, 0x10, 0xbf, 0xde, 0xf9, 0x1c, 0xe1, 0xb3, 0x81, 0xd9,
  0x33, 0xd7, 0x18, 0xaa, 0x3b, 0xc3, 0xd6, 0xd3, 0x31, 0x09, 0xde, 0xff,
  0x3c, 0xea, 0x91, 0xe9, 0x2e, 0x2e, 0x99, 0xea, 0xf3, 0x5c, 0x10, 0x39,
  0x2c, 0x28, 0xe4, 0xf0, 0x14, 0xe0, 0x3c, 0x66, 0xbf, 0xfd, 0x24, 0xeb,
  0x28, 0xf9, 0xd1, 0xb3, 0xa2, 0x06, 0xe2, 0x6f, 0xf6, 0x1b, 0xc3, 0x1c,
  0xcc, 0xec, 0xdf, 0xd6, 0xbe, 0x04, 0xd4, 0xc7, 0x3c, 0xc2, 0x34, 0xc4,
  0xfd, 0x2c, 0x7f, 0x43, 0x53, 0x2a, 0xc6, 0x5d, 0xc1, 0x2a, 0x28, 0x94,
  0xfb, 0xea, 0x06, 0x20, 0x56, 0xdf, 0x32, 0xda, 0xf4, 0xfb, 0x20, 0x14,
  0x8d, 0x40, 0xd3, 0xa3, 0xef, 0x44, 0x1f, 0x9f, 0x30, 0x12, 0xec, 0x9b,
  0xf2, 0x9c, 0x4b, 0xb0, 0x23, 0xe4, 0xb6, 0x33, 0x21, 0xcf, 0xe5, 0xe3,
  0xc1, 0x3b, 0x13, 0x3b, 0x23, 0xcc, 0xce, 0x2b, 0x20, 0x33, 0x28, 0xff,
  0xdf, 0x39, 0xe7, 0x33, 0x36, 0x2c, 0x81, 0xf6, 0xd5, 0xeb, 0xb6, 0x19,
  0x29, 0xb1, 0xde, 0x04, 0xee, 0xd7, 0x00, 0xd4, 0x34, 0x67, 0x10, 0x0e,
  0x3a, 0x1c, 0x03, 0xec, 0x4e, 0x23, 0x61, 0x23, 0xed, 0x67, 0x25, 0x68,
  0xde, 0x4a, 0xb2, 0xff, 0xca, 0x66, 0xfa, 0xe5, 0x53, 0x72, 0x0f, 0x22,
  0x14, 0xd0, 0xc2, 0xcf, 0xf7, 0x43, 0xfc, 0x62, 0xe0, 0x52, 0x33, 0x1b,
  0x43, 0x19, 0xb4, 0xc8, 0x7e, 0xff, 0xde, 0xe7, 0x2b, 0xe8, 0xf1, 0xb1,
  0x35, 0x1c, 0xd1, 0x38, 0x64, 0x63, 0x3c, 0x81, 0x0f, 0x40, 0xf3, 0x3c,
  0xee, 0xb0, 0xbb, 0xfc, 0x4c, 0xbb, 0xea, 0xa3, 0x18, 0x59, 0xfe, 0x4c,
  0xcc, 0xb3, 0xe2, 0x6f, 0x1e, 0xd5, 0xee, 0x19, 0xfe, 0x78, 0x20, 0xeb,
  0xb4, 0x1a, 0xf5, 0xf4, 0x0e, 0x22, 0x22, 0xeb, 0x0e, 0x95, 0x02, 0xbe,
  0xb0, 0xe8, 0x0b, 0x4f, 0x05, 0xa7, 0xb8, 0xfb, 0xe4, 0x57, 0xa3, 0x26,
  0xc8, 0x61, 0x6a, 0xd6, 0xaa, 0xeb, 0x81, 0x52, 0xb0, 0x39, 0x7e, 0xd3,
  0xfc, 0xbb, 0x92, 0x43, 0xd0, 0xf8, 0xc4, 0xdf, 0xe4, 0xdb, 0x59, 0xf6,
  0x39, 0x63, 0x32, 0x2b, 0xf5, 0x0f, 0x15, 0xf0, 0x2e, 0xce, 0x5b, 0x7f,
  0x4f, 0x0a, 0x48, 0x0f, 0xc6, 0x7e, 0x57, 0xc1, 0x16, 0x30, 0xe4, 0xf8,
  0xaa, 0xf0, 0xd5, 0x5e, 0x1f, 0xf3, 0xbd, 0x29, 0xaf, 0xc9, 0xaa, 0x02,
  0xc9, 0x86, 0xb2, 0x66, 0x15, 0x11, 0x21, 0xd7, 0xe0, 0x48, 0xed, 0xf0,
  0x25, 0xd2, 0x51, 0xfb, 0xd6, 0x2a, 0xb0, 0x31, 0x6e, 0xa3, 0xe0, 0xf3,
  0xbf, 0x35, 0xec, 0x5d, 0x4e, 0xea, 0xf4, 0x81, 0x53, 0xed, 0x1b, 0x99,
  0x1b, 0xe1, 0xf8, 0x8c, 0xcf, 0x2f, 0xae, 0x1e, 0x44, 0xcc, 0x3c, 0xd3,
  0x5a, 0x03, 0xcb, 0xbf, 0x9c, 0x20, 0xe7, 0xbc, 0xe2, 0x31, 0x4f, 0x9f,
  0x49, 0x0b, 0x79, 0x0f, 0x17, 0x91, 0x3e, 0xb4, 0xe8, 0xbb, 0x18, 0xe7,
  0x37, 0xb6, 0x04, 0xce, 0xdf, 0xe2, 0x33, 0x35, 0x08, 0xc7, 0xa8, 0x05,
  0xe5, 0x47, 0x38, 0x04, 0x2e, 0x4d, 0x29, 0x1d, 0xa4, 0x45, 0x91, 0xff,
  0x47, 0xfb, 0xef, 0xc1, 0xdb, 0xd2, 0x8b, 0x81, 0xe2, 0xf5, 0x39, 0xdb,
  0x6c, 0x0a, 0xfe, 0xb1, 0xd9, 0x0a, 0xfb, 0x15, 0x4c, 0xb0, 0x5f, 0xeb,
  0x5c, 0xbe, 0x8d, 0xd5, 0x41, 0xbe, 0xd3, 0x28, 0x24, 0xda, 0xbf, 0xce,
  0x02, 0xc3, 0xc4, 0xc2, 0xad, 0xc0, 0xeb, 0xcf, 0x5d, 0xea, 0x0a, 0xc7,
  0xd9, 0xfd, 0xb7, 0x0a, 0xba, 0x3d, 0xf6, 0xb8, 0xae, 0x36, 0x1d, 0xf8,
  0xc9, 0x83, 0x00, 0xbb, 0x44, 0xa9, 0x37, 0xad, 0x71, 0x16, 0xce, 0xa7,
  0x0b, 0xff, 0x11, 0x41, 0xce, 0x19, 0xf1, 0x0a, 0xcb, 0x04, 0xbe, 0x29,
  0x1a, 0xc8, 0xfc, 0x2d, 0x53, 0x46, 0x33, 0xcc, 0x5c, 0xea, 0xb4, 0x5d,
  0x36, 0x79, 0x05, 0x40, 0xf2, 0xa7, 0x2e, 0x15, 0xa0, 0xf3, 0x7f, 0xdc,
  0x7c, 0xa5, 0x3c, 0x17, 0xf3, 0x6e, 0xfd, 0x42, 0xea, 0x39, 0x20, 0x2c,
  0x4d, 0x46, 0x43, 0xde, 0xe4, 0x4a, 0x5c, 0xc7, 0x25, 0x3d, 0x1f, 0x40,
  0xd9, 0x19, 0x13, 0x44, 0xb6, 0x31, 0x03, 0x01, 0xb3, 0x7f, 0xf5, 0x38,
  0xfc, 0xde, 0xd4, 0x03, 0x50, 0x23, 0xef, 0x15, 0x04, 0x53, 0xcb, 0x0c,
  0xcb, 0xe9, 0x89, 0xc4, 0x30, 0x2f, 0xda, 0x54, 0x12, 0x23, 0xf6, 0xc1,
  0x6f, 0xad, 0xea, 0x1b, 0x89, 0x1d, 0x56, 0xe4, 0xe6, 0xd9, 0x2f, 0x3d,
  0x36, 0xda, 0x19, 0xd9, 0xd6, 0xdf, 0x03, 0x1a, 0x25, 0x01, 0x11, 0xd9,
  0xef, 0x62, 0x24, 0xc7, 0x4b, 0x0b, 0x29, 0x0e, 0x7f, 0x96, 0xd1, 0x52,
  0x09, 0xbb, 0x03, 0x14, 0x3d, 0xf7, 0xe0, 0xdc, 0x39, 0xd0, 0x32, 0xcb,
  0xd3, 0xca, 0x1a, 0xc4, 0x08, 0xb5, 0x7b, 0x4f, 0x9f, 0x98, 0x4a, 0x08,
  0xcc, 0xab, 0x37, 0xee, 0xa0, 0x3c, 0x5a, 0xe5, 0xc4, 0x8e, 0x0e, 0x70,
  0xa3, 0xf5, 0x2d, 0x23, 0x2a, 0x3b, 0x09, 0xb7, 0x45, 0x1b, 0xca, 0x3f,
  0x50, 0xf5, 0x81, 0xa0, 0xb7, 0x23, 0xd0, 0x86, 0x29, 0xba, 0xbf, 0xdd,
  0x4a, 0xc4, 0xb7, 0x48, 0xc1, 0xdd, 0x38, 0x2c, 0xdc, 0xc1, 0xf8, 0x1a,
  0x72, 0x0c, 0xd3, 0x47, 0x20, 0x7a, 0x1a, 0x22, 0xec, 0x43, 0xca, 0x21,
  0x24, 0x03, 0x31, 0xcd, 0x1b, 0x07, 0xda, 0x17, 0x53, 0xc7, 0xe0, 0x2b,
  0xc4, 0xed, 0xa8, 0x2b, 0x18, 0x28, 0x12, 0x02, 0xd3, 0x5c, 0xdc, 0xda,
  0x1f, 0x20, 0xd0, 0x2e, 0xef, 0x19, 0x4f, 0x7d, 0xea, 0xe7, 0xbe, 0x28,
  0xf9, 0xca, 0x4d, 0xa8, 0x1d, 0xc0, 0xd8, 0xe0, 0x81, 0x04, 0x4b, 0xab,
  0xc9, 0x28, 0x1b, 0x15, 0x48, 0xe6, 0x38, 0xe5, 0xf0, 0x7a, 0x6c, 0xe4,
  0x56, 0xd7, 0x0f, 0xdc, 0x87, 0xbc, 0xa2, 0xd6, 0xec, 0x75, 0x4e, 0x03,
  0x55, 0x34, 0xbb, 0x24, 0x48, 0x4d, 0x1d, 0x09, 0xe7, 0x05, 0x82, 0xe9,
  0xb6, 0x1b, 0x65, 0x06, 0x18, 0xb9, 0xad, 0xc3, 0xfe, 0xf4, 0xff, 0xff,
  0x04, 0x00, 0x00, 0x00, 0x00, 0x02, 0x00, 0x00, 0xd0, 0x06, 0x00, 0x00,
  0x9e, 0x04, 0x00, 0x00, 0x0e, 0x03, 0x00, 0x00, 0x9f, 0xfd, 0xff, 0xff,
  0x67, 0x04, 0x00, 0x00, 0x96, 0xf9, 0xff, 0xff, 0xfa, 0xfa, 0xff, 0xff,
  0xdc, 0x02, 0x00, 0x00, 0x25, 0x02, 0x00, 0x00, 0xcf, 0xf9, 0xff, 0xff,
  0x2b, 0x02, 0x00, 0x00, 0xbe, 0x06, 0x00, 0x00, 0xe2, 0x03, 0x00, 0x00,
  0x93, 0x00, 0x00, 0x00, 0x12, 0xf9, 0xff, 0xff, 0x0e, 0x01, 0x00, 0x00,
  0x46, 0x02, 0x00, 0x00, 0xd2, 0xfd, 0xff, 0xff, 0x5f, 0xfb, 0xff, 0xff,
  0xb6, 0x0b, 0x00, 0x00, 0xde, 0xff, 0xff, 0xff, 0xe2, 0x09, 0x00, 0x00,
  0x6f, 0xf9, 0xff, 0xff, 0xa8, 0x02, 0x00, 0x00, 0xfd, 0xfc, 0xff, 0xff,
  0xdd, 0xfb, 0xff, 0xff, 0xec, 0x02, 0x00, 0x00, 0x10, 0x02, 0x00, 0x00,
  0x97, 0xfc, 0xff, 0xff, 0x42, 0xfe, 0xff, 0xff, 0xc3, 0xfe, 0xff, 0xff,
  0x4b, 0x05, 0x00, 0x00, 0x61, 0x04, 0x00, 0x00, 0x07, 0x06, 0x00, 0x00,
  0x30, 0x03, 0x00, 0x00, 0x04, 0x03, 0x00, 0x00, 0x36, 0x03, 0x00, 0x00,
  0xb0, 0xfa, 0xff, 0xff, 0xf7, 0x00, 0x00, 0x00, 0x4b, 0xfe, 0xff, 0xff,
  0x31, 0x04, 0x00, 0x00, 0x18, 0x00, 0x00, 0x00, 0x9e, 0xfe, 0xff, 0xff,
  0xa4, 0x01, 0x00, 0x00, 0xe5, 0x04, 0x00, 0x00, 0x5e, 0xf9, 0xff, 0xff,
  0x95, 0x04, 0x00, 0x00, 0xf6, 0xfc, 0xff, 0xff, 0x46, 0x02, 0x00, 0x00,
  0x8f, 0x08, 0x00, 0x00, 0x93, 0xfe, 0xff, 0xff, 0xda, 0x06, 0x00, 0x00,
  0x22, 0xfd, 0xff, 0xff, 0x13, 0x03, 0x00, 0x00, 0xd3, 0xff, 0xff, 0xff,
  0x89, 0x02, 0x00, 0x00, 0x96, 0x05, 0x00, 0x00, 0x55, 0x06, 0x00, 0x00,
  0xac, 0xf9, 0xff, 0xff, 0x24, 0xfb, 0xff, 0xff, 0x13, 0xfc, 0xff, 0xff,
  0x59, 0x05, 0x00, 0x00, 0xd6, 0x01, 0x00, 0x00, 0x54, 0xfe, 0xff, 0xff,
  0xca, 0x05, 0x00, 0x00, 0x3a, 0x01, 0x00, 0x00, 0x6f, 0xff, 0xff, 0xff,
  0xd5, 0xfd, 0xff, 0xff, 0x1c, 0x00, 0x00, 0x00, 0xd5, 0x03, 0x00, 0x00,
  0x66, 0xfe, 0xff, 0xff, 0x88, 0xfd, 0xff, 0xff, 0xb7, 0xf8, 0xff, 0xff,
  0x58, 0xf8, 0xff, 0xff, 0x8e, 0x03, 0x00, 0x00, 0x86, 0xfb, 0xff, 0xff,
  0xbc, 0x03, 0x00, 0x00, 0x76, 0x01, 0x00, 0x00, 0x13, 0xfc, 0xff, 0xff,
  0x90, 0xfc, 0xff, 0xff, 0x28, 0x09, 0x00, 0x00, 0xd2, 0xfc, 0xff, 0xff,
  0xa1, 0x02, 0x00, 0x00, 0x16, 0xf9, 0xff, 0xff, 0x84, 0xff, 0xff, 0xff,
  0xe1, 0x00, 0x00, 0x00, 0x9e, 0x05, 0x00, 0x00, 0xfb, 0xf5, 0xff, 0xff,
  0xfd, 0x04, 0x00, 0x00, 0x3e, 0xf8, 0xff, 0xff, 0x71, 0xfc, 0xff, 0xff,
  0xe7, 0xf9, 0xff, 0xff, 0x81, 0x04, 0x00, 0x00, 0x8a, 0xff, 0xff, 0xff,
  0xe5, 0x02, 0x00, 0x00, 0x69, 0xf9, 0xff, 0xff, 0x3f, 0x03, 0x00, 0x00,
  0x25, 0x01, 0x00, 0x00, 0x3f, 0x05, 0x00, 0x00, 0x3b, 0x07, 0x00, 0x00,
  0xb5, 0x05, 0x00, 0x00, 0xfe, 0x03, 0x00, 0x00, 0xa1, 0xff, 0xff, 0xff,
  0x97, 0x06, 0x00, 0x00, 0x46, 0xff, 0xff, 0xff, 0x67, 0x04, 0x00, 0x00,
  0x6a, 0x03, 0x00, 0x00, 0x9e, 0x03, 0x00, 0x00, 0xdb, 0xfc, 0xff, 0xff,
  0xad, 0x06, 0x00, 0x00, 0x27, 0xfb, 0xff, 0xff, 0x7c, 0xff, 0xff, 0xff,
  0x6e, 0x0a, 0x00, 0x00, 0x64, 0x05, 0x00, 0x00, 0xcd, 0x09, 0x00, 0x00,
  0x95, 0x05, 0x00, 0x00, 0x54, 0x00, 0x00, 0x00, 0x3b, 0x05, 0x00, 0x00,
  0x49, 0x00, 0x00, 0x00, 0xfe, 0xfa, 0xff, 0xff, 0xe7, 0xfb, 0xff, 0xff,
  0x43, 0x01, 0x00, 0x00, 0xcb, 0x08, 0x00, 0x00, 0xae, 0xf7, 0xff, 0xff,
  0x25, 0xfd, 0xff, 0xff, 0x48, 0x00, 0x00, 0x00, 0xd1, 0x03, 0x00, 0x00,
  0x11, 0xf7, 0xff, 0xff, 0x0a, 0xf7, 0xff, 0xff, 0x04, 0x00, 0x00, 0x00,
  0x00, 0x08, 0x00, 0x00, 0x2a, 0x40, 0x5d, 0xf8, 0xd0, 0x7f, 0xf2, 0x36,
  0x49, 0x4d, 0xe9, 0x00, 0x11, 0xa9, 0x2c, 0x11, 0x1f, 0xe6, 0xdb, 0x2e,
  0xe3, 0xbd, 0x18, 0xed, 0x08, 0xe3, 0xc5, 0x12, 0x0e, 0xb3, 0xe5, 0x9f,
  0xeb, 0x00, 0xab, 0x67, 0xef, 0x6c, 0x28, 0xbc, 0xd2, 0xe1, 0xfe, 0x44,
  0x92, 0x53, 0xfc, 0x42, 0xf8, 0xf0, 0xe0, 0x32, 0xdf, 0x1f, 0x46, 0xc7,
  0x31, 0x12, 0x10, 0xcf, 0xd5, 0xd9, 0xae, 0x3d, 0xe1, 0x15, 0x1e, 0x4d,
  0x1e, 0xd6, 0x63, 0x61, 0x5f, 0xc6, 0x4e, 0x6b, 0xce, 0x27, 0x2c, 0x00,
  0x49, 0x7f, 0xc9, 0xf1, 0x2a, 0x4d, 0x4d, 0xd2, 0x48, 0xcf, 0xff, 0xc8,
  0xf2, 0x70, 0xa4, 0x6b, 0x2a, 0x14, 0x00, 0xf1, 0xd0, 0xe5, 0x0f, 0xdb,
  0xc0, 0x99, 0xe9, 0x44, 0x5e, 0x11, 0x27, 0x07, 0x95, 0x2e, 0x1d, 0x12,
  0xd8, 0x09, 0x21, 0x75, 0x58, 0x11, 0x5b, 0xb2, 0x20, 0xc2, 0xac, 0x1d,
  0x21, 0x44, 0x15, 0xe5, 0x5f, 0xf9, 0xc5, 0xe3, 0x41, 0xc4, 0x56, 0xf8,
  0x55, 0x4b, 0xd1, 0xe0, 0x17, 0xb8, 0x2b, 0x3f, 0xb4, 0x13, 0x13, 0x1e,
  0xc1, 0x1c, 0x0b, 0x7f, 0xf6, 0x27, 0xff, 0x5f, 0x03, 0x15, 0xdd, 0xf3,
  0x5f, 0xbd, 0x5f, 0x11, 0x64, 0x3a, 0xdd, 0x1c, 0x6f, 0xe8, 0x3f, 0xfc,
  0x5b, 0xd6, 0xca, 0x2b, 0xb2, 0xd4, 0xd3, 0x08, 0xf9, 0x3c, 0xc3, 0xe9,
  0xc5, 0xcd, 0x3b, 0xd7, 0x2c, 0xcd, 0xfa, 0xbc, 0x37, 0x57, 0xfb, 0xeb,
  0xba, 0x1d, 0xc9, 0xea, 0x1e, 0xce, 0x46, 0xca, 0x7b, 0xa8, 0x79, 0x31,
  0xcd, 0x41, 0x1c, 0xaf, 0x24, 0x09, 0xf8, 0xb2, 0x66, 0xee, 0x53, 0xfb,
