#ifndef FALL_DETECTION_V2_H
#define FALL_DETECTION_V2_H

const unsigned char fall_detection_v2_tflite[] = {
  0x1c, 0x00, 0x00, 0x00, 0x54, 0x46, 0x4c, 0x33, 0x14, 0x00, 0x20, 0x00,
  0x1c, 0x00, 0x18, 0x00, 0x14, 0x00, 0x10, 0x00, 0x0c, 0x00, 0x00, 0x00,
  0x08, 0x00, 0x04, 0x00, 0x14, 0x00, 0x00, 0x00, 0x1c, 0x00, 0x00, 0x00,
  0x8c, 0x00, 0x00, 0x00, 0xe4, 0x00, 0x00, 0x00, 0xfc, 0x0f, 0x00, 0x00,
  0x0c, 0x10, 0x00, 0x00, 0xec, 0x4d, 0x00, 0x00, 0x03, 0x00, 0x00, 0x00,
  0x01, 0x00, 0x00, 0x00, 0x04, 0x00, 0x00, 0x00, 0x66, 0xeb, 0xff, 0xff,
  0x0c, 0x00, 0x00, 0x00, 0x1c, 0x00, 0x00, 0x00, 0x3c, 0x00, 0x00, 0x00,
  0x0f, 0x00, 0x00, 0x00, 0x73, 0x65, 0x72, 0x76, 0x69, 0x6e, 0x67, 0x5f,
  0x64, 0x65, 0x66, 0x61, 0x75, 0x6c, 0x74, 0x00, 0x01, 0x00, 0x00, 0x00,
  0x04, 0x00, 0x00, 0x00, 0x90, 0xff, 0xff, 0xff, 0x34, 0x00, 0x00, 0x00,
  0x04, 0x00, 0x00, 0x00, 0x08, 0x00, 0x00, 0x00, 0x6f, 0x75, 0x74, 0x70,
  0x75, 0x74, 0x5f, 0x30, 0x00, 0x00, 0x00, 0x00, 0x01, 0x00, 0x00, 0x00,
  0x04, 0x00, 0x00, 0x00, 0x8a, 0xf0, 0xff, 0xff, 0x04, 0x00, 0x00, 0x00,
  0x0c, 0x00, 0x00, 0x00, 0x6b, 0x65, 0x72, 0x61, 0x73, 0x5f, 0x74, 0x65,
  0x6e, 0x73, 0x6f, 0x72, 0x00, 0x00, 0x00, 0x00, 0x02, 0x00, 0x00, 0x00,
  0x34, 0x00, 0x00, 0x00, 0x04, 0x00, 0x00, 0x00, 0xdc, 0xff, 0xff, 0xff,
  0x37, 0x00, 0x00, 0x00, 0x04, 0x00, 0x00, 0x00, 0x13, 0x00, 0x00, 0x00,
  0x43, 0x4f, 0x4e, 0x56, 0x45, 0x52, 0x53, 0x49, 0x4f, 0x4e, 0x5f, 0x4d,
  0x45, 0x54, 0x41, 0x44, 0x41, 0x54, 0x41, 0x00, 0x08, 0x00, 0x0c, 0x00,
  0x08, 0x00, 0x04, 0x00, 0x08, 0x00, 0x00, 0x00, 0x36, 0x00, 0x00, 0x00,
  0x04, 0x00, 0x00, 0x00, 0x13, 0x00, 0x00, 0x00, 0x6d, 0x69, 0x6e, 0x5f,
  0x72, 0x75, 0x6e, 0x74, 0x69, 0x6d, 0x65, 0x5f, 0x76, 0x65, 0x72, 0x73,
  0x69, 0x6f, 0x6e, 0x00, 0x38, 0x00, 0x00, 0x00, 0x14, 0x0f, 0x00, 0x00,
  0x0c, 0x0f, 0x00, 0x00, 0xf8, 0x0e, 0x00, 0x00, 0xd4, 0x0e, 0x00, 0x00,
  0xc0, 0x0e, 0x00, 0x00, 0xa4, 0x0e, 0x00, 0x00, 0x88, 0x0e, 0x00, 0x00,
  0x6c, 0x0e, 0x00, 0x00, 0x50, 0x0e, 0x00, 0x00, 0x3c, 0x0e, 0x00, 0x00,
  0x1c, 0x0e, 0x00, 0x00, 0xcc, 0x0d, 0x00, 0x00, 0xbc, 0x0b, 0x00, 0x00,
  0x8c, 0x0b, 0x00, 0x00, 0x5c, 0x0b, 0x00, 0x00, 0xcc, 0x0a, 0x00, 0x00,
  0xbc, 0x04, 0x00, 0x00, 0x9c, 0x04, 0x00, 0x00, 0x7c, 0x04, 0x00, 0x00,
  0x2c, 0x04, 0x00, 0x00, 0x9c, 0x02, 0x00, 0x00, 0x84, 0x02, 0x00, 0x00,
  0x6c, 0x02, 0x00, 0x00, 0x3c, 0x02, 0x00, 0x00, 0x9c, 0x01, 0x00, 0x00,
  0x84, 0x01, 0x00, 0x00, 0x6c, 0x01, 0x00, 0x00, 0x64, 0x01, 0x00, 0x00,
  0x5c, 0x01, 0x00, 0x00, 0x54, 0x01, 0x00, 0x00, 0x4c, 0x01, 0x00, 0x00,
  0x44, 0x01, 0x00, 0x00, 0x3c, 0x01, 0x00, 0x00, 0x34, 0x01, 0x00, 0x00,
  0x2c, 0x01, 0x00, 0x00, 0x24, 0x01, 0x00, 0x00, 0x1c, 0x01, 0x00, 0x00,
  0x14, 0x01, 0x00, 0x00, 0x0c, 0x01, 0x00, 0x00, 0x04, 0x01, 0x00, 0x00,
  0xfc, 0x00, 0x00, 0x00, 0xf4, 0x00, 0x00, 0x00, 0xec, 0x00, 0x00, 0x00,
  0xe4, 0x00, 0x00, 0x00, 0xdc, 0x00, 0x00, 0x00, 0xd4, 0x00, 0x00, 0x00,
  0xcc, 0x00, 0x00, 0x00, 0xc4, 0x00, 0x00, 0x00, 0xbc, 0x00, 0x00, 0x00,
  0xb4, 0x00, 0x00, 0x00, 0xac, 0x00, 0x00, 0x00, 0xa4, 0x00, 0x00, 0x00,
  0x9c, 0x00, 0x00, 0x00, 0x94, 0x00, 0x00, 0x00, 0x74, 0x00, 0x00, 0x00,
  0x04, 0x00, 0x00, 0x00, 0xe6, 0xf1, 0xff, 0xff, 0x04, 0x00, 0x00, 0x00,
  0x60, 0x00, 0x00, 0x00, 0x0c, 0x00, 0x00, 0x00, 0x08, 0x00, 0x0e, 0x00,
  0x08, 0x00, 0x04, 0x00, 0x08, 0x00, 0x00, 0x00, 0x10, 0x00, 0x00, 0x00,
  0x28, 0x00, 0x00, 0x00, 0x00, 0x00, 0x06, 0x00, 0x08, 0x00, 0x04, 0x00,
  0x06, 0x00, 0x00, 0x00, 0x04, 0x00, 0x00, 0x00, 0x01, 0x00, 0x00, 0x00,
  0xeb, 0x03, 0x00, 0x00, 0x0c, 0x00, 0x18, 0x00, 0x14, 0x00, 0x10, 0x00,
  0x0c, 0x00, 0x04, 0x00, 0x0c, 0x00, 0x00, 0x00, 0x14, 0x35, 0x02, 0x0d,
  0xf5, 0xa4, 0x75, 0xe2, 0x02, 0x00, 0x00, 0x00, 0x02, 0x00, 0x00, 0x00,
  0x04, 0x00, 0x00, 0x00, 0x06, 0x00, 0x00, 0x00, 0x32, 0x2e, 0x32, 0x31,
  0x2e, 0x30, 0x00, 0x00, 0x52, 0xf2, 0xff, 0xff, 0x04, 0x00, 0x00, 0x00,
  0x10, 0x00, 0x00, 0x00, 0x31, 0x2e, 0x31, 0x34, 0x2e, 0x30, 0x00, 0x00,
  0x00, 0x00, 0x00, 0x00, 0x00, 0x00, 0x00, 0x00, 0x24, 0xb5, 0xff, 0xff,
  0x28, 0xb5, 0xff, 0xff, 0x2c, 0xb5, 0xff, 0xff, 0x30, 0xb5, 0xff, 0xff,
  0x34, 0xb5, 0xff, 0xff, 0x38, 0xb5, 0xff, 0xff, 0x3c, 0xb5, 0xff, 0xff,
  0x40, 0xb5, 0xff, 0xff, 0x44, 0xb5, 0xff, 0xff, 0x48, 0xb5, 0xff, 0xff,
  0x4c, 0xb5, 0xff, 0xff, 0x50, 0xb5, 0xff, 0xff, 0x54, 0xb5, 0xff, 0xff,
  0x58, 0xb5, 0xff, 0xff, 0x5c, 0xb5, 0xff, 0xff, 0x60, 0xb5, 0xff, 0xff,
  0x64, 0xb5, 0xff, 0xff, 0x68, 0xb5, 0xff, 0xff, 0x6c, 0xb5, 0xff, 0xff,
  0x70, 0xb5, 0xff, 0xff, 0x74, 0xb5, 0xff, 0xff, 0x78, 0xb5, 0xff, 0xff,
  0x7c, 0xb5, 0xff, 0xff, 0x80, 0xb5, 0xff, 0xff, 0x84, 0xb5, 0xff, 0xff,
  0x88, 0xb5, 0xff, 0xff, 0x8c, 0xb5, 0xff, 0xff, 0xda, 0xf2, 0xff, 0xff,
  0x04, 0x00, 0x00, 0x00, 0x06, 0x00, 0x00, 0x00, 0x80, 0x8a, 0x86, 0xe5,
  0x9a, 0x7f, 0x00, 0x00, 0xee, 0xf2, 0xff, 0xff, 0x04, 0x00, 0x00, 0x00,
  0x06, 0x00, 0x00, 0x00, 0x7f, 0x47, 0x78, 0x81, 0x82, 0x81, 0x00, 0x00,
  0x02, 0xf3, 0xff, 0xff, 0x04, 0x00, 0x00, 0x00, 0x90, 0x00, 0x00, 0x00,
  0x37, 0xc7, 0x51, 0xdf, 0x10, 0xd8, 0xec, 0xd2, 0x7f, 0x97, 0x0a, 0x65,
  0xf1, 0xc5, 0x2e, 0x93, 0xfa, 0xf7, 0xb5, 0x62, 0x99, 0xbe, 0xf8, 0x15,
  0xc4, 0xee, 0xe5, 0xcf, 0xaf, 0x81, 0xd0, 0xff, 0x16, 0xea, 0xca, 0x10,
  0x22, 0x35, 0x67, 0x91, 0xc6, 0x32, 0x5e, 0xe1, 0x64, 0x81, 0x96, 0xe9,
  0xc7, 0x3e, 0xde, 0x38, 0x9f, 0x15, 0xd0, 0xcb, 0x1b, 0x1b, 0x1a, 0x99,
  0x81, 0x1e, 0xd2, 0xc0, 0x9c, 0x36, 0x4d, 0xa5, 0xd4, 0x42, 0x06, 0xd0,
  0xff, 0x3c, 0xbe, 0x4c, 0x82, 0xf5, 0x6d, 0xbe, 0x56, 0x60, 0x24, 0x26,
  0xa9, 0x7f, 0xfd, 0xde, 0x43, 0x67, 0x27, 0x50, 0xc9, 0xcf, 0xdf, 0x17,
  0xd4, 0xc6, 0x18, 0x3c, 0x4d, 0x7f, 0x36, 0x00, 0xfa, 0xc0, 0xdf, 0xe9,
  0x3f, 0xf3, 0xba, 0xce, 0xca, 0xbb, 0x6d, 0x0e, 0x1e, 0x7f, 0xf2, 0x22,
  0x17, 0x0b, 0xcf, 0x1a, 0x73, 0xc7, 0x81, 0x48, 0xd2, 0xd8, 0x04, 0x1e,
  0x3b, 0xc9, 0x39, 0xea, 0x43, 0xe2, 0x29, 0xbf, 0x3d, 0x2c, 0xb0, 0x24,
  0x9e, 0xf3, 0xff, 0xff, 0x04, 0x00, 0x00, 0x00, 0x20, 0x00, 0x00, 0x00,
  0xc3, 0xff, 0xff, 0xff, 0x3c, 0x00, 0x00, 0x00, 0xb7, 0xff, 0xff, 0xff,
  0xb6, 0x00, 0x00, 0x00, 0x37, 0x00, 0x00, 0x00, 0xba, 0xff, 0xff, 0xff,
  0xc5, 0xff, 0xff, 0xff, 0x56, 0x00, 0x00, 0x00, 0xca, 0xf3, 0xff, 0xff,
  0x04, 0x00, 0x00, 0x00, 0x08, 0x00, 0x00, 0x00, 0x19, 0xf6, 0xea, 0x15,
  0x42, 0x76, 0x7f, 0x40, 0xde, 0xf3, 0xff, 0xff, 0x04, 0x00, 0x00, 0x00,
  0x08, 0x00, 0x00, 0x00, 0x1f, 0x03, 0x1b, 0x80, 0xe7, 0x10, 0xf7, 0xc4,
  0xf2, 0xf3, 0xff, 0xff, 0x04, 0x00, 0x00, 0x00, 0x80, 0x01, 0x00, 0x00,
  0x4a, 0xe2, 0xe2, 0x49, 0x9c, 0x0a, 0xf2, 0xe1, 0xc5, 0x12, 0xad, 0xe5,
  0x21, 0xae, 0x22, 0x9a, 0xc4, 0x33, 0x59, 0x18, 0xb0, 0x30, 0x27, 0x81,
  0x67, 0x33, 0x22, 0x16, 0x08, 0xfe, 0x60, 0xe6, 0x46, 0xd0, 0xee, 0x3d,
  0x1e, 0x8f, 0xed, 0xbc, 0x1c, 0x7f, 0xe1, 0x3b, 0xf2, 0xee, 0x3e, 0x53,
  0xd2, 0xc4, 0xd4, 0x00, 0xec, 0x2f, 0xa4, 0xd7, 0x42, 0x08, 0x35, 0xb1,
  0xba, 0x17, 0xc1, 0xfe, 0x46, 0x4b, 0x19, 0xce, 0x81, 0xb1, 0xbb, 0xdb,
  0x07, 0xc6, 0x3d, 0x3f, 0x0c, 0x81, 0xff, 0x2b, 0xbf, 0xa2, 0x2c, 0x1f,
  0x0a, 0x8a, 0x14, 0xde, 0x94, 0xb0, 0x24, 0xf0, 0xd0, 0x04, 0x2f, 0xf0,
  0xab, 0xad, 0x05, 0xd3, 0xd1, 0x08, 0x9a, 0x36, 0x25, 0xf4, 0xe1, 0x2d,
  0xee, 0xdf, 0x81, 0xc7, 0xdb, 0xb5, 0x37, 0x26, 0x22, 0xff, 0x9b, 0x29,
  0x37, 0x7f, 0x29, 0xcf, 0x37, 0x3f, 0x7f, 0x7f, 0x97, 0xe6, 0xed, 0xbf,
  0xe5, 0x3b, 0x5c, 0xf4, 0x45, 0x3d, 0x9c, 0x1d, 0x96, 0xac, 0xe8, 0x48,
  0x90, 0x7f, 0x63, 0xd0, 0xad, 0x4f, 0x9d, 0x58, 0x77, 0x97, 0x37, 0x03,
  0x37, 0xa4, 0xb8, 0xbc, 0x2d, 0xf6, 0x3d, 0xd4, 0x45, 0x5e, 0x23, 0x0c,
  0x27, 0xe3, 0x50, 0x8f, 0x5f, 0xa4, 0x46, 0xad, 0x9a, 0x43, 0xb4, 0x96,
  0xd0, 0x4f, 0x41, 0x42, 0xbd, 0x45, 0xe0, 0x8e, 0x48, 0x7f, 0x9d, 0xbe,
  0x2a, 0xa7, 0xad, 0xd1, 0x79, 0xf7, 0xe4, 0x08, 0x11, 0x08, 0x21, 0xf2,
  0xf1, 0x3b, 0xbd, 0x50, 0x7f, 0xfe, 0x2b, 0xce, 0x3e, 0xc3, 0xdf, 0x58,
  0x22, 0x9e, 0xc1, 0x56, 0x96, 0x17, 0x9a, 0x3c, 0x7b, 0x3f, 0x09, 0x98,
  0x77, 0x5e, 0x1a, 0x04, 0x47, 0x5f, 0x81, 0x17, 0x16, 0xa7, 0xaf, 0x07,
  0xa7, 0xce, 0x82, 0xf1, 0x20, 0xc8, 0x17, 0xca, 0xe5, 0xa9, 0x25, 0x60,
  0x8e, 0xfb, 0xd0, 0x33, 0x27, 0x32, 0x83, 0x1c, 0xa1, 0x7f, 0x86, 0xd6,
  0xa9, 0x30, 0xf5, 0x4f, 0x7a, 0xb6, 0x0e, 0x3a, 0x2f, 0xdb, 0x19, 0x0d,
  0xa8, 0x1e, 0x4a, 0xa8, 0x81, 0x51, 0xac, 0x47, 0xc9, 0xea, 0x2e, 0x1e,
  0x81, 0x6b, 0xc9, 0x72, 0x4c, 0x9d, 0x0e, 0x18, 0xd1, 0xa5, 0x63, 0xed,
  0x7a, 0xc7, 0x43, 0x08, 0x11, 0xe9, 0x13, 0x3e, 0xc0, 0xc5, 0x16, 0x05,
  0x2a, 0xa6, 0xf9, 0xf8, 0xbe, 0x81, 0xa4, 0x26, 0x9f, 0x40, 0xc7, 0x2a,
  0x37, 0x09, 0x5b, 0x6f, 0x4b, 0x98, 0xd8, 0x3b, 0x36, 0x34, 0x38, 0xd5,
  0x2a, 0x1a, 0xe6, 0xea, 0xca, 0x81, 0xe3, 0x5f, 0xc0, 0xa1, 0x01, 0xbe,
  0x4d, 0x40, 0xfc, 0xb3, 0xd9, 0x38, 0x41, 0xbe, 0x9e, 0xc7, 0xf2, 0xd8,
  0xe0, 0x7f, 0xec, 0x33, 0x64, 0xeb, 0x1f, 0xf2, 0xc6, 0x29, 0x2a, 0x15,
  0xf1, 0xf8, 0xe2, 0x2f, 0x5d, 0xfa, 0xbd, 0xdb, 0x30, 0xff, 0xd6, 0x94,
  0x7e, 0xf5, 0xff, 0xff, 0x04, 0x00, 0x00, 0x00, 0x40, 0x00, 0x00, 0x00,
  0xf7, 0xff, 0xff, 0xff, 0x42, 0x00, 0x00, 0x00, 0xc6, 0xff, 0xff, 0xff,
  0xa4, 0xff, 0xff, 0xff, 0xbc, 0xff, 0xff, 0xff, 0xb6, 0xff, 0xff, 0xff,
  0xb8, 0xff, 0xff, 0xff, 0x11, 0x00, 0x00, 0x00, 0xe5, 0xff, 0xff, 0xff,
  0x9e, 0xff, 0xff, 0xff, 0x1f, 0xff, 0xff, 0xff, 0x49, 0xff, 0xff, 0xff,
  0x9e, 0xff, 0xff, 0xff, 0xa5, 0xff, 0xff, 0xff, 0x0e, 0x00, 0x00, 0x00,
  0xc7, 0xff, 0xff, 0xff, 0xca, 0xf5, 0xff, 0xff, 0x04, 0x00, 0x00, 0x00,
  0x10, 0x00, 0x00, 0x00, 0xf8, 0xaf, 0xeb, 0x2d, 0x40, 0xb6, 0xc2, 0xc6,
  0xb7, 0xc1, 0x6d, 0xd5, 0xd6, 0xdf, 0x7f, 0xce, 0xe6, 0xf5, 0xff, 0xff,
  0x04, 0x00, 0x00, 0x00, 0x10, 0x00, 0x00, 0x00, 0x06, 0x2c, 0xc6, 0xd2,
  0x8e, 0x46, 0x45, 0x14, 0x25, 0x4f, 0xe6, 0x31, 0x29, 0x4d, 0x80, 0x34,
  0x02, 0xf6, 0xff, 0xff, 0x04, 0x00, 0x00, 0x00, 0x00, 0x06, 0x00, 0x00,
  0x33, 0x2a, 0x96, 0xac, 0x18, 0x05, 0x67, 0xbd, 0xfd, 0x12, 0xec, 0x10,
  0x45, 0xc4, 0x09, 0xcc, 0x35, 0x3b, 0x93, 0x54, 0xd9, 0xff, 0x30, 0xfa,
  0xe2, 0xd2, 0x11, 0x35, 0xbc, 0xee, 0xed, 0x70, 0x13, 0xed, 0x31, 0x15,
  0x63, 0xf8, 0xb8, 0x11, 0xbe, 0x36, 0xbb, 0xb0, 0x4f, 0x27, 0x7f, 0x51,
  0x3e, 0x35, 0x2b, 0x90, 0x2b, 0xad, 0xeb, 0x1a, 0x02, 0x53, 0xbb, 0xaf,
  0x4c, 0xa8, 0xc7, 0x13, 0xe7, 0xaa, 0xfd, 0x1d, 0xfb, 0x1d, 0xb0, 0x99,
  0xcb, 0xca, 0x3e, 0xe0, 0xf0, 0xbe, 0xc2, 0xe7, 0xd3, 0x2b, 0xf7, 0xf6,
  0x74, 0x03, 0xc6, 0x81, 0x2a, 0xdf, 0x2e, 0x50, 0xc1, 0xed, 0xc8, 0x3b,
  0xb0, 0xe4, 0x27, 0x8d, 0x37, 0x51, 0xb0, 0xe5, 0xe1, 0x2e, 0xdc, 0xe5,
  0x2c, 0x29, 0xc0, 0xb0, 0x6b, 0xed, 0x16, 0x0c, 0x2c, 0xc2, 0xd8, 0xb4,
  0x2b, 0x2b, 0xff, 0xa6, 0x6a, 0xe5, 0xf6, 0x4b, 0x31, 0x72, 0xfb, 0x18,
  0xc7, 0xd7, 0xe2, 0x3e, 0xc8, 0x3e, 0xbd, 0x32, 0x7f, 0x6e, 0x06, 0xc4,
  0xab, 0x43, 0x08, 0x53, 0xb4, 0xc9, 0x35, 0xaf, 0xc8, 0x23, 0xf4, 0x60,
  0x68, 0xec, 0x59, 0x6f, 0x3f, 0x71, 0xdf, 0xfd, 0xb8, 0x2f, 0xd1, 0x43,
  0x33, 0x2e, 0x17, 0xd9, 0x16, 0x30, 0x1a, 0x7f, 0xa2, 0x2a, 0x56, 0xe0,
  0x4d, 0x03, 0xe8, 0x13, 0xbb, 0x32, 0x01, 0x55, 0xc6, 0x1a, 0xbc, 0xca,
  0xe7, 0xa8, 0xe4, 0x9d, 0x89, 0xba, 0x96, 0x69, 0xb7, 0x9e, 0xec, 0xa9,
  0x0d, 0x6e, 0x8a, 0xf5, 0xd7, 0xe5, 0xac, 0xc7, 0xe0, 0xc2, 0x81, 0xed,
  0xf0, 0x1f, 0xa9, 0xb0, 0x41, 0x16, 0x83, 0x07, 0x1e, 0xcd, 0x2e, 0x4b,
  0x37, 0xf1, 0xc5, 0x28, 0x58, 0x10, 0xeb, 0xe2, 0xac, 0xab, 0x10, 0x41,
  0x09, 0xb4, 0x15, 0xe0, 0x47, 0x3d, 0x00, 0x00, 0xfd, 0x29, 0x22, 0x35,
  0x05, 0x0d, 0xba, 0xb9, 0x13, 0xd5, 0x19, 0x39, 0x3e, 0x04, 0xef, 0x03,
  0x29, 0xa1, 0x9a, 0x91, 0xdf, 0x23, 0x38, 0xa8, 0x16, 0xc2, 0x81, 0xff,
  0xa4, 0x98, 0xd3, 0x0d, 0x32, 0x1c, 0xad, 0x2e, 0xeb, 0x1f, 0xf5, 0x46,
  0xe9, 0xc0, 0x30, 0x05, 0xff, 0xb2, 0x7d, 0xd4, 0x36, 0x27, 0xc5, 0x4b,
  0x67, 0xbe, 0x00, 0x36, 0xbe, 0xb1, 0xd3, 0xd8, 0x17, 0xa1, 0x26, 0x81,
  0x9d, 0x10, 0x67, 0x54, 0x9e, 0x86, 0x34, 0xd4, 0x26, 0xbc, 0x0e, 0xf4,
  0xf2, 0xb3, 0xde, 0x15, 0x35, 0x2a, 0x1e, 0xfc, 0x0e, 0x3e, 0x19, 0xe8,
  0xeb, 0xd9, 0x9b, 0x47, 0x33, 0xb5, 0xf7, 0xd2, 0x00, 0xaf, 0xcf, 0x22,
  0x36, 0xff, 0x42, 0x8b, 0xff, 0xbf, 0xf4, 0xbe, 0xc5, 0x25, 0xd3, 0x02,
  0x41, 0x0d, 0xd3, 0xb3, 0x36, 0xb1, 0x39, 0xf9, 0x20, 0xee, 0x77, 0x43,
  0xf0, 0x20, 0x20, 0xf6, 0x07, 0x26, 0xc0, 0x0a, 0x81, 0x27, 0xa6, 0x1f,
  0xc8, 0x2f, 0xac, 0xd0, 0x1a, 0xce, 0xc3, 0xfd, 0x23, 0x37, 0xab, 0x0a,
  0x4b, 0x06, 0x73, 0xa8, 0x18, 0x14, 0x21, 0x07, 0x0c, 0xe9, 0xa4, 0x17,
  0xf6, 0x51, 0xee, 0x6a, 0x3c, 0xed, 0x0b, 0xce, 0xaa, 0x1b, 0xcd, 0x13,
  0xc9, 0xf6, 0x1a, 0xda, 0x81, 0x37, 0x29, 0x1e, 0x2f, 0xf6, 0x46, 0xe0,
  0x90, 0x48, 0x67, 0x14, 0x47, 0xf2, 0xa3, 0xa5, 0x06, 0xbd, 0x12, 0xb0,
  0x20, 0xd7, 0xb9, 0x9e, 0xf5, 0xac, 0xef, 0x9c, 0x24, 0xc1, 0xef, 0x81,
  0x4c, 0xcb, 0x35, 0xc9, 0x5b, 0x8f, 0x2e, 0x55, 0xbf, 0xc1, 0xc3, 0xc9,
  0x57, 0x5a, 0x0e, 0x7f, 0x59, 0xa8, 0x16, 0x6c, 0x04, 0x60, 0x20, 0x2c,
  0x41, 0xed, 0x5a, 0xac, 0xf4, 0xba, 0xea, 0x38, 0x44, 0xff, 0x25, 0x97,
  0x9b, 0xb0, 0xaf, 0xe5, 0x36, 0x0c, 0xda, 0xfb, 0x06, 0x50, 0x4b, 0x22,
  0xd1, 0xfb, 0xa4, 0xf9, 0x81, 0x0d, 0xed, 0xfa, 0x3b, 0x2a, 0xa6, 0x53,
  0x88, 0xac, 0x24, 0x33, 0xb4, 0x0d, 0x38, 0xe4, 0x35, 0x94, 0x19, 0x9a,
  0x41, 0xae, 0xae, 0x12, 0xde, 0x0c, 0x00, 0x41, 0xf8, 0xf4, 0x3f, 0x43,
  0xba, 0x20, 0xbc, 0xb3, 0x08, 0xd9, 0x16, 0xc9, 0x2a, 0x27, 0x27, 0xd8,
  0xdc, 0xc5, 0x1a, 0x38, 0xda, 0x27, 0x86, 0xc6, 0x2e, 0x9d, 0x7f, 0x24,
  0xc9, 0xe1, 0x5e, 0x58, 0x18, 0xf1, 0x1a, 0xbe, 0xe7, 0xdf, 0xcc, 0xde,
  0x14, 0x14, 0x35, 0x33, 0x9d, 0xbe, 0x8d, 0x28, 0x54, 0x81, 0x46, 0x9f,
  0xe0, 0x02, 0x9c, 0x22, 0xbf, 0x4a, 0x36, 0xae, 0x21, 0x66, 0xfc, 0xec,
  0x19, 0xfd, 0x14, 0xa1, 0x13, 0x0b, 0xed, 0xa9, 0xfd, 0x1d, 0x3b, 0x4b,
  0xac, 0x2d, 0xd5, 0x1a, 0x12, 0xc5, 0x11, 0xa8, 0x9b, 0xd3, 0x9a, 0xe1,
  0x37, 0x17, 0xfd, 0x27, 0x18, 0x21, 0xe5, 0xd3, 0x14, 0x32, 0x1f, 0x0c,
  0xc4, 0xe5, 0x7f, 0x21, 0xef, 0x20, 0x03, 0x27, 0xfe, 0x20, 0x17, 0xd6,
  0xa7, 0xda, 0x65, 0x28, 0xfc, 0xfb, 0x56, 0x21, 0xeb, 0x35, 0xe2, 0x41,
  0x50, 0xfd, 0x10, 0xc5, 0xdd, 0x24, 0x5e, 0xfc, 0xc6, 0x07, 0x4e, 0x2d,
  0x49, 0xc2, 0xf7, 0xde, 0x41, 0x0d, 0x1d, 0xed, 0xb2, 0x15, 0x15, 0xa4,
  0xe6, 0xf2, 0xa0, 0xca, 0xe3, 0x1f, 0x1b, 0xd6, 0x9f, 0xc1, 0xd0, 0xde,
  0xcd, 0x3b, 0x81, 0xbb, 0xa7, 0xc7, 0xc7, 0x0c, 0xcc, 0x2d, 0xba, 0x76,
  0xd1, 0xfa, 0xcd, 0x10, 0xff, 0xe1, 0x27, 0xe3, 0x35, 0x42, 0x60, 0x99,
  0x3c, 0xa9, 0x0d, 0xb0, 0xf7, 0x06, 0x55, 0xae, 0xb5, 0x3e, 0xfc, 0xb6,
  0x4e, 0xd8, 0xef, 0x4c, 0xba, 0xb4, 0xde, 0xc3, 0x3c, 0x4a, 0x5c, 0xad,
  0xda, 0x5a, 0x32, 0x17, 0xe4, 0x0b, 0x27, 0x03, 0xb9, 0xf8, 0xda, 0x81,
  0x12, 0x9e, 0x3c, 0x1e, 0xbf, 0xdc, 0xb5, 0xca, 0x2c, 0x41, 0x29, 0x5c,
  0x37, 0x46, 0xc7, 0xa5, 0xde, 0x06, 0xbc, 0x23, 0x23, 0xf0, 0xd4, 0xd2,
  0xf6, 0x4d, 0x04, 0xea, 0xc4, 0x26, 0x2f, 0x2b, 0x4a, 0x2f, 0x34, 0xf8,
  0x2d, 0xd1, 0x38, 0x30, 0x41, 0xca, 0xd5, 0xd1, 0x81, 0xaa, 0xd1, 0xa9,
  0x4d, 0xab, 0x04, 0x01, 0xa2, 0xf9, 0x08, 0x5b, 0x23, 0xd5, 0x21, 0x19,
  0x14, 0xb7, 0x81, 0x0d, 0xcf, 0xc9, 0x0d, 0x2e, 0x33, 0xd1, 0x18, 0x04,
  0x01, 0x2d, 0xc7, 0x9b, 0x4b, 0x3f, 0xcd, 0x0e, 0xda, 0x28, 0x0a, 0xf8,
  0xf2, 0x1c, 0x1e, 0x9e, 0x92, 0xd4, 0x08, 0x20, 0x9b, 0xfa, 0x0a, 0x25,
  0xd5, 0x3c, 0x15, 0xe1, 0xf1, 0xef, 0x36, 0xa2, 0x06, 0x23, 0xde, 0xa3,
  0x10, 0x08, 0x1c, 0x44, 0xbc, 0x35, 0xf3, 0x28, 0xe0, 0x11, 0x4c, 0x3d,
  0x3f, 0xf9, 0x7f, 0x00, 0x0e, 0x06, 0x16, 0xf4, 0x42, 0x3a, 0xf3, 0xd8,
  0xe9, 0xeb, 0x2d, 0x2b, 0x0a, 0xe1, 0x2e, 0x2f, 0x32, 0xa4, 0x16, 0x17,
  0xd6, 0xe8, 0xd7, 0xc6, 0xd8, 0xd7, 0xe8, 0xeb, 0xe8, 0xd3, 0x27, 0xf3,
  0x14, 0xa2, 0x9f, 0x3b, 0x58, 0xae, 0xf8, 0x14, 0xd1, 0x13, 0xf7, 0x4a,
  0xde, 0xdf, 0x4b, 0x08, 0x55, 0x31, 0xce, 0xb6, 0x81, 0x08, 0xac, 0x02,
  0xe2, 0xd4, 0xee, 0x0e, 0x49, 0x9d, 0xfa, 0x1e, 0x0e, 0x5f, 0x90, 0xe8,
  0xb5, 0xab, 0x2a, 0xc3, 0x01, 0x96, 0xf4, 0xc2, 0x34, 0xd2, 0xb6, 0xec,
  0x23, 0xa9, 0x97, 0xf8, 0xd4, 0x21, 0xe8, 0xc4, 0x81, 0x9a, 0xa7, 0x2a,
  0xe0, 0x98, 0x1e, 0x1a, 0x3e, 0x5a, 0x11, 0x26, 0xa6, 0xa1, 0xdc, 0x14,
  0xad, 0xe9, 0x05, 0x3c, 0xf9, 0x98, 0x5d, 0x4c, 0x32, 0x0b, 0x77, 0xd5,
  0x1e, 0x21, 0xfe, 0x16, 0x40, 0xf8, 0x04, 0xa8, 0xf9, 0xe4, 0xf9, 0xe7,
  0x63, 0x41, 0x47, 0x19, 0x4b, 0x34, 0x1e, 0xf2, 0x37, 0xa6, 0x60, 0xa9,
  0x52, 0xc5, 0xdc, 0xa0, 0x58, 0x21, 0x10, 0x18, 0xae, 0xeb, 0x9c, 0xf4,
  0xe3, 0x99, 0xd2, 0xb6, 0x81, 0x05, 0x4d, 0x0b, 0x7b, 0x15, 0x40, 0xd8,
  0xa2, 0x67, 0x9e, 0xfc, 0x2a, 0x52, 0x3d, 0xe7, 0x88, 0xc0, 0x75, 0x8d,
  0x0d, 0xd6, 0xcd, 0x3f, 0xb5, 0xc7, 0x31, 0xc5, 0x3e, 0x81, 0x03, 0x35,
  0xb1, 0xe7, 0xff, 0xae, 0xf6, 0x95, 0xfc, 0x02, 0xcb, 0xcc, 0x31, 0x0a,
  0x41, 0xd6, 0x90, 0xec, 0xd5, 0x01, 0xbb, 0x04, 0xab, 0xff, 0x15, 0x59,
  0x2f, 0x0b, 0x4e, 0xd2, 0x50, 0x19, 0x2a, 0xc6, 0xa6, 0xdb, 0x44, 0x0f,
  0x3c, 0x44, 0xb2, 0xe8, 0xa9, 0x2f, 0xa8, 0xf3, 0x96, 0x20, 0xc2, 0xc7,
  0xdb, 0xcb, 0x8d, 0x07, 0x1e, 0x0e, 0xcf, 0xac, 0x81, 0x12, 0x8d, 0xbb,
  0x70, 0xaf, 0x2a, 0xf8, 0xde, 0xf9, 0x98, 0x15, 0x29, 0xf3, 0x1a, 0xa1,
  0x47, 0x5a, 0x47, 0x52, 0x27, 0xc9, 0xde, 0xd9, 0x88, 0xad, 0xc0, 0xd6,
  0x15, 0xb6, 0xa5, 0x20, 0x52, 0x0e, 0xcd, 0x0d, 0xce, 0x4d, 0x37, 0x3d,
  0xe7, 0xff, 0x08, 0xd6, 0x81, 0x3b, 0xe2, 0x25, 0xdf, 0x1b, 0x5e, 0x41,
  0xe6, 0xd4, 0xfb, 0x06, 0x01, 0xe1, 0x60, 0x06, 0x0b, 0x4c, 0x9b, 0xee,
  0x2e, 0xc1, 0xef, 0x45, 0x0f, 0x63, 0x26, 0x1a, 0xb8, 0xde, 0x41, 0x4a,
  0x7f, 0xb4, 0x11, 0x0a, 0x8c, 0x24, 0xf0, 0x34, 0x1c, 0x5f, 0xb3, 0xce,
  0xd9, 0xde, 0x8a, 0xa0, 0xda, 0xf7, 0x28, 0x21, 0x48, 0xe5, 0x9a, 0x63,
  0x65, 0x26, 0xea, 0xec, 0xf4, 0x89, 0x87, 0xc4, 0x3d, 0x20, 0x3c, 0x64,
  0x4b, 0xbe, 0xd8, 0xb7, 0x40, 0x4a, 0xe0, 0xb4, 0xd8, 0xa3, 0xd8, 0x3c,
  0x20, 0x48, 0xed, 0x1a, 0x34, 0xde, 0xf1, 0x4b, 0x3b, 0x91, 0xd3, 0xa8,
  0x02, 0xd8, 0x8a, 0x1a, 0x7f, 0xbc, 0xe2, 0x31, 0xd4, 0x30, 0xf7, 0xf2,
  0x59, 0xa6, 0x54, 0x3d, 0xad, 0x23, 0xf3, 0xf2, 0x1c, 0x2f, 0xbe, 0x8e,
  0xa6, 0xfb, 0xa7, 0x1b, 0x3b, 0x8e, 0xef, 0x06, 0xfa, 0xab, 0x33, 0xcd,
  0x06, 0xd3, 0xbc, 0x03, 0x4b, 0x01, 0xed, 0x50, 0x4d, 0xfc, 0xb4, 0xbe,
  0xc9, 0xa2, 0xd1, 0x07, 0xe4, 0xd0, 0x3e, 0x1d, 0x3b, 0x26, 0x4a, 0xb9,
  0xb3, 0xf9, 0xcb, 0xf1, 0x40, 0x30, 0xbd, 0x49, 0x9f, 0x2d, 0x3e, 0xa0,
  0x5d, 0x8e, 0xe8, 0x42, 0x7f, 0x24, 0x1f, 0x8b, 0x46, 0x91, 0x9b, 0x21,
  0xdc, 0x7b, 0x5f, 0x1e, 0xd5, 0x4b, 0x5d, 0x4e, 0xa9, 0xd7, 0xf6, 0x58,
  0x2e, 0x36, 0x36, 0x1a, 0x3b, 0xff, 0x46, 0x3a, 0xc0, 0x91, 0xe2, 0x2d,
  0x00, 0xda, 0x63, 0x00, 0x7f, 0x25, 0xef, 0x59, 0xab, 0x1e, 0xe3, 0xfe,
  0xcb, 0x1f, 0xf9, 0x41, 0x35, 0xc3, 0x01, 0x49, 0x1f, 0xf9, 0x5b, 0x0e,
  0x30, 0xd1, 0x0b, 0x09, 0x45, 0x9e, 0x25, 0xd0, 0x09, 0xaf, 0xb8, 0x3a,
  0x14, 0xf8, 0xac, 0xfc, 0x7e, 0x05, 0xa1, 0xd2, 0x18, 0x0a, 0xc6, 0xff,
  0x18, 0xb7, 0xb2, 0x01, 0xa7, 0xaf, 0x81, 0x55, 0x15, 0x15, 0x9a, 0xcc,
  0x32, 0xf3, 0xef, 0x09, 0xf0, 0x34, 0xb9, 0xcf, 0x17, 0xde, 0x4c, 0xd2,
  0x09, 0x52, 0xe4, 0x2f, 0x5b, 0xf3, 0xf6, 0xf6, 0x2a, 0x45, 0x6a, 0xdb,
  0xbf, 0x0e, 0x4b, 0x52, 0xd1, 0xa6, 0x14, 0x81, 0x1c, 0x10, 0x3d, 0xb6,
  0x2d, 0xc9, 0x1f, 0x26, 0x36, 0xed, 0x58, 0x06, 0xbf, 0x9d, 0xe5, 0x04,
  0x5b, 0xe6, 0x2e, 0xe4, 0xf4, 0xf5, 0x4b, 0x49, 0xf6, 0xcc, 0x0f, 0x45,
  0x53, 0x66, 0xe7, 0x58, 0x13, 0xf0, 0x85, 0x44, 0x19, 0x27, 0x57, 0xeb,
  0x70, 0xc9, 0x12, 0x63, 0xfb, 0x3e, 0x61, 0x13, 0xc2, 0x27, 0xf5, 0xe4,
  0x16, 0xf5, 0xad, 0xcd, 0x3e, 0x30, 0xbd, 0x35, 0x7f, 0x26, 0xfa, 0xe5,
  0x39, 0xfb, 0xaa, 0xea, 0xcd, 0xe6, 0x0a, 0xc4, 0xdf, 0xff, 0x3b, 0xe5,
  0x0e, 0xfc, 0xff, 0xff, 0x04, 0x00, 0x00, 0x00, 0x80, 0x00, 0x00, 0x00,
  0x78, 0xff, 0xff, 0xff, 0xfa, 0xff, 0xff, 0xff, 0xb4, 0xff, 0xff, 0xff,
  0xef, 0xfe, 0xff, 0xff, 0xd2, 0xff, 0xff, 0xff, 0xa4, 0xff, 0xff, 0xff,
  0x40, 0xff, 0xff, 0xff, 0xe6, 0x01, 0x00, 0x00, 0xb3, 0xfd, 0xff, 0xff,
  0x25, 0xfe, 0xff, 0xff, 0x90, 0x01, 0x00, 0x00, 0xca, 0xff, 0xff, 0xff,
  0x57, 0x00, 0x00, 0x00, 0x60, 0xfe, 0xff, 0xff, 0x9d, 0xff, 0xff, 0xff,
  0x62, 0x00, 0x00, 0x00, 0x41, 0x00, 0x00, 0x00, 0x1a, 0x00, 0x00, 0x00,
  0xa2, 0xff, 0xff, 0xff, 0xdf, 0xff, 0xff, 0xff, 0xe2, 0xff, 0xff, 0xff,
  0xbe, 0xfe, 0xff, 0xff, 0x81, 0x00, 0x00, 0x00, 0x92, 0x00, 0x00, 0x00,
  0x9f, 0xfd, 0xff, 0xff, 0xd0, 0xff, 0xff, 0xff, 0x64, 0xff, 0xff, 0xff,
  0xb8, 0x00, 0x00, 0x00, 0x5d, 0xfe, 0xff, 0xff, 0x96, 0x00, 0x00, 0x00,
  0x9c, 0xff, 0xff, 0xff, 0xee, 0xff, 0xff, 0xff, 0x9a, 0xfc, 0xff, 0xff,
  0x04, 0x00, 0x00, 0x00, 0x20, 0x00, 0x00, 0x00, 0xbf, 0x49, 0xc1, 0xa8,
  0xe6, 0x21, 0x7f, 0xf8, 0xfe, 0x34, 0xde, 0xf2, 0xec, 0xd1, 0x11, 0xe5,
  0x28, 0x1f, 0xd6, 0xef, 0x0f, 0x29, 0xf8, 0xe6, 0xe6, 0xee, 0xf0, 0xdb,
  0xa9, 0x0c, 0xe0, 0xbf, 0xc6, 0xfc, 0xff, 0xff, 0x04, 0x00, 0x00, 0x00,
  0x20, 0x00, 0x00, 0x00, 0x23, 0xb1, 0x4a, 0x29, 0x15, 0xfd, 0x9b, 0xdf,
  0x68, 0xc8, 0x00, 0x1b, 0x10, 0xbf, 0x03, 0x06, 0xfb, 0x0d, 0xd0, 0x27,
  0xda, 0x80, 0xfe, 0x04, 0x3c, 0x19, 0x49, 0x2a, 0x17, 0x09, 0xc0, 0x44,
  0xf2, 0xfc, 0xff, 0xff, 0x04, 0x00, 0x00, 0x00, 0x00, 0x02, 0x00, 0x00,
  0xc5, 0x24, 0x34, 0xe1, 0x00, 0xc1, 0xf7, 0xf7, 0x6b, 0xdf, 0xab, 0xda,
  0x94, 0x44, 0xb6, 0x47, 0x01, 0x8c, 0xb4, 0x4c, 0xb6, 0x51, 0x81, 0x08,
  0x58, 0x13, 0x56, 0xa4, 0xc1, 0xe5, 0xfa, 0x41, 0xc8, 0x21, 0xaf, 0x10,
  0xb8, 0xf4, 0xc7, 0x81, 0x73, 0x09, 0xab, 0x10, 0x05, 0xa0, 0x99, 0x2c,
  0x4e, 0x47, 0x51, 0x87, 0x83, 0xf7, 0xfe, 0xde, 0xae, 0x1b, 0xac, 0xff,
  0x2c, 0xe7, 0x07, 0x04, 0x29, 0x51, 0x18, 0xa4, 0x24, 0xf6, 0xbb, 0x21,
  0x03, 0x57, 0xd1, 0xea, 0xc0, 0x7f, 0x6e, 0x18, 0x00, 0xc7, 0x4d, 0xed,
  0xcc, 0x16, 0xf0, 0x2e, 0xb8, 0xfb, 0x74, 0x63, 0x1b, 0x28, 0x07, 0x4f,
  0x2e, 0xbc, 0x05, 0xae, 0x9e, 0xfd, 0x0d, 0x9e, 0x60, 0xdf, 0xab, 0x32,
  0x0c, 0x4f, 0x1d, 0x30, 0x7d, 0x2c, 0xbf, 0xff, 0x81, 0x21, 0x89, 0x0e,
  0x4d, 0x32, 0x1f, 0x36, 0x2e, 0x4f, 0x5e, 0xd7, 0xcf, 0xd9, 0xd2, 0x6f,
  0xa3, 0x19, 0xdc, 0xae, 0xcc, 0x1d, 0xe6, 0x7f, 0x1a, 0xbb, 0x71, 0xc4,
  0xca, 0xcb, 0xd0, 0x21, 0xeb, 0xeb, 0xe2, 0x07, 0x1c, 0x23, 0xdf, 0xd6,
  0x62, 0xb4, 0x25, 0xb8, 0x27, 0xce, 0x1f, 0xbb, 0xe3, 0x28, 0x81, 0x05,
  0x2c, 0xbf, 0x17, 0x2a, 0x13, 0xc0, 0x0e, 0x06, 0x01, 0x3f, 0xba, 0x3d,
  0xe4, 0xd2, 0x21, 0x6b, 0x19, 0x68, 0x49, 0x27, 0xc5, 0x5a, 0xd0, 0x2b,
  0xbe, 0x21, 0x8e, 0xc1, 0x95, 0xf9, 0x37, 0x1c, 0x3a, 0x05, 0xa7, 0x15,
  0x4d, 0xb3, 0x97, 0x74, 0x0b, 0x86, 0xa1, 0x81, 0xc3, 0xca, 0xfa, 0x25,
  0x50, 0x0b, 0x31, 0x48, 0xed, 0x53, 0x68, 0xa4, 0x3f, 0x65, 0x5f, 0x0c,
  0x14, 0x77, 0x7c, 0xd5, 0xb5, 0x28, 0xca, 0x37, 0xb9, 0xda, 0x57, 0xd6,
  0x61, 0x4f, 0x09, 0x8f, 0x81, 0xb7, 0xfc, 0x2a, 0x67, 0xaa, 0x1d, 0x50,
  0x64, 0xe4, 0x62, 0xb7, 0xdf, 0x06, 0x4b, 0x36, 0x29, 0xe6, 0xba, 0x40,
  0xc6, 0xa3, 0x5d, 0x7c, 0x6b, 0xe7, 0xf6, 0x2e, 0x0e, 0x08, 0xf9, 0x10,
  0x51, 0xd6, 0xed, 0x28, 0xad, 0x5a, 0x4a, 0x45, 0x16, 0x14, 0x81, 0x24,
  0xeb, 0x00, 0xfb, 0xe4, 0xc9, 0x6d, 0xfe, 0x4d, 0x30, 0xc3, 0x54, 0x3a,
  0xf6, 0xcc, 0x4f, 0x9b, 0x01, 0x7f, 0xe6, 0x51, 0xdb, 0xf4, 0x5f, 0x16,
  0xfd, 0xc6, 0x17, 0xdd, 0xdf, 0x41, 0xff, 0xc7, 0xe5, 0xde, 0x02, 0x1c,
  0x25, 0x0d, 0x86, 0xf3, 0x42, 0xce, 0x24, 0x7f, 0x4a, 0xf2, 0xb5, 0xfd,
  0x8c, 0xd3, 0xc6, 0x61, 0xf9, 0xf7, 0x4e, 0x7f, 0xbb, 0x5b, 0x5e, 0x20,
  0x15, 0x32, 0xbe, 0x04, 0xf0, 0xdf, 0xf9, 0x5a, 0xc2, 0xf1, 0x3c, 0x29,
  0x50, 0x3a, 0x29, 0x06, 0xef, 0x26, 0xbf, 0x7f, 0x38, 0x30, 0x13, 0xe2,
  0x99, 0x39, 0x8a, 0xec, 0xc4, 0x06, 0xfd, 0x15, 0x4b, 0x53, 0xc3, 0xad,
  0xc0, 0xa9, 0xfb, 0xe2, 0x19, 0x4f, 0x97, 0x49, 0x0a, 0xc0, 0x61, 0x25,
  0xe2, 0xcb, 0xff, 0xff, 0xd2, 0x5d, 0xbc, 0x26, 0x3f, 0xbc, 0xfd, 0xfc,
  0xf7, 0x2e, 0x2a, 0x65, 0x08, 0xe5, 0x81, 0xdb, 0x58, 0xc8, 0x21, 0x17,
  0xb5, 0xbd, 0xe9, 0xba, 0x7f, 0x20, 0x22, 0xd4, 0x06, 0xd6, 0x12, 0x66,
  0x6c, 0xb1, 0x68, 0x55, 0xbc, 0xb6, 0x46, 0xa0, 0x31, 0xc3, 0xa4, 0xfc,
  0xec, 0xd2, 0xae, 0x4e, 0x66, 0xcf, 0xfc, 0xd0, 0x23, 0x52, 0x3b, 0x20,
  0x7f, 0xef, 0x39, 0x34, 0x06, 0xde, 0xc0, 0xd8, 0x0d, 0xb1, 0x30, 0x01,
  0xb1, 0x0d, 0xc9, 0xa2, 0x4a, 0xe3, 0xd8, 0xc1, 0x54, 0xf0, 0xd3, 0x3a,
  0x02, 0x1d, 0x5b, 0x77, 0xed, 0xd3, 0x03, 0xc6, 0x1e, 0x50, 0xef, 0xc5,
  0x9f, 0x2e, 0xc3, 0x59, 0x74, 0xbc, 0xa5, 0x14, 0xb3, 0x89, 0x02, 0xc7,
  0xb9, 0x82, 0x4d, 0x32, 0xb2, 0x81, 0x1d, 0x5f, 0xfe, 0xfe, 0xff, 0xff,
  0x04, 0x00, 0x00, 0x00, 0x40, 0x00, 0x00, 0x00, 0x8a, 0x03, 0x00, 0x00,
  0xb8, 0x02, 0x00, 0x00, 0x04, 0xfd, 0xff, 0xff, 0x88, 0x02, 0x00, 0x00,
  0x13, 0xfe, 0xff, 0xff, 0x54, 0x08, 0x00, 0x00, 0xd1, 0x00, 0x00, 0x00,
  0x51, 0x02, 0x00, 0x00, 0x76, 0x08, 0x00, 0x00, 0x76, 0x09, 0x00, 0x00,
  0x27, 0x0a, 0x00, 0x00, 0x91, 0x03, 0x00, 0x00, 0x3e, 0x07, 0x00, 0x00,
  0xa1, 0x02, 0x00, 0x00, 0x85, 0xfd, 0xff, 0xff, 0xe5, 0x05, 0x00, 0x00,
  0x4a, 0xff, 0xff, 0xff, 0x04, 0x00, 0x00, 0x00, 0x10, 0x00, 0x00, 0x00,
  0x52, 0x42, 0x26, 0x1a, 0xf1, 0x81, 0x47, 0x5b, 0x8a, 0xcd, 0xc8, 0x25,
  0xd6, 0x55, 0x1a, 0x5c, 0x66, 0xff, 0xff, 0xff, 0x04, 0x00, 0x00, 0x00,
  0x04, 0x00, 0x00, 0x00, 0xac, 0xfd, 0xff, 0xff, 0x76, 0xff, 0xff, 0xff,
  0x04, 0x00, 0x00, 0x00, 0x0c, 0x00, 0x00, 0x00, 0xff, 0xff, 0xff, 0xff,
  0x19, 0x00, 0x00, 0x00, 0x20, 0x00, 0x00, 0x00, 0x8e, 0xff, 0xff, 0xff,
  0x04, 0x00, 0x00, 0x00, 0x0c, 0x00, 0x00, 0x00, 0xff, 0xff, 0xff, 0xff,
  0x19, 0x00, 0x00, 0x00, 0x10, 0x00, 0x00, 0x00, 0xa6, 0xff, 0xff, 0xff,
  0x04, 0x00, 0x00, 0x00, 0x0c, 0x00, 0x00, 0x00, 0xff, 0xff, 0xff, 0xff,
  0x32, 0x00, 0x00, 0x00, 0x10, 0x00, 0x00, 0x00, 0xbe, 0xff, 0xff, 0xff,
  0x04, 0x00, 0x00, 0x00, 0x0c, 0x00, 0x00, 0x00, 0xff, 0xff, 0xff, 0xff,
  0x32, 0x00, 0x00, 0x00, 0x08, 0x00, 0x00, 0x00, 0xd6, 0xff, 0xff, 0xff,
  0x04, 0x00, 0x00, 0x00, 0x04, 0x00, 0x00, 0x00, 0x01, 0x00, 0x00, 0x00,
  0xe6, 0xff, 0xff, 0xff, 0x04, 0x00, 0x00, 0x00, 0x0c, 0x00, 0x00, 0x00,
  0xff, 0xff, 0xff, 0xff, 0x64, 0x00, 0x00, 0x00, 0x08, 0x00, 0x00, 0x00,
  0x00, 0x00, 0x06, 0x00, 0x08, 0x00, 0x04, 0x00, 0x06, 0x00, 0x00, 0x00,
  0x04, 0x00, 0x00, 0x00, 0x04, 0x00, 0x00, 0x00, 0xfd, 0xff, 0xff, 0xff,
  0xcc, 0xc2, 0xff, 0xff, 0xd0, 0xc2, 0xff, 0xff, 0x0f, 0x00, 0x00, 0x00,
  0x4d, 0x4c, 0x49, 0x52, 0x20, 0x43, 0x6f, 0x6e, 0x76, 0x65, 0x72, 0x74,
  0x65, 0x64, 0x2e, 0x00, 0x01, 0x00, 0x00, 0x00, 0x14, 0x00, 0x00, 0x00,
  0x00, 0x00, 0x0e, 0x00, 0x18, 0x00, 0x14, 0x00, 0x10, 0x00, 0x0c, 0x00,
  0x08, 0x00, 0x04, 0x00, 0x0e, 0x00, 0x00, 0x00, 0x14, 0x00, 0x00, 0x00,
  0x1c, 0x00, 0x00, 0x00, 0x04, 0x06, 0x00, 0x00, 0x08, 0x06, 0x00, 0x00,
  0x0c, 0x06, 0x00, 0x00, 0x04, 0x00, 0x00, 0x00, 0x6d, 0x61, 0x69, 0x6e,
  0x00, 0x00, 0x00, 0x00, 0x1b, 0x00, 0x00, 0x00, 0xbc, 0x05, 0x00, 0x00,
  0x78, 0x05, 0x00, 0x00, 0x34, 0x05, 0x00, 0x00, 0xe4, 0x04, 0x00, 0x00,
  0xb0, 0x04, 0x00, 0x00, 0x7c, 0x04, 0x00, 0x00, 0x54, 0x04, 0x00, 0x00,
  0x14, 0x04, 0x00, 0x00, 0xc0, 0x03, 0x00, 0x00, 0x88, 0x03, 0x00, 0x00,
  0x54, 0x03, 0x00, 0x00, 0x10, 0x03, 0x00, 0x00, 0xdc, 0x02, 0x00, 0x00,
  0xa8, 0x02, 0x00, 0x00, 0x80, 0x02, 0x00, 0x00, 0x4c, 0x02, 0x00, 0x00,
  0x08, 0x02, 0x00, 0x00, 0xe0, 0x01, 0x00, 0x00, 0xac, 0x01, 0x00, 0x00,
  0x68, 0x01, 0x00, 0x00, 0x34, 0x01, 0x00, 0x00, 0x00, 0x01, 0x00, 0x00,
  0xd8, 0x00, 0x00, 0x00, 0xa4, 0x00, 0x00, 0x00, 0x60, 0x00, 0x00, 0x00,
  0x28, 0x00, 0x00, 0x00, 0x04, 0x00, 0x00, 0x00, 0x0a, 0xfc, 0xff, 0xff,
  0x0c, 0x00, 0x00, 0x00, 0x10, 0x00, 0x00, 0x00, 0x09, 0x00, 0x00, 0x00,
  0x01, 0x00, 0x00, 0x00, 0x34, 0x00, 0x00, 0x00, 0x01, 0x00, 0x00, 0x00,
  0x33, 0x00, 0x00, 0x00, 0x1e, 0xfb, 0xff, 0xff, 0x14, 0x00, 0x00, 0x00,
  0x00, 0x00, 0x00, 0x08, 0x10, 0x00, 0x00, 0x00, 0x14, 0x00, 0x00, 0x00,
  0x08, 0x00, 0x00, 0x00, 0xcc, 0xc3, 0xff, 0xff, 0x01, 0x00, 0x00, 0x00,
  0x33, 0x00, 0x00, 0x00, 0x03, 0x00, 0x00, 0x00, 0x32, 0x00, 0x00, 0x00,
  0x09, 0x00, 0x00, 0x00, 0x08, 0x00, 0x00, 0x00, 0xee, 0xfc, 0xff, 0xff,
  0x1c, 0x00, 0x00, 0x00, 0x00, 0x00, 0x00, 0x08, 0x1c, 0x00, 0x00, 0x00,
  0x20, 0x00, 0x00, 0x00, 0x08, 0x00, 0x00, 0x00, 0x00, 0x00, 0x06, 0x00,
  0x08, 0x00, 0x07, 0x00, 0x06, 0x00, 0x00, 0x00, 0x00, 0x00, 0x00, 0x01,
  0x01, 0x00, 0x00, 0x00, 0x32, 0x00, 0x00, 0x00, 0x03, 0x00, 0x00, 0x00,
  0x31, 0x00, 0x00, 0x00, 0x0b, 0x00, 0x00, 0x00, 0x0a, 0x00, 0x00, 0x00,
  0x92, 0xfb, 0xff, 0xff, 0x14, 0x00, 0x00, 0x00, 0x00, 0x00, 0x00, 0x1b,
  0x10, 0x00, 0x00, 0x00, 0x14, 0x00, 0x00, 0x00, 0x07, 0x00, 0x00, 0x00,
  0x40, 0xc4, 0xff, 0xff, 0x01, 0x00, 0x00, 0x00, 0x31, 0x00, 0x00, 0x00,
  0x02, 0x00, 0x00, 0x00, 0x30, 0x00, 0x00, 0x00, 0x03, 0x00, 0x00, 0x00,
  0xce, 0xfc, 0xff, 0xff, 0x0c, 0x00, 0x00, 0x00, 0x10, 0x00, 0x00, 0x00,
  0x05, 0x00, 0x00, 0x00, 0x01, 0x00, 0x00, 0x00, 0x30, 0x00, 0x00, 0x00,
  0x02, 0x00, 0x00, 0x00, 0x2f, 0x00, 0x00, 0x00, 0x07, 0x00, 0x00, 0x00,
  0xe6, 0xfb, 0xff, 0xff, 0x14, 0x00, 0x00, 0x00, 0x00, 0x00, 0x00, 0x0b,
  0x10, 0x00, 0x00, 0x00, 0x14, 0x00, 0x00, 0x00, 0x04, 0x00, 0x00, 0x00,
  0x94, 0xc4, 0xff, 0xff, 0x01, 0x00, 0x00, 0x00, 0x2f, 0x00, 0x00, 0x00,
  0x02, 0x00, 0x00, 0x00, 0x2e, 0x00, 0x00, 0x00, 0x0c, 0x00, 0x00, 0x00,
  0x16, 0xfc, 0xff, 0xff, 0x14, 0x00, 0x00, 0x00, 0x00, 0x00, 0x00, 0x15,
  0x10, 0x00, 0x00, 0x00, 0x14, 0x00, 0x00, 0x00, 0x01, 0x00, 0x00, 0x00,
  0xc4, 0xc4, 0xff, 0xff, 0x01, 0x00, 0x00, 0x00, 0x2e, 0x00, 0x00, 0x00,
  0x02, 0x00, 0x00, 0x00, 0x2d, 0x00, 0x00, 0x00, 0x0d, 0x00, 0x00, 0x00,
  0x46, 0xfc, 0xff, 0xff, 0x14, 0x00, 0x00, 0x00, 0x00, 0x00, 0x00, 0x01,
  0x1c, 0x00, 0x00, 0x00, 0x20, 0x00, 0x00, 0x00, 0x03, 0x00, 0x00, 0x00,
  0xc4, 0xfc, 0xff, 0xff, 0x00, 0x00, 0x00, 0x01, 0x01, 0x00, 0x00, 0x00,
  0x01, 0x00, 0x00, 0x00, 0x01, 0x00, 0x00, 0x00, 0x2d, 0x00, 0x00, 0x00,
  0x03, 0x00, 0x00, 0x00, 0x2c, 0x00, 0x00, 0x00, 0x0f, 0x00, 0x00, 0x00,
  0x0e, 0x00, 0x00, 0x00, 0x86, 0xfc, 0xff, 0xff, 0x14, 0x00, 0x00, 0x00,
  0x00, 0x00, 0x00, 0x34, 0x10, 0x00, 0x00, 0x00, 0x14, 0x00, 0x00, 0x00,
  0x02, 0x00, 0x00, 0x00, 0x34, 0xc5, 0xff, 0xff, 0x01, 0x00, 0x00, 0x00,
  0x2c, 0x00, 0x00, 0x00, 0x02, 0x00, 0x00, 0x00, 0x2b, 0x00, 0x00, 0x00,
  0x01, 0x00, 0x00, 0x00, 0xc2, 0xfd, 0xff, 0xff, 0x0c, 0x00, 0x00, 0x00,
  0x10, 0x00, 0x00, 0x00, 0x05, 0x00, 0x00, 0x00, 0x01, 0x00, 0x00, 0x00,
  0x2b, 0x00, 0x00, 0x00, 0x02, 0x00, 0x00, 0x00, 0x2a, 0x00, 0x00, 0x00,
  0x06, 0x00, 0x00, 0x00, 0xda, 0xfc, 0xff, 0xff, 0x14, 0x00, 0x00, 0x00,
  0x00, 0x00, 0x00, 0x05, 0x24, 0x00, 0x00, 0x00, 0x28, 0x00, 0x00, 0x00,
  0x06, 0x00, 0x00, 0x00, 0x66, 0xfe, 0xff, 0xff, 0x01, 0x00, 0x00, 0x00,
  0x02, 0x00, 0x00, 0x00, 0x01, 0x00, 0x00, 0x00, 0x02, 0x00, 0x00, 0x00,
  0x00, 0x00, 0x00, 0x01, 0x01, 0x00, 0x00, 0x00, 0x2a, 0x00, 0x00, 0x00,
  0x01, 0x00, 0x00, 0x00, 0x29, 0x00, 0x00, 0x00, 0x1a, 0xfd, 0xff, 0xff,
  0x14, 0x00, 0x00, 0x00, 0x00, 0x00, 0x00, 0x34, 0x10, 0x00, 0x00, 0x00,
  0x14, 0x00, 0x00, 0x00, 0x02, 0x00, 0x00, 0x00, 0xc8, 0xc5, 0xff, 0xff,
  0x01, 0x00, 0x00, 0x00, 0x29, 0x00, 0x00, 0x00, 0x02, 0x00, 0x00, 0x00,
  0x28, 0x00, 0x00, 0x00, 0x03, 0x00, 0x00, 0x00, 0x56, 0xfe, 0xff, 0xff,
  0x0c, 0x00, 0x00, 0x00, 0x10, 0x00, 0x00, 0x00, 0x05, 0x00, 0x00, 0x00,
  0x01, 0x00, 0x00, 0x00, 0x28, 0x00, 0x00, 0x00, 0x02, 0x00, 0x00, 0x00,
  0x27, 0x00, 0x00, 0x00, 0x05, 0x00, 0x00, 0x00, 0x6e, 0xfd, 0xff, 0xff,
  0x14, 0x00, 0x00, 0x00, 0x00, 0x00, 0x00, 0x0b, 0x10, 0x00, 0x00, 0x00,
  0x14, 0x00, 0x00, 0x00, 0x04, 0x00, 0x00, 0x00, 0x1c, 0xc6, 0xff, 0xff,
  0x01, 0x00, 0x00, 0x00, 0x27, 0x00, 0x00, 0x00, 0x02, 0x00, 0x00, 0x00,
  0x26, 0x00, 0x00, 0x00, 0x10, 0x00, 0x00, 0x00, 0x9e, 0xfd, 0xff, 0xff,
  0x14, 0x00, 0x00, 0x00, 0x00, 0x00, 0x00, 0x15, 0x10, 0x00, 0x00, 0x00,
  0x14, 0x00, 0x00, 0x00, 0x01, 0x00, 0x00, 0x00, 0x4c, 0xc6, 0xff, 0xff,
  0x01, 0x00, 0x00, 0x00, 0x26, 0x00, 0x00, 0x00, 0x02, 0x00, 0x00, 0x00,
  0x25, 0x00, 0x00, 0x00, 0x11, 0x00, 0x00, 0x00, 0xce, 0xfd, 0xff, 0xff,
  0x14, 0x00, 0x00, 0x00, 0x00, 0x00, 0x00, 0x01, 0x1c, 0x00, 0x00, 0x00,
  0x20, 0x00, 0x00, 0x00, 0x03, 0x00, 0x00, 0x00, 0x4c, 0xfe, 0xff, 0xff,
  0x00, 0x00, 0x00, 0x01, 0x01, 0x00, 0x00, 0x00, 0x01, 0x00, 0x00, 0x00,
  0x01, 0x00, 0x00, 0x00, 0x25, 0x00, 0x00, 0x00, 0x03, 0x00, 0x00, 0x00,
  0x24, 0x00, 0x00, 0x00, 0x13, 0x00, 0x00, 0x00, 0x12, 0x00, 0x00, 0x00,
  0x0e, 0xfe, 0xff, 0xff, 0x14, 0x00, 0x00, 0x00, 0x00, 0x00, 0x00, 0x34,
  0x10, 0x00, 0x00, 0x00, 0x14, 0x00, 0x00, 0x00, 0x02, 0x00, 0x00, 0x00,
  0xbc, 0xc6, 0xff, 0xff, 0x01, 0x00, 0x00, 0x00, 0x24, 0x00, 0x00, 0x00,
  0x02, 0x00, 0x00, 0x00, 0x23, 0x00, 0x00, 0x00, 0x01, 0x00, 0x00, 0x00,
  0x4a, 0xff, 0xff, 0xff, 0x0c, 0x00, 0x00, 0x00, 0x10, 0x00, 0x00, 0x00,
  0x05, 0x00, 0x00, 0x00, 0x01, 0x00, 0x00, 0x00, 0x23, 0x00, 0x00, 0x00,
  0x02, 0x00, 0x00, 0x00, 0x22, 0x00, 0x00, 0x00, 0x04, 0x00, 0x00, 0x00,
  0x00, 0x00, 0x0e, 0x00, 0x1a, 0x00, 0x14, 0x00, 0x10, 0x00, 0x0c, 0x00,
  0x0b, 0x00, 0x04, 0x00, 0x0e, 0x00, 0x00, 0x00, 0x24, 0x00, 0x00, 0x00,
  0x00, 0x00, 0x00, 0x05, 0x34, 0x00, 0x00, 0x00, 0x38, 0x00, 0x00, 0x00,
  0x06, 0x00, 0x00, 0x00, 0x00, 0x00, 0x0e, 0x00, 0x18, 0x00, 0x17, 0x00,
  0x10, 0x00, 0x0c, 0x00, 0x08, 0x00, 0x04, 0x00, 0x0e, 0x00, 0x00, 0x00,
  0x01, 0x00, 0x00, 0x00, 0x02, 0x00, 0x00, 0x00, 0x01, 0x00, 0x00, 0x00,
  0x02, 0x00, 0x00, 0x00, 0x00, 0x00, 0x00, 0x01, 0x01, 0x00, 0x00, 0x00,
  0x22, 0x00, 0x00, 0x00, 0x01, 0x00, 0x00, 0x00, 0x21, 0x00, 0x00, 0x00,
  0xc2, 0xfe, 0xff, 0xff, 0x14, 0x00, 0x00, 0x00, 0x00, 0x00, 0x00, 0x34,
  0x10, 0x00, 0x00, 0x00, 0x14, 0x00, 0x00, 0x00, 0x02, 0x00, 0x00, 0x00,
  0x70, 0xc7, 0xff, 0xff, 0x01, 0x00, 0x00, 0x00, 0x21, 0x00, 0x00, 0x00,
  0x02, 0x00, 0x00, 0x00, 0x20, 0x00, 0x00, 0x00, 0x03, 0x00, 0x00, 0x00,
  0x00, 0x00, 0x0a, 0x00, 0x10, 0x00, 0x0c, 0x00, 0x08, 0x00, 0x04, 0x00,
  0x0a, 0x00, 0x00, 0x00, 0x0c, 0x00, 0x00, 0x00, 0x10, 0x00, 0x00, 0x00,
  0x05, 0x00, 0x00, 0x00, 0x01, 0x00, 0x00, 0x00, 0x20, 0x00, 0x00, 0x00,
  0x02, 0x00, 0x00, 0x00, 0x1f, 0x00, 0x00, 0x00, 0x02, 0x00, 0x00, 0x00,
  0x22, 0xff, 0xff, 0xff, 0x14, 0x00, 0x00, 0x00, 0x00, 0x00, 0x00, 0x0b,
  0x10, 0x00, 0x00, 0x00, 0x14, 0x00, 0x00, 0x00, 0x04, 0x00, 0x00, 0x00,
  0xd0, 0xc7, 0xff, 0xff, 0x01, 0x00, 0x00, 0x00, 0x1f, 0x00, 0x00, 0x00,
  0x02, 0x00, 0x00, 0x00, 0x1e, 0x00, 0x00, 0x00, 0x14, 0x00, 0x00, 0x00,
  0x52, 0xff, 0xff, 0xff, 0x14, 0x00, 0x00, 0x00, 0x00, 0x00, 0x00, 0x15,
  0x10, 0x00, 0x00, 0x00, 0x14, 0x00, 0x00, 0x00, 0x01, 0x00, 0x00, 0x00,
  0x00, 0xc8, 0xff, 0xff, 0x01, 0x00, 0x00, 0x00, 0x1e, 0x00, 0x00, 0x00,
  0x02, 0x00, 0x00, 0x00, 0x1d, 0x00, 0x00, 0x00, 0x15, 0x00, 0x00, 0x00,
  0x82, 0xff, 0xff, 0xff, 0x20, 0x00, 0x00, 0x00, 0x00, 0x00, 0x00, 0x01,
  0x28, 0x00, 0x00, 0x00, 0x2c, 0x00, 0x00, 0x00, 0x03, 0x00, 0x00, 0x00,
  0x0c, 0x00, 0x10, 0x00, 0x00, 0x00, 0x0c, 0x00, 0x08, 0x00, 0x07, 0x00,
  0x0c, 0x00, 0x00, 0x00, 0x00, 0x00, 0x00, 0x01, 0x01, 0x00, 0x00, 0x00,
  0x01, 0x00, 0x00, 0x00, 0x01, 0x00, 0x00, 0x00, 0x1d, 0x00, 0x00, 0x00,
  0x03, 0x00, 0x00, 0x00, 0x1c, 0x00, 0x00, 0x00, 0x17, 0x00, 0x00, 0x00,
  0x16, 0x00, 0x00, 0x00, 0xce, 0xff, 0xff, 0xff, 0x14, 0x00, 0x00, 0x00,
  0x00, 0x00, 0x00, 0x34, 0x10, 0x00, 0x00, 0x00, 0x14, 0x00, 0x00, 0x00,
  0x02, 0x00, 0x00, 0x00, 0x7c, 0xc8, 0xff, 0xff, 0x01, 0x00, 0x00, 0x00,
  0x1c, 0x00, 0x00, 0x00, 0x02, 0x00, 0x00, 0x00, 0x1b, 0x00, 0x00, 0x00,
  0x01, 0x00, 0x00, 0x00, 0x00, 0x00, 0x0e, 0x00, 0x18, 0x00, 0x14, 0x00,
  0x10, 0x00, 0x0c, 0x00, 0x0b, 0x00, 0x04, 0x00, 0x0e, 0x00, 0x00, 0x00,
  0x14, 0x00, 0x00, 0x00, 0x00, 0x00, 0x00, 0x15, 0x10, 0x00, 0x00, 0x00,
  0x14, 0x00, 0x00, 0x00, 0x01, 0x00, 0x00, 0x00, 0xbc, 0xc8, 0xff, 0xff,
  0x01, 0x00, 0x00, 0x00, 0x1b, 0x00, 0x00, 0x00, 0x02, 0x00, 0x00, 0x00,
  0x1a, 0x00, 0x00, 0x00, 0x18, 0x00, 0x00, 0x00, 0x00, 0x00, 0x0e, 0x00,
  0x14, 0x00, 0x00, 0x00, 0x10, 0x00, 0x0c, 0x00, 0x0b, 0x00, 0x04, 0x00,
  0x0e, 0x00, 0x00, 0x00, 0x10, 0x00, 0x00, 0x00, 0x00, 0x00, 0x00, 0x1c,
  0x0c, 0x00, 0x00, 0x00, 0x10, 0x00, 0x00, 0x00, 0xf8, 0xc8, 0xff, 0xff,
  0x01, 0x00, 0x00, 0x00, 0x1a, 0x00, 0x00, 0x00, 0x02, 0x00, 0x00, 0x00,
  0x00, 0x00, 0x00, 0x00, 0x19, 0x00, 0x00, 0x00, 0x01, 0x00, 0x00, 0x00,
  0x34, 0x00, 0x00, 0x00, 0x01, 0x00, 0x00, 0x00, 0x00, 0x00, 0x00, 0x00,
  0x35, 0x00, 0x00, 0x00, 0x14, 0x37, 0x00, 0x00, 0xbc, 0x36, 0x00, 0x00,
  0x38, 0x36, 0x00, 0x00, 0xfc, 0x35, 0x00, 0x00, 0x8c, 0x35, 0x00, 0x00,
  0x20, 0x35, 0x00, 0x00, 0xac, 0x34, 0x00, 0x00, 0x40, 0x34, 0x00, 0x00,
  0xc4, 0x33, 0x00, 0x00, 0x40, 0x33, 0x00, 0x00, 0xe4, 0x31, 0x00, 0x00,
  0xb0, 0x30, 0x00, 0x00, 0x1c, 0x30, 0x00, 0x00, 0x88, 0x2f, 0x00, 0x00,
  0xc4, 0x2c, 0x00, 0x00, 0xc0, 0x2a, 0x00, 0x00, 0x2c, 0x2a, 0x00, 0x00,
  0x98, 0x29, 0x00, 0x00, 0x94, 0x27, 0x00, 0x00, 0x50, 0x26, 0x00, 0x00,
  0xbc, 0x25, 0x00, 0x00, 0x28, 0x25, 0x00, 0x00, 0x94, 0x23, 0x00, 0x00,
  0xb0, 0x22, 0x00, 0x00, 0xec, 0x21, 0x00, 0x00, 0x90, 0x21, 0x00, 0x00,
  0xf0, 0x20, 0x00, 0x00, 0x1c, 0x20, 0x00, 0x00, 0x6c, 0x1f, 0x00, 0x00,
  0x08, 0x1e, 0x00, 0x00, 0x4c, 0x1c, 0x00, 0x00, 0x10, 0x1a, 0x00, 0x00,
  0xd8, 0x17, 0x00, 0x00, 0x20, 0x17, 0x00, 0x00, 0x74, 0x16, 0x00, 0x00,
  0xcc, 0x15, 0x00, 0x00, 0x1c, 0x15, 0x00, 0x00, 0xa8, 0x13, 0x00, 0x00,
  0xe4, 0x11, 0x00, 0x00, 0x98, 0x0f, 0x00, 0x00, 0x50, 0x0d, 0x00, 0x00,
  0x98, 0x0c, 0x00, 0x00, 0xec, 0x0b, 0x00, 0x00, 0x3c, 0x0b, 0x00, 0x00,
  0x8c, 0x0a, 0x00, 0x00, 0x18, 0x09, 0x00, 0x00, 0x54, 0x07, 0x00, 0x00,
  0x08, 0x05, 0x00, 0x00, 0xc0, 0x02, 0x00, 0x00, 0x20, 0x02, 0x00, 0x00,
  0x3c, 0x01, 0x00, 0x00, 0x80, 0x00, 0x00, 0x00, 0x04, 0x00, 0x00, 0x00,
  0xd6, 0xc9, 0xff, 0xff, 0x00, 0x00, 0x00, 0x01, 0x18, 0x00, 0x00, 0x00,
  0x20, 0x00, 0x00, 0x00, 0x3c, 0x00, 0x00, 0x00, 0x35, 0x00, 0x00, 0x00,
  0x00, 0x00, 0x00, 0x09, 0x50, 0x00, 0x00, 0x00, 0x02, 0x00, 0x00, 0x00,
  0xff, 0xff, 0xff, 0xff, 0x01, 0x00, 0x00, 0x00, 0xbc, 0xc9, 0xff, 0xff,
  0x08, 0x00, 0x00, 0x00, 0x10, 0x00, 0x00, 0x00, 0x01, 0x00, 0x00, 0x00,
  0x80, 0xff, 0xff, 0xff, 0xff, 0xff, 0xff, 0xff, 0x01, 0x00, 0x00, 0x00,
  0x00, 0x00, 0x80, 0x3b, 0x1b, 0x00, 0x00, 0x00, 0x53, 0x74, 0x61, 0x74,
  0x65, 0x66, 0x75, 0x6c, 0x50, 0x61, 0x72, 0x74, 0x69, 0x74, 0x69, 0x6f,
  0x6e, 0x65, 0x64, 0x43, 0x61, 0x6c, 0x6c, 0x5f, 0x31, 0x3a, 0x30, 0x00,
  0x02, 0x00, 0x00, 0x00, 0x01, 0x00, 0x00, 0x00, 0x01, 0x00, 0x00, 0x00,
  0x4e, 0xca, 0xff, 0xff, 0x00, 0x00, 0x00, 0x01, 0x18, 0x00, 0x00, 0x00,
  0x20, 0x00, 0x00, 0x00, 0x3c, 0x00, 0x00, 0x00, 0x34, 0x00, 0x00, 0x00,
  0x00, 0x00, 0x00, 0x09, 0x90, 0x00, 0x00, 0x00, 0x02, 0x00, 0x00, 0x00,
  0xff, 0xff, 0xff, 0xff, 0x01, 0x00, 0x00, 0x00, 0x34, 0xca, 0xff, 0xff,
  0x08, 0x00, 0x00, 0x00, 0x10, 0x00, 0x00, 0x00, 0x01, 0x00, 0x00, 0x00,
  0x03, 0x00, 0x00, 0x00, 0x00, 0x00, 0x00, 0x00, 0x01, 0x00, 0x00, 0x00,
  0xe5, 0x57, 0xa4, 0x3d, 0x58, 0x00, 0x00, 0x00, 0x46, 0x61, 0x6c, 0x6c,
  0x44, 0x65, 0x74, 0x65, 0x63, 0x74, 0x69, 0x6f, 0x6e, 0x5f, 0x56, 0x32,
  0x5f, 0x55, 0x6c, 0x74, 0x72, 0x61, 0x53, 0x6c, 0x69, 0x6d, 0x5f, 0x31,
  0x2f, 0x64, 0x65, 0x6e, 0x73, 0x65, 0x5f, 0x31, 0x5f, 0x32, 0x2f, 0x4d,
  0x61, 0x74, 0x4d, 0x75, 0x6c, 0x3b, 0x46, 0x61, 0x6c, 0x6c, 0x44, 0x65,
  0x74, 0x65, 0x63, 0x74, 0x69, 0x6f, 0x6e, 0x5f, 0x56, 0x32, 0x5f, 0x55,
  0x6c, 0x74, 0x72, 0x61, 0x53, 0x6c, 0x69, 0x6d, 0x5f, 0x31, 0x2f, 0x64,
  0x65, 0x6e, 0x73, 0x65, 0x5f, 0x31, 0x5f, 0x32, 0x2f, 0x41, 0x64, 0x64,
  0x00, 0x00, 0x00, 0x00, 0x02, 0x00, 0x00, 0x00, 0x01, 0x00, 0x00, 0x00,
  0x01, 0x00, 0x00, 0x00, 0x06, 0xcb, 0xff, 0xff, 0x00, 0x00, 0x00, 0x01,
  0x18, 0x00, 0x00, 0x00, 0x20, 0x00, 0x00, 0x00, 0x3c, 0x00, 0x00, 0x00,
  0x33, 0x00, 0x00, 0x00, 0x00, 0x00, 0x00, 0x09, 0xb8, 0x00, 0x00, 0x00,
  0x02, 0x00, 0x00, 0x00, 0xff, 0xff, 0xff, 0xff, 0x10, 0x00, 0x00, 0x00,
  0xec, 0xca, 0xff, 0xff, 0x08, 0x00, 0x00, 0x00, 0x10, 0x00, 0x00, 0x00,
  0x01, 0x00, 0x00, 0x00, 0x80, 0xff, 0xff, 0xff, 0xff, 0xff, 0xff, 0xff,
  0x01, 0x00, 0x00, 0x00, 0x41, 0x50, 0xad, 0x3c, 0x82, 0x00, 0x00, 0x00,
  0x46, 0x61, 0x6c, 0x6c, 0x44, 0x65, 0x74, 0x65, 0x63, 0x74, 0x69, 0x6f,
  0x6e, 0x5f, 0x56, 0x32, 0x5f, 0x55, 0x6c, 0x74, 0x72, 0x61, 0x53, 0x6c,
  0x69, 0x6d, 0x5f, 0x31, 0x2f, 0x64, 0x65, 0x6e, 0x73, 0x65, 0x5f, 0x31,
  0x2f, 0x4d, 0x61, 0x74, 0x4d, 0x75, 0x6c, 0x3b, 0x46, 0x61, 0x6c, 0x6c,
  0x44, 0x65, 0x74, 0x65, 0x63, 0x74, 0x69, 0x6f, 0x6e, 0x5f, 0x56, 0x32,
  0x5f, 0x55, 0x6c, 0x74, 0x72, 0x61, 0x53, 0x6c, 0x69, 0x6d, 0x5f, 0x31,
  0x2f, 0x64, 0x65, 0x6e, 0x73, 0x65, 0x5f, 0x31, 0x2f, 0x52, 0x65, 0x6c,
  0x75, 0x3b, 0x46, 0x61, 0x6c, 0x6c, 0x44, 0x65, 0x74, 0x65, 0x63, 0x74,
  0x69, 0x6f, 0x6e, 0x5f, 0x56, 0x32, 0x5f, 0x55, 0x6c, 0x74, 0x72, 0x61,
  0x53, 0x6c, 0x69, 0x6d, 0x5f, 0x31, 0x2f, 0x64, 0x65, 0x6e, 0x73, 0x65,
  0x5f, 0x31, 0x2f, 0x42, 0x69, 0x61, 0x73, 0x41, 0x64, 0x64, 0x00, 0x00,
  0x02, 0x00, 0x00, 0x00, 0x01, 0x00, 0x00, 0x00, 0x10, 0x00, 0x00, 0x00,
  0xe6, 0xcb, 0xff, 0xff, 0x00, 0x00, 0x00, 0x01, 0x18, 0x00, 0x00, 0x00,
  0x20, 0x00, 0x00, 0x00, 0x3c, 0x00, 0x00, 0x00, 0x32, 0x00, 0x00, 0x00,
  0x00, 0x00, 0x00, 0x09, 0x74, 0x00, 0x00, 0x00, 0x02, 0x00, 0x00, 0x00,
  0xff, 0xff, 0xff, 0xff, 0x20, 0x00, 0x00, 0x00, 0xcc, 0xcb, 0xff, 0xff,
  0x08, 0x00, 0x00, 0x00, 0x10, 0x00, 0x00, 0x00, 0x01, 0x00, 0x00, 0x00,
  0xc2, 0xff, 0xff, 0xff, 0xff, 0xff, 0xff, 0xff, 0x01, 0x00, 0x00, 0x00,
  0x18, 0x4e, 0x8f, 0x3c, 0x3c, 0x00, 0x00, 0x00, 0x46, 0x61, 0x6c, 0x6c,
  0x44, 0x65, 0x74, 0x65, 0x63, 0x74, 0x69, 0x6f, 0x6e, 0x5f, 0x56, 0x32,
  0x5f, 0x55, 0x6c, 0x74, 0x72, 0x61, 0x53, 0x6c, 0x69, 0x6d, 0x5f, 0x31,
  0x2f, 0x67, 0x6c, 0x6f, 0x62, 0x61, 0x6c, 0x5f, 0x61, 0x76, 0x65, 0x72,
  0x61, 0x67, 0x65, 0x5f, 0x70, 0x6f, 0x6f, 0x6c, 0x69, 0x6e, 0x67, 0x31,
  0x64, 0x5f, 0x31, 0x2f, 0x4d, 0x65, 0x61, 0x6e, 0x00, 0x00, 0x00, 0x00,
  0x02, 0x00, 0x00, 0x00, 0x01, 0x00, 0x00, 0x00, 0x20, 0x00, 0x00, 0x00,
  0x82, 0xcc, 0xff, 0xff, 0x00, 0x00, 0x00, 0x01, 0x18, 0x00, 0x00, 0x00,
  0x24, 0x00, 0x00, 0x00, 0x44, 0x00, 0x00, 0x00, 0x31, 0x00, 0x00, 0x00,
  0x00, 0x00, 0x00, 0x09, 0x18, 0x02, 0x00, 0x00, 0x03, 0x00, 0x00, 0x00,
  0xff, 0xff, 0xff, 0xff, 0x19, 0x00, 0x00, 0x00, 0x20, 0x00, 0x00, 0x00,
  0x6c, 0xcc, 0xff, 0xff, 0x08, 0x00, 0x00, 0x00, 0x14, 0x00, 0x00, 0x00,
  0x01, 0x00, 0x00, 0x00, 0x89, 0xff, 0xff, 0xff, 0xff, 0xff, 0xff, 0xff,
  0x00, 0x00, 0x00, 0x00, 0x01, 0x00, 0x00, 0x00, 0x98, 0x79, 0x05, 0x3e,
  0xd9, 0x01, 0x00, 0x00, 0x46, 0x61, 0x6c, 0x6c, 0x44, 0x65, 0x74, 0x65,
  0x63, 0x74, 0x69, 0x6f, 0x6e, 0x5f, 0x56, 0x32, 0x5f, 0x55, 0x6c, 0x74,
  0x72, 0x61, 0x53, 0x6c, 0x69, 0x6d, 0x5f, 0x31, 0x2f, 0x62, 0x61, 0x74,
  0x63, 0x68, 0x5f, 0x6e, 0x6f, 0x72, 0x6d, 0x61, 0x6c, 0x69, 0x7a, 0x61,
  0x74, 0x69, 0x6f, 0x6e, 0x5f, 0x32, 0x5f, 0x31, 0x2f, 0x62, 0x61, 0x74,
  0x63, 0x68, 0x6e, 0x6f, 0x72, 0x6d, 0x2f, 0x61, 0x64, 0x64, 0x5f, 0x31,
  0x3b, 0x46, 0x61, 0x6c, 0x6c, 0x44, 0x65, 0x74, 0x65, 0x63, 0x74, 0x69,
  0x6f, 0x6e, 0x5f, 0x56, 0x32, 0x5f, 0x55, 0x6c, 0x74, 0x72, 0x61, 0x53,
  0x6c, 0x69, 0x6d, 0x5f, 0x31, 0x2f, 0x63, 0x6f, 0x6e, 0x76, 0x31, 0x64,
  0x5f, 0x32, 0x5f, 0x31, 0x2f, 0x63, 0x6f, 0x6e, 0x76, 0x6f, 0x6c, 0x75,
  0x74, 0x69, 0x6f, 0x6e, 0x2f, 0x53, 0x71, 0x75, 0x65, 0x65, 0x7a, 0x65,
  0x3b, 0x46, 0x61, 0x6c, 0x6c, 0x44, 0x65, 0x74, 0x65, 0x63, 0x74, 0x69,
  0x6f, 0x6e, 0x5f, 0x56, 0x32, 0x5f, 0x55, 0x6c, 0x74, 0x72, 0x61, 0x53,
  0x6c, 0x69, 0x6d, 0x5f, 0x31, 0x2f, 0x62, 0x61, 0x74, 0x63, 0x68, 0x5f,
  0x6e, 0x6f, 0x72, 0x6d, 0x61, 0x6c, 0x69, 0x7a, 0x61, 0x74, 0x69, 0x6f,
  0x6e, 0x5f, 0x32, 0x5f, 0x31, 0x2f, 0x62, 0x61, 0x74, 0x63, 0x68, 0x6e,
  0x6f, 0x72, 0x6d, 0x2f, 0x6d, 0x75, 0x6c, 0x5f, 0x31, 0x3b, 0x46, 0x61,
  0x6c, 0x6c, 0x44, 0x65, 0x74, 0x65, 0x63, 0x74, 0x69, 0x6f, 0x6e, 0x5f,
  0x56, 0x32, 0x5f, 0x55, 0x6c, 0x74, 0x72, 0x61, 0x53, 0x6c, 0x69, 0x6d,
  0x5f, 0x31, 0x2f, 0x63, 0x6f, 0x6e, 0x76, 0x31, 0x64, 0x5f, 0x32, 0x5f,
  0x31, 0x2f, 0x52, 0x65, 0x6c, 0x75, 0x3b, 0x46, 0x61, 0x6c, 0x6c, 0x44,
  0x65, 0x74, 0x65, 0x63, 0x74, 0x69, 0x6f, 0x6e, 0x5f, 0x56, 0x32, 0x5f,
  0x55, 0x6c, 0x74, 0x72, 0x61, 0x53, 0x6c, 0x69, 0x6d, 0x5f, 0x31, 0x2f,
  0x63, 0x6f, 0x6e, 0x76, 0x31, 0x64, 0x5f, 0x32, 0x5f, 0x31, 0x2f, 0x42,
  0x69, 0x61, 0x73, 0x41, 0x64, 0x64, 0x3b, 0x46, 0x61, 0x6c, 0x6c, 0x44,
  0x65, 0x74, 0x65, 0x63, 0x74, 0x69, 0x6f, 0x6e, 0x5f, 0x56, 0x32, 0x5f,
  0x55, 0x6c, 0x74, 0x72, 0x61, 0x53, 0x6c, 0x69, 0x6d, 0x5f, 0x31, 0x2f,
  0x63, 0x6f, 0x6e, 0x76, 0x31, 0x64, 0x5f, 0x32, 0x5f, 0x31, 0x2f, 0x53,
  0x71, 0x75, 0x65, 0x65, 0x7a, 0x65, 0x3b, 0x46, 0x61, 0x6c, 0x6c, 0x44,
  0x65, 0x74, 0x65, 0x63, 0x74, 0x69, 0x6f, 0x6e, 0x5f, 0x56, 0x32, 0x5f,
  0x55, 0x6c, 0x74, 0x72, 0x61, 0x53, 0x6c, 0x69, 0x6d, 0x5f, 0x31, 0x2f,
  0x62, 0x61, 0x74, 0x63, 0x68, 0x5f, 0x6e, 0x6f, 0x72, 0x6d, 0x61, 0x6c,
  0x69, 0x7a, 0x61, 0x74, 0x69, 0x6f, 0x6e, 0x5f, 0x32, 0x5f, 0x31, 0x2f,
  0x62, 0x61, 0x74, 0x63, 0x68, 0x6e, 0x6f, 0x72, 0x6d, 0x2f, 0x6d, 0x75,
  0x6c, 0x3b, 0x46, 0x61, 0x6c, 0x6c, 0x44, 0x65, 0x74, 0x65, 0x63, 0x74,
  0x69, 0x6f, 0x6e, 0x5f, 0x56, 0x32, 0x5f, 0x55, 0x6c, 0x74, 0x72, 0x61,
  0x53, 0x6c, 0x69, 0x6d, 0x5f, 0x31, 0x2f, 0x62, 0x61, 0x74, 0x63, 0x68,
  0x5f, 0x6e, 0x6f, 0x72, 0x6d, 0x61, 0x6c, 0x69, 0x7a, 0x61, 0x74, 0x69,
  0x6f, 0x6e, 0x5f, 0x32, 0x5f, 0x31, 0x2f, 0x62, 0x61, 0x74, 0x63, 0x68,
  0x6e, 0x6f, 0x72, 0x6d, 0x2f, 0x73, 0x75, 0x62, 0x31, 0x00, 0x00, 0x00,
  0x03, 0x00, 0x00, 0x00, 0x01, 0x00, 0x00, 0x00, 0x19, 0x00, 0x00, 0x00,
  0x20, 0x00, 0x00, 0x00, 0xc6, 0xce, 0xff, 0xff, 0x00, 0x00, 0x00, 0x01,
  0x18, 0x00, 0x00, 0x00, 0x28, 0x00, 0x00, 0x00, 0x44, 0x00, 0x00, 0x00,
  0x30, 0x00, 0x00, 0x00, 0x00, 0x00, 0x00, 0x09, 0x18, 0x02, 0x00, 0x00,
  0x04, 0x00, 0x00, 0x00, 0xff, 0xff, 0xff, 0xff, 0x01, 0x00, 0x00, 0x00,
  0x19, 0x00, 0x00, 0x00, 0x20, 0x00, 0x00, 0x00, 0xb4, 0xce, 0xff, 0xff,
  0x08, 0x00, 0x00, 0x00, 0x10, 0x00, 0x00, 0x00, 0x01, 0x00, 0x00, 0x00,
  0x89, 0xff, 0xff, 0xff, 0xff, 0xff, 0xff, 0xff, 0x01, 0x00, 0x00, 0x00,
  0x98, 0x79, 0x05, 0x3e, 0xd8, 0x01, 0x00, 0x00, 0x46, 0x61, 0x6c, 0x6c,
  0x44, 0x65, 0x74, 0x65, 0x63, 0x74, 0x69, 0x6f, 0x6e, 0x5f, 0x56, 0x32,
  0x5f, 0x55, 0x6c, 0x74, 0x72, 0x61, 0x53, 0x6c, 0x69, 0x6d, 0x5f, 0x31,
  0x2f, 0x62, 0x61, 0x74, 0x63, 0x68, 0x5f, 0x6e, 0x6f, 0x72, 0x6d, 0x61,
  0x6c, 0x69, 0x7a, 0x61, 0x74, 0x69, 0x6f, 0x6e, 0x5f, 0x32, 0x5f, 0x31,
  0x2f, 0x62, 0x61, 0x74, 0x63, 0x68, 0x6e, 0x6f, 0x72, 0x6d, 0x2f, 0x61,
  0x64, 0x64, 0x5f, 0x31, 0x3b, 0x46, 0x61, 0x6c, 0x6c, 0x44, 0x65, 0x74,
  0x65, 0x63, 0x74, 0x69, 0x6f, 0x6e, 0x5f, 0x56, 0x32, 0x5f, 0x55, 0x6c,
  0x74, 0x72, 0x61, 0x53, 0x6c, 0x69, 0x6d, 0x5f, 0x31, 0x2f, 0x63, 0x6f,
  0x6e, 0x76, 0x31, 0x64, 0x5f, 0x32, 0x5f, 0x31, 0x2f, 0x63, 0x6f, 0x6e,
  0x76, 0x6f, 0x6c, 0x75, 0x74, 0x69, 0x6f, 0x6e, 0x2f, 0x53, 0x71, 0x75,
  0x65, 0x65, 0x7a, 0x65, 0x3b, 0x46, 0x61, 0x6c, 0x6c, 0x44, 0x65, 0x74,
  0x65, 0x63, 0x74, 0x69, 0x6f, 0x6e, 0x5f, 0x56, 0x32, 0x5f, 0x55, 0x6c,
  0x74, 0x72, 0x61, 0x53, 0x6c, 0x69, 0x6d, 0x5f, 0x31, 0x2f, 0x62, 0x61,
  0x74, 0x63, 0x68, 0x5f, 0x6e, 0x6f, 0x72, 0x6d, 0x61, 0x6c, 0x69, 0x7a,
  0x61, 0x74, 0x69, 0x6f, 0x6e, 0x5f, 0x32, 0x5f, 0x31, 0x2f, 0x62, 0x61,
  0x74, 0x63, 0x68, 0x6e, 0x6f, 0x72, 0x6d, 0x2f, 0x6d, 0x75, 0x6c, 0x5f,
  0x31, 0x3b, 0x46, 0x61, 0x6c, 0x6c, 0x44, 0x65, 0x74, 0x65, 0x63, 0x74,
  0x69, 0x6f, 0x6e, 0x5f, 0x56, 0x32, 0x5f, 0x55, 0x6c, 0x74, 0x72, 0x61,
  0x53, 0x6c, 0x69, 0x6d, 0x5f, 0x31, 0x2f, 0x63, 0x6f, 0x6e, 0x76, 0x31,
  0x64, 0x5f, 0x32, 0x5f, 0x31, 0x2f, 0x52, 0x65, 0x6c, 0x75, 0x3b, 0x46,
  0x61, 0x6c, 0x6c, 0x44, 0x65, 0x74, 0x65, 0x63, 0x74, 0x69, 0x6f, 0x6e,
  0x5f, 0x56, 0x32, 0x5f, 0x55, 0x6c, 0x74, 0x72, 0x61, 0x53, 0x6c, 0x69,
  0x6d, 0x5f, 0x31, 0x2f, 0x63, 0x6f, 0x6e, 0x76, 0x31, 0x64, 0x5f, 0x32,
  0x5f, 0x31, 0x2f, 0x42, 0x69, 0x61, 0x73, 0x41, 0x64, 0x64, 0x3b, 0x46,
  0x61, 0x6c, 0x6c, 0x44, 0x65, 0x74, 0x65, 0x63, 0x74, 0x69, 0x6f, 0x6e,
  0x5f, 0x56, 0x32, 0x5f, 0x55, 0x6c, 0x74, 0x72, 0x61, 0x53, 0x6c, 0x69,
  0x6d, 0x5f, 0x31, 0x2f, 0x63, 0x6f, 0x6e, 0x76, 0x31, 0x64, 0x5f, 0x32,
  0x5f, 0x31, 0x2f, 0x53, 0x71, 0x75, 0x65, 0x65, 0x7a, 0x65, 0x3b, 0x46,
  0x61, 0x6c, 0x6c, 0x44, 0x65, 0x74, 0x65, 0x63, 0x74, 0x69, 0x6f, 0x6e,
  0x5f, 0x56, 0x32, 0x5f, 0x55, 0x6c, 0x74, 0x72, 0x61, 0x53, 0x6c, 0x69,
  0x6d, 0x5f, 0x31, 0x2f, 0x62, 0x61, 0x74, 0x63, 0x68, 0x5f, 0x6e, 0x6f,
  0x72, 0x6d, 0x61, 0x6c, 0x69, 0x7a, 0x61, 0x74, 0x69, 0x6f, 0x6e, 0x5f,
  0x32, 0x5f, 0x31, 0x2f, 0x62, 0x61, 0x74, 0x63, 0x68, 0x6e, 0x6f, 0x72,
  0x6d, 0x2f, 0x6d, 0x75, 0x6c, 0x3b, 0x46, 0x61, 0x6c, 0x6c, 0x44, 0x65,
  0x74, 0x65, 0x63, 0x74, 0x69, 0x6f, 0x6e, 0x5f, 0x56, 0x32, 0x5f, 0x55,
  0x6c, 0x74, 0x72, 0x61, 0x53, 0x6c, 0x69, 0x6d, 0x5f, 0x31, 0x2f, 0x62,
  0x61, 0x74, 0x63, 0x68, 0x5f, 0x6e, 0x6f, 0x72, 0x6d, 0x61, 0x6c, 0x69,
  0x7a, 0x61, 0x74, 0x69, 0x6f, 0x6e, 0x5f, 0x32, 0x5f, 0x31, 0x2f, 0x62,
  0x61, 0x74, 0x63, 0x68, 0x6e, 0x6f, 0x72, 0x6d, 0x2f, 0x73, 0x75, 0x62,
  0x00, 0x00, 0x00, 0x00, 0x04, 0x00, 0x00, 0x00, 0x01, 0x00, 0x00, 0x00,
  0x01, 0x00, 0x00, 0x00, 0x19, 0x00, 0x00, 0x00, 0x20, 0x00, 0x00, 0x00,
  0x0e, 0xd1, 0xff, 0xff, 0x00, 0x00, 0x00, 0x01, 0x18, 0x00, 0x00, 0x00,
  0x28, 0x00, 0x00, 0x00, 0x44, 0x00, 0x00, 0x00, 0x2f, 0x00, 0x00, 0x00,
  0x00, 0x00, 0x00, 0x09, 0x90, 0x01, 0x00, 0x00, 0x04, 0x00, 0x00, 0x00,
  0xff, 0xff, 0xff, 0xff, 0x01, 0x00, 0x00, 0x00, 0x19, 0x00, 0x00, 0x00,
  0x20, 0x00, 0x00, 0x00, 0xfc, 0xd0, 0xff, 0xff, 0x08, 0x00, 0x00, 0x00,
  0x10, 0x00, 0x00, 0x00, 0x01, 0x00, 0x00, 0x00, 0x89, 0xff, 0xff, 0xff,
  0xff, 0xff, 0xff, 0xff, 0x01, 0x00, 0x00, 0x00, 0x05, 0xa5, 0x08, 0x3e,
  0x50, 0x01, 0x00, 0x00, 0x46, 0x61, 0x6c, 0x6c, 0x44, 0x65, 0x74, 0x65,
  0x63, 0x74, 0x69, 0x6f, 0x6e, 0x5f, 0x56, 0x32, 0x5f, 0x55, 0x6c, 0x74,
  0x72, 0x61, 0x53, 0x6c, 0x69, 0x6d, 0x5f, 0x31, 0x2f, 0x62, 0x61, 0x74,
  0x63, 0x68, 0x5f, 0x6e, 0x6f, 0x72, 0x6d, 0x61, 0x6c, 0x69, 0x7a, 0x61,
  0x74, 0x69, 0x6f, 0x6e, 0x5f, 0x32, 0x5f, 0x31, 0x2f, 0x62, 0x61, 0x74,
  0x63, 0x68, 0x6e, 0x6f, 0x72, 0x6d, 0x2f, 0x6d, 0x75, 0x6c, 0x5f, 0x31,
  0x3b, 0x46, 0x61, 0x6c, 0x6c, 0x44, 0x65, 0x74, 0x65, 0x63, 0x74, 0x69,
  0x6f, 0x6e, 0x5f, 0x56, 0x32, 0x5f, 0x55, 0x6c, 0x74, 0x72, 0x61, 0x53,
  0x6c, 0x69, 0x6d, 0x5f, 0x31, 0x2f, 0x63, 0x6f, 0x6e, 0x76, 0x31, 0x64,
  0x5f, 0x32, 0x5f, 0x31, 0x2f, 0x63, 0x6f, 0x6e, 0x76, 0x6f, 0x6c, 0x75,
  0x74, 0x69, 0x6f, 0x6e, 0x2f, 0x53, 0x71, 0x75, 0x65, 0x65, 0x7a, 0x65,
  0x3b, 0x46, 0x61, 0x6c, 0x6c, 0x44, 0x65, 0x74, 0x65, 0x63, 0x74, 0x69,
  0x6f, 0x6e, 0x5f, 0x56, 0x32, 0x5f, 0x55, 0x6c, 0x74, 0x72, 0x61, 0x53,
  0x6c, 0x69, 0x6d, 0x5f, 0x31, 0x2f, 0x63, 0x6f, 0x6e, 0x76, 0x31, 0x64,
  0x5f, 0x32, 0x5f, 0x31, 0x2f, 0x52, 0x65, 0x6c, 0x75, 0x3b, 0x46, 0x61,
  0x6c, 0x6c, 0x44, 0x65, 0x74, 0x65, 0x63, 0x74, 0x69, 0x6f, 0x6e, 0x5f,
  0x56, 0x32, 0x5f, 0x55, 0x6c, 0x74, 0x72, 0x61, 0x53, 0x6c, 0x69, 0x6d,
  0x5f, 0x31, 0x2f, 0x63, 0x6f, 0x6e, 0x76, 0x31, 0x64, 0x5f, 0x32, 0x5f,
  0x31, 0x2f, 0x42, 0x69, 0x61, 0x73, 0x41, 0x64, 0x64, 0x3b, 0x46, 0x61,
  0x6c, 0x6c, 0x44, 0x65, 0x74, 0x65, 0x63, 0x74, 0x69, 0x6f, 0x6e, 0x5f,
  0x56, 0x32, 0x5f, 0x55, 0x6c, 0x74, 0x72, 0x61, 0x53, 0x6c, 0x69, 0x6d,
  0x5f, 0x31, 0x2f, 0x63, 0x6f, 0x6e, 0x76, 0x31, 0x64, 0x5f, 0x32, 0x5f,
  0x31, 0x2f, 0x53, 0x71, 0x75, 0x65, 0x65, 0x7a, 0x65, 0x3b, 0x46, 0x61,
  0x6c, 0x6c, 0x44, 0x65, 0x74, 0x65, 0x63, 0x74, 0x69, 0x6f, 0x6e, 0x5f,
  0x56, 0x32, 0x5f, 0x55, 0x6c, 0x74, 0x72, 0x61, 0x53, 0x6c, 0x69, 0x6d,
  0x5f, 0x31, 0x2f, 0x62, 0x61, 0x74, 0x63, 0x68, 0x5f, 0x6e, 0x6f, 0x72,
  0x6d, 0x61, 0x6c, 0x69, 0x7a, 0x61, 0x74, 0x69, 0x6f, 0x6e, 0x5f, 0x32,
  0x5f, 0x31, 0x2f, 0x62, 0x61, 0x74, 0x63, 0x68, 0x6e, 0x6f, 0x72, 0x6d,
  0x2f, 0x6d, 0x75, 0x6c, 0x00, 0x00, 0x00, 0x00, 0x04, 0x00, 0x00, 0x00,
  0x01, 0x00, 0x00, 0x00, 0x01, 0x00, 0x00, 0x00, 0x19, 0x00, 0x00, 0x00,
  0x20, 0x00, 0x00, 0x00, 0xce, 0xd2, 0xff, 0xff, 0x00, 0x00, 0x00, 0x01,
  0x18, 0x00, 0x00, 0x00, 0x28, 0x00, 0x00, 0x00, 0x48, 0x00, 0x00, 0x00,
  0x2e, 0x00, 0x00, 0x00, 0x00, 0x00, 0x00, 0x09, 0x40, 0x01, 0x00, 0x00,
  0x04, 0x00, 0x00, 0x00, 0xff, 0xff, 0xff, 0xff, 0x01, 0x00, 0x00, 0x00,
  0x19, 0x00, 0x00, 0x00, 0x20, 0x00, 0x00, 0x00, 0xbc, 0xd2, 0xff, 0xff,
  0x08, 0x00, 0x00, 0x00, 0x14, 0x00, 0x00, 0x00, 0x01, 0x00, 0x00, 0x00,
  0x80, 0xff, 0xff, 0xff, 0xff, 0xff, 0xff, 0xff, 0x00, 0x00, 0x00, 0x00,
  0x01, 0x00, 0x00, 0x00, 0xbe, 0x03, 0x04, 0x3e, 0xfd, 0x00, 0x00, 0x00,
  0x46, 0x61, 0x6c, 0x6c, 0x44, 0x65, 0x74, 0x65, 0x63, 0x74, 0x69, 0x6f,
  0x6e, 0x5f, 0x56, 0x32, 0x5f, 0x55, 0x6c, 0x74, 0x72, 0x61, 0x53, 0x6c,
  0x69, 0x6d, 0x5f, 0x31, 0x2f, 0x63, 0x6f, 0x6e, 0x76, 0x31, 0x64, 0x5f,
  0x32, 0x5f, 0x31, 0x2f, 0x52, 0x65, 0x6c, 0x75, 0x3b, 0x46, 0x61, 0x6c,
  0x6c, 0x44, 0x65, 0x74, 0x65, 0x63, 0x74, 0x69, 0x6f, 0x6e, 0x5f, 0x56,
  0x32, 0x5f, 0x55, 0x6c, 0x74, 0x72, 0x61, 0x53, 0x6c, 0x69, 0x6d, 0x5f,
  0x31, 0x2f, 0x63, 0x6f, 0x6e, 0x76, 0x31, 0x64, 0x5f, 0x32, 0x5f, 0x31,
  0x2f, 0x42, 0x69, 0x61, 0x73, 0x41, 0x64, 0x64, 0x3b, 0x46, 0x61, 0x6c,
  0x6c, 0x44, 0x65, 0x74, 0x65, 0x63, 0x74, 0x69, 0x6f, 0x6e, 0x5f, 0x56,
  0x32, 0x5f, 0x55, 0x6c, 0x74, 0x72, 0x61, 0x53, 0x6c, 0x69, 0x6d, 0x5f,
  0x31, 0x2f, 0x63, 0x6f, 0x6e, 0x76, 0x31, 0x64, 0x5f, 0x32, 0x5f, 0x31,
  0x2f, 0x63, 0x6f, 0x6e, 0x76, 0x6f, 0x6c, 0x75, 0x74, 0x69, 0x6f, 0x6e,
  0x2f, 0x53, 0x71, 0x75, 0x65, 0x65, 0x7a, 0x65, 0x3b, 0x46, 0x61, 0x6c,
  0x6c, 0x44, 0x65, 0x74, 0x65, 0x63, 0x74, 0x69, 0x6f, 0x6e, 0x5f, 0x56,
  0x32, 0x5f, 0x55, 0x6c, 0x74, 0x72, 0x61, 0x53, 0x6c, 0x69, 0x6d, 0x5f,
  0x31, 0x2f, 0x63, 0x6f, 0x6e, 0x76, 0x31, 0x64, 0x5f, 0x32, 0x5f, 0x31,
  0x2f, 0x53, 0x71, 0x75, 0x65, 0x65, 0x7a, 0x65, 0x3b, 0x46, 0x61, 0x6c,
  0x6c, 0x44, 0x65, 0x74, 0x65, 0x63, 0x74, 0x69, 0x6f, 0x6e, 0x5f, 0x56,
  0x32, 0x5f, 0x55, 0x6c, 0x74, 0x72, 0x61, 0x53, 0x6c, 0x69, 0x6d, 0x5f,
  0x31, 0x2f, 0x63, 0x6f, 0x6e, 0x76, 0x31, 0x64, 0x5f, 0x32, 0x5f, 0x31,
  0x2f, 0x63, 0x6f, 0x6e, 0x76, 0x6f, 0x6c, 0x75, 0x74, 0x69, 0x6f, 0x6e,
  0x31, 0x00, 0x00, 0x00, 0x04, 0x00, 0x00, 0x00, 0x01, 0x00, 0x00, 0x00,
  0x01, 0x00, 0x00, 0x00, 0x19, 0x00, 0x00, 0x00, 0x20, 0x00, 0x00, 0x00,
  0x3e, 0xd4, 0xff, 0xff, 0x00, 0x00, 0x00, 0x01, 0x18, 0x00, 0x00, 0x00,
  0x28, 0x00, 0x00, 0x00, 0x44, 0x00, 0x00, 0x00, 0x2d, 0x00, 0x00, 0x00,
  0x00, 0x00, 0x00, 0x09, 0x7c, 0x00, 0x00, 0x00, 0x04, 0x00, 0x00, 0x00,
  0xff, 0xff, 0xff, 0xff, 0x01, 0x00, 0x00, 0x00, 0x19, 0x00, 0x00, 0x00,
  0x10, 0x00, 0x00, 0x00, 0x2c, 0xd4, 0xff, 0xff, 0x08, 0x00, 0x00, 0x00,
  0x10, 0x00, 0x00, 0x00, 0x01, 0x00, 0x00, 0x00, 0x88, 0xff, 0xff, 0xff,
  0xff, 0xff, 0xff, 0xff, 0x01, 0x00, 0x00, 0x00, 0x0c, 0xd9, 0x12, 0x3e,
  0x3e, 0x00, 0x00, 0x00, 0x46, 0x61, 0x6c, 0x6c, 0x44, 0x65, 0x74, 0x65,
  0x63, 0x74, 0x69, 0x6f, 0x6e, 0x5f, 0x56, 0x32, 0x5f, 0x55, 0x6c, 0x74,
  0x72, 0x61, 0x53, 0x6c, 0x69, 0x6d, 0x5f, 0x31, 0x2f, 0x63, 0x6f, 0x6e,
  0x76, 0x31, 0x64, 0x5f, 0x32, 0x5f, 0x31, 0x2f, 0x63, 0x6f, 0x6e, 0x76,
  0x6f, 0x6c, 0x75, 0x74, 0x69, 0x6f, 0x6e, 0x2f, 0x45, 0x78, 0x70, 0x61,
  0x6e, 0x64, 0x44, 0x69, 0x6d, 0x73, 0x00, 0x00, 0x04, 0x00, 0x00, 0x00,
  0x01, 0x00, 0x00, 0x00, 0x01, 0x00, 0x00, 0x00, 0x19, 0x00, 0x00, 0x00,
  0x10, 0x00, 0x00, 0x00, 0xea, 0xd4, 0xff, 0xff, 0x00, 0x00, 0x00, 0x01,
  0x18, 0x00, 0x00, 0x00, 0x24, 0x00, 0x00, 0x00, 0x44, 0x00, 0x00, 0x00,
  0x2c, 0x00, 0x00, 0x00, 0x00, 0x00, 0x00, 0x09, 0x80, 0x00, 0x00, 0x00,
  0x03, 0x00, 0x00, 0x00, 0xff, 0xff, 0xff, 0xff, 0x19, 0x00, 0x00, 0x00,
  0x10, 0x00, 0x00, 0x00, 0xd4, 0xd4, 0xff, 0xff, 0x08, 0x00, 0x00, 0x00,
  0x14, 0x00, 0x00, 0x00, 0x01, 0x00, 0x00, 0x00, 0x88, 0xff, 0xff, 0xff,
  0xff, 0xff, 0xff, 0xff, 0x00, 0x00, 0x00, 0x00, 0x01, 0x00, 0x00, 0x00,
  0x0c, 0xd9, 0x12, 0x3e, 0x41, 0x00, 0x00, 0x00, 0x46, 0x61, 0x6c, 0x6c,
  0x44, 0x65, 0x74, 0x65, 0x63, 0x74, 0x69, 0x6f, 0x6e, 0x5f, 0x56, 0x32,
  0x5f, 0x55, 0x6c, 0x74, 0x72, 0x61, 0x53, 0x6c, 0x69, 0x6d, 0x5f, 0x31,
  0x2f, 0x6d, 0x61, 0x78, 0x5f, 0x70, 0x6f, 0x6f, 0x6c, 0x69, 0x6e, 0x67,
  0x31, 0x64, 0x5f, 0x31, 0x5f, 0x32, 0x2f, 0x4d, 0x61, 0x78, 0x50, 0x6f,
  0x6f, 0x6c, 0x31, 0x64, 0x2f, 0x53, 0x71, 0x75, 0x65, 0x65, 0x7a, 0x65,
  0x31, 0x00, 0x00, 0x00, 0x03, 0x00, 0x00, 0x00, 0x01, 0x00, 0x00, 0x00,
  0x19, 0x00, 0x00, 0x00, 0x10, 0x00, 0x00, 0x00, 0x96, 0xd5, 0xff, 0xff,
  0x00, 0x00, 0x00, 0x01, 0x18, 0x00, 0x00, 0x00, 0x28, 0x00, 0x00, 0x00,
  0x44, 0x00, 0x00, 0x00, 0x2b, 0x00, 0x00, 0x00, 0x00, 0x00, 0x00, 0x09,
  0x78, 0x00, 0x00, 0x00, 0x04, 0x00, 0x00, 0x00, 0xff, 0xff, 0xff, 0xff,
  0x01, 0x00, 0x00, 0x00, 0x19, 0x00, 0x00, 0x00, 0x10, 0x00, 0x00, 0x00,
  0x84, 0xd5, 0xff, 0xff, 0x08, 0x00, 0x00, 0x00, 0x10, 0x00, 0x00, 0x00,
  0x01, 0x00, 0x00, 0x00, 0x88, 0xff, 0xff, 0xff, 0xff, 0xff, 0xff, 0xff,
  0x01, 0x00, 0x00, 0x00, 0x0c, 0xd9, 0x12, 0x3e, 0x38, 0x00, 0x00, 0x00,
  0x46, 0x61, 0x6c, 0x6c, 0x44, 0x65, 0x74, 0x65, 0x63, 0x74, 0x69, 0x6f,
  0x6e, 0x5f, 0x56, 0x32, 0x5f, 0x55, 0x6c, 0x74, 0x72, 0x61, 0x53, 0x6c,
  0x69, 0x6d, 0x5f, 0x31, 0x2f, 0x6d, 0x61, 0x78, 0x5f, 0x70, 0x6f, 0x6f,
  0x6c, 0x69, 0x6e, 0x67, 0x31, 0x64, 0x5f, 0x31, 0x5f, 0x32, 0x2f, 0x4d,
  0x61, 0x78, 0x50, 0x6f, 0x6f, 0x6c, 0x31, 0x64, 0x00, 0x00, 0x00, 0x00,
  0x04, 0x00, 0x00, 0x00, 0x01, 0x00, 0x00, 0x00, 0x01, 0x00, 0x00, 0x00,
  0x19, 0x00, 0x00, 0x00, 0x10, 0x00, 0x00, 0x00, 0x3e, 0xd6, 0xff, 0xff,
  0x00, 0x00, 0x00, 0x01, 0x18, 0x00, 0x00, 0x00, 0x28, 0x00, 0x00, 0x00,
  0x48, 0x00, 0x00, 0x00, 0x2a, 0x00, 0x00, 0x00, 0x00, 0x00, 0x00, 0x09,
  0x84, 0x00, 0x00, 0x00, 0x04, 0x00, 0x00, 0x00, 0xff, 0xff, 0xff, 0xff,
  0x01, 0x00, 0x00, 0x00, 0x32, 0x00, 0x00, 0x00, 0x10, 0x00, 0x00, 0x00,
  0x2c, 0xd6, 0xff, 0xff, 0x08, 0x00, 0x00, 0x00, 0x14, 0x00, 0x00, 0x00,
  0x01, 0x00, 0x00, 0x00, 0x88, 0xff, 0xff, 0xff, 0xff, 0xff, 0xff, 0xff,
  0x00, 0x00, 0x00, 0x00, 0x01, 0x00, 0x00, 0x00, 0x0c, 0xd9, 0x12, 0x3e,
  0x43, 0x00, 0x00, 0x00, 0x46, 0x61, 0x6c, 0x6c, 0x44, 0x65, 0x74, 0x65,
  0x63, 0x74, 0x69, 0x6f, 0x6e, 0x5f, 0x56, 0x32, 0x5f, 0x55, 0x6c, 0x74,
  0x72, 0x61, 0x53, 0x6c, 0x69, 0x6d, 0x5f, 0x31, 0x2f, 0x6d, 0x61, 0x78,
  0x5f, 0x70, 0x6f, 0x6f, 0x6c, 0x69, 0x6e, 0x67, 0x31, 0x64, 0x5f, 0x31,
  0x5f, 0x32, 0x2f, 0x4d, 0x61, 0x78, 0x50, 0x6f, 0x6f, 0x6c, 0x31, 0x64,
  0x2f, 0x45, 0x78, 0x70, 0x61, 0x6e, 0x64, 0x44, 0x69, 0x6d, 0x73, 0x00,
  0x04, 0x00, 0x00, 0x00, 0x01, 0x00, 0x00, 0x00, 0x01, 0x00, 0x00, 0x00,
  0x32, 0x00, 0x00, 0x00, 0x10, 0x00, 0x00, 0x00, 0xf2, 0xd6, 0xff, 0xff,
  0x00, 0x00, 0x00, 0x01, 0x18, 0x00, 0x00, 0x00, 0x24, 0x00, 0x00, 0x00,
  0x44, 0x00, 0x00, 0x00, 0x29, 0x00, 0x00, 0x00, 0x00, 0x00, 0x00, 0x09,
  0x18, 0x02, 0x00, 0x00, 0x03, 0x00, 0x00, 0x00, 0xff, 0xff, 0xff, 0xff,
  0x32, 0x00, 0x00, 0x00, 0x10, 0x00, 0x00, 0x00, 0xdc, 0xd6, 0xff, 0xff,
  0x08, 0x00, 0x00, 0x00, 0x14, 0x00, 0x00, 0x00, 0x01, 0x00, 0x00, 0x00,
  0x88, 0xff, 0xff, 0xff, 0xff, 0xff, 0xff, 0xff, 0x00, 0x00, 0x00, 0x00,
  0x01, 0x00, 0x00, 0x00, 0x0c, 0xd9, 0x12, 0x3e, 0xd9, 0x01, 0x00, 0x00,
  0x46, 0x61, 0x6c, 0x6c, 0x44, 0x65, 0x74, 0x65, 0x63, 0x74, 0x69, 0x6f,
  0x6e, 0x5f, 0x56, 0x32, 0x5f, 0x55, 0x6c, 0x74, 0x72, 0x61, 0x53, 0x6c,
  0x69, 0x6d, 0x5f, 0x31, 0x2f, 0x62, 0x61, 0x74, 0x63, 0x68, 0x5f, 0x6e,
  0x6f, 0x72, 0x6d, 0x61, 0x6c, 0x69, 0x7a, 0x61, 0x74, 0x69, 0x6f, 0x6e,
  0x5f, 0x31, 0x5f, 0x32, 0x2f, 0x62, 0x61, 0x74, 0x63, 0x68, 0x6e, 0x6f,
  0x72, 0x6d, 0x2f, 0x61, 0x64, 0x64, 0x5f, 0x31, 0x3b, 0x46, 0x61, 0x6c,
  0x6c, 0x44, 0x65, 0x74, 0x65, 0x63, 0x74, 0x69, 0x6f, 0x6e, 0x5f, 0x56,
  0x32, 0x5f, 0x55, 0x6c, 0x74, 0x72, 0x61, 0x53, 0x6c, 0x69, 0x6d, 0x5f,
  0x31, 0x2f, 0x63, 0x6f, 0x6e, 0x76, 0x31, 0x64, 0x5f, 0x31, 0x5f, 0x32,
  0x2f, 0x63, 0x6f, 0x6e, 0x76, 0x6f, 0x6c, 0x75, 0x74, 0x69, 0x6f, 0x6e,
  0x2f, 0x53, 0x71, 0x75, 0x65, 0x65, 0x7a, 0x65, 0x3b, 0x46, 0x61, 0x6c,
  0x6c, 0x44, 0x65, 0x74, 0x65, 0x63, 0x74, 0x69, 0x6f, 0x6e, 0x5f, 0x56,
  0x32, 0x5f, 0x55, 0x6c, 0x74, 0x72, 0x61, 0x53, 0x6c, 0x69, 0x6d, 0x5f,
  0x31, 0x2f, 0x62, 0x61, 0x74, 0x63, 0x68, 0x5f, 0x6e, 0x6f, 0x72, 0x6d,
  0x61, 0x6c, 0x69, 0x7a, 0x61, 0x74, 0x69, 0x6f, 0x6e, 0x5f, 0x31, 0x5f,
  0x32, 0x2f, 0x62, 0x61, 0x74, 0x63, 0x68, 0x6e, 0x6f, 0x72, 0x6d, 0x2f,
  0x6d, 0x75, 0x6c, 0x5f, 0x31, 0x3b, 0x46, 0x61, 0x6c, 0x6c, 0x44, 0x65,
  0x74, 0x65, 0x63, 0x74, 0x69, 0x6f, 0x6e, 0x5f, 0x56, 0x32, 0x5f, 0x55,
  0x6c, 0x74, 0x72, 0x61, 0x53, 0x6c, 0x69, 0x6d, 0x5f, 0x31, 0x2f, 0x63,
  0x6f, 0x6e, 0x76, 0x31, 0x64, 0x5f, 0x31, 0x5f, 0x32, 0x2f, 0x52, 0x65,
  0x6c, 0x75, 0x3b, 0x46, 0x61, 0x6c, 0x6c, 0x44, 0x65, 0x74, 0x65, 0x63,
  0x74, 0x69, 0x6f, 0x6e, 0x5f, 0x56, 0x32, 0x5f, 0x55, 0x6c, 0x74, 0x72,
  0x61, 0x53, 0x6c, 0x69, 0x6d, 0x5f, 0x31, 0x2f, 0x63, 0x6f, 0x6e, 0x76,
  0x31, 0x64, 0x5f, 0x31, 0x5f, 0x32, 0x2f, 0x42, 0x69, 0x61, 0x73, 0x41,
  0x64, 0x64, 0x3b, 0x46, 0x61, 0x6c, 0x6c, 0x44, 0x65, 0x74, 0x65, 0x63,
  0x74, 0x69, 0x6f, 0x6e, 0x5f, 0x56, 0x32, 0x5f, 0x55, 0x6c, 0x74, 0x72,
  0x61, 0x53, 0x6c, 0x69, 0x6d, 0x5f, 0x31, 0x2f, 0x63, 0x6f, 0x6e, 0x76,
  0x31, 0x64, 0x5f, 0x31, 0x5f, 0x32, 0x2f, 0x53, 0x71, 0x75, 0x65, 0x65,
  0x7a, 0x65, 0x3b, 0x46, 0x61, 0x6c, 0x6c, 0x44, 0x65, 0x74, 0x65, 0x63,
  0x74, 0x69, 0x6f, 0x6e, 0x5f, 0x56, 0x32, 0x5f, 0x55, 0x6c, 0x74, 0x72,
  0x61, 0x53, 0x6c, 0x69, 0x6d, 0x5f, 0x31, 0x2f, 0x62, 0x61, 0x74, 0x63,
  0x68, 0x5f, 0x6e, 0x6f, 0x72, 0x6d, 0x61, 0x6c, 0x69, 0x7a, 0x61, 0x74,
  0x69, 0x6f, 0x6e, 0x5f, 0x31, 0x5f, 0x32, 0x2f, 0x62, 0x61, 0x74, 0x63,
  0x68, 0x6e, 0x6f, 0x72, 0x6d, 0x2f, 0x6d, 0x75, 0x6c, 0x3b, 0x46, 0x61,
  0x6c, 0x6c, 0x44, 0x65, 0x74, 0x65, 0x63, 0x74, 0x69, 0x6f, 0x6e, 0x5f,
  0x56, 0x32, 0x5f, 0x55, 0x6c, 0x74, 0x72, 0x61, 0x53, 0x6c, 0x69, 0x6d,
  0x5f, 0x31, 0x2f, 0x62, 0x61, 0x74, 0x63, 0x68, 0x5f, 0x6e, 0x6f, 0x72,
  0x6d, 0x61, 0x6c, 0x69, 0x7a, 0x61, 0x74, 0x69, 0x6f, 0x6e, 0x5f, 0x31,
  0x5f, 0x32, 0x2f, 0x62, 0x61, 0x74, 0x63, 0x68, 0x6e, 0x6f, 0x72, 0x6d,
  0x2f, 0x73, 0x75, 0x62, 0x31, 0x00, 0x00, 0x00, 0x03, 0x00, 0x00, 0x00,
  0x01, 0x00, 0x00, 0x00, 0x32, 0x00, 0x00, 0x00, 0x10, 0x00, 0x00, 0x00,
  0x36, 0xd9, 0xff, 0xff, 0x00, 0x00, 0x00, 0x01, 0x18, 0x00, 0x00, 0x00,
  0x28, 0x00, 0x00, 0x00, 0x44, 0x00, 0x00, 0x00, 0x28, 0x00, 0x00, 0x00,
  0x00, 0x00, 0x00, 0x09, 0x18, 0x02, 0x00, 0x00, 0x04, 0x00, 0x00, 0x00,
  0xff, 0xff, 0xff, 0xff, 0x01, 0x00, 0x00, 0x00, 0x32, 0x00, 0x00, 0x00,
  0x10, 0x00, 0x00, 0x00, 0x24, 0xd9, 0xff, 0xff, 0x08, 0x00, 0x00, 0x00,
  0x10, 0x00, 0x00, 0x00, 0x01, 0x00, 0x00, 0x00, 0x88, 0xff, 0xff, 0xff,
  0xff, 0xff, 0xff, 0xff, 0x01, 0x00, 0x00, 0x00, 0x0c, 0xd9, 0x12, 0x3e,
  0xd8, 0x01, 0x00, 0x00, 0x46, 0x61, 0x6c, 0x6c, 0x44, 0x65, 0x74, 0x65,
  0x63, 0x74, 0x69, 0x6f, 0x6e, 0x5f, 0x56, 0x32, 0x5f, 0x55, 0x6c, 0x74,
  0x72, 0x61, 0x53, 0x6c, 0x69, 0x6d, 0x5f, 0x31, 0x2f, 0x62, 0x61, 0x74,
  0x63, 0x68, 0x5f, 0x6e, 0x6f, 0x72, 0x6d, 0x61, 0x6c, 0x69, 0x7a, 0x61,
  0x74, 0x69, 0x6f, 0x6e, 0x5f, 0x31, 0x5f, 0x32, 0x2f, 0x62, 0x61, 0x74,
  0x63, 0x68, 0x6e, 0x6f, 0x72, 0x6d, 0x2f, 0x61, 0x64, 0x64, 0x5f, 0x31,
  0x3b, 0x46, 0x61, 0x6c, 0x6c, 0x44, 0x65, 0x74, 0x65, 0x63, 0x74, 0x69,
  0x6f, 0x6e, 0x5f, 0x56, 0x32, 0x5f, 0x55, 0x6c, 0x74, 0x72, 0x61, 0x53,
  0x6c, 0x69, 0x6d, 0x5f, 0x31, 0x2f, 0x63, 0x6f, 0x6e, 0x76, 0x31, 0x64,
  0x5f, 0x31, 0x5f, 0x32, 0x2f, 0x63, 0x6f, 0x6e, 0x76, 0x6f, 0x6c, 0x75,
  0x74, 0x69, 0x6f, 0x6e, 0x2f, 0x53, 0x71, 0x75, 0x65, 0x65, 0x7a, 0x65,
  0x3b, 0x46, 0x61, 0x6c, 0x6c, 0x44, 0x65, 0x74, 0x65, 0x63, 0x74, 0x69,
  0x6f, 0x6e, 0x5f, 0x56, 0x32, 0x5f, 0x55, 0x6c, 0x74, 0x72, 0x61, 0x53,
  0x6c, 0x69, 0x6d, 0x5f, 0x31, 0x2f, 0x62, 0x61, 0x74, 0x63, 0x68, 0x5f,
  0x6e, 0x6f, 0x72, 0x6d, 0x61, 0x6c, 0x69, 0x7a, 0x61, 0x74, 0x69, 0x6f,
  0x6e, 0x5f, 0x31, 0x5f, 0x32, 0x2f, 0x62, 0x61, 0x74, 0x63, 0x68, 0x6e,
  0x6f, 0x72, 0x6d, 0x2f, 0x6d, 0x75, 0x6c, 0x5f, 0x31, 0x3b, 0x46, 0x61,
  0x6c, 0x6c, 0x44, 0x65, 0x74, 0x65, 0x63, 0x74, 0x69, 0x6f, 0x6e, 0x5f,
  0x56, 0x32, 0x5f, 0x55, 0x6c, 0x74, 0x72, 0x61, 0x53, 0x6c, 0x69, 0x6d,
  0x5f, 0x31, 0x2f, 0x63, 0x6f, 0x6e, 0x76, 0x31, 0x64, 0x5f, 0x31, 0x5f,
  0x32, 0x2f, 0x52, 0x65, 0x6c, 0x75, 0x3b, 0x46, 0x61, 0x6c, 0x6c, 0x44,
  0x65, 0x74, 0x65, 0x63, 0x74, 0x69, 0x6f, 0x6e, 0x5f, 0x56, 0x32, 0x5f,
  0x55, 0x6c, 0x74, 0x72, 0x61, 0x53, 0x6c, 0x69, 0x6d, 0x5f, 0x31, 0x2f,
  0x63, 0x6f, 0x6e, 0x76, 0x31, 0x64, 0x5f, 0x31, 0x5f, 0x32, 0x2f, 0x42,
  0x69, 0x61, 0x73, 0x41, 0x64, 0x64, 0x3b, 0x46, 0x61, 0x6c, 0x6c, 0x44,
  0x65, 0x74, 0x65, 0x63, 0x74, 0x69, 0x6f, 0x6e, 0x5f, 0x56, 0x32, 0x5f,
  0x55, 0x6c, 0x74, 0x72, 0x61, 0x53, 0x6c, 0x69, 0x6d, 0x5f, 0x31, 0x2f,
  0x63, 0x6f, 0x6e, 0x76, 0x31, 0x64, 0x5f, 0x31, 0x5f, 0x32, 0x2f, 0x53,
  0x71, 0x75, 0x65, 0x65, 0x7a, 0x65, 0x3b, 0x46, 0x61, 0x6c, 0x6c, 0x44,
  0x65, 0x74, 0x65, 0x63, 0x74, 0x69, 0x6f, 0x6e, 0x5f, 0x56, 0x32, 0x5f,
  0x55, 0x6c, 0x74, 0x72, 0x61, 0x53, 0x6c, 0x69, 0x6d, 0x5f, 0x31, 0x2f,
  0x62, 0x61, 0x74, 0x63, 0x68, 0x5f, 0x6e, 0x6f, 0x72, 0x6d, 0x61, 0x6c,
  0x69, 0x7a, 0x61, 0x74, 0x69, 0x6f, 0x6e, 0x5f, 0x31, 0x5f, 0x32, 0x2f,
  0x62, 0x61, 0x74, 0x63, 0x68, 0x6e, 0x6f, 0x72, 0x6d, 0x2f, 0x6d, 0x75,
  0x6c, 0x3b, 0x46, 0x61, 0x6c, 0x6c, 0x44, 0x65, 0x74, 0x65, 0x63, 0x74,
  0x69, 0x6f, 0x6e, 0x5f, 0x56, 0x32, 0x5f, 0x55, 0x6c, 0x74, 0x72, 0x61,
  0x53, 0x6c, 0x69, 0x6d, 0x5f, 0x31, 0x2f, 0x62, 0x61, 0x74, 0x63, 0x68,
  0x5f, 0x6e, 0x6f, 0x72, 0x6d, 0x61, 0x6c, 0x69, 0x7a, 0x61, 0x74, 0x69,
  0x6f, 0x6e, 0x5f, 0x31, 0x5f, 0x32, 0x2f, 0x62, 0x61, 0x74, 0x63, 0x68,
  0x6e, 0x6f, 0x72, 0x6d, 0x2f, 0x73, 0x75, 0x62, 0x00, 0x00, 0x00, 0x00,
  0x04, 0x00, 0x00, 0x00, 0x01, 0x00, 0x00, 0x00, 0x01, 0x00, 0x00, 0x00,
  0x32, 0x00, 0x00, 0x00, 0x10, 0x00, 0x00, 0x00, 0x7e, 0xdb, 0xff, 0xff,
  0x00, 0x00, 0x00, 0x01, 0x18, 0x00, 0x00, 0x00, 0x28, 0x00, 0x00, 0x00,
  0x44, 0x00, 0x00, 0x00, 0x27, 0x00, 0x00, 0x00, 0x00, 0x00, 0x00, 0x09,
  0x90, 0x01, 0x00, 0x00, 0x04, 0x00, 0x00, 0x00, 0xff, 0xff, 0xff, 0xff,
  0x01, 0x00, 0x00, 0x00, 0x32, 0x00, 0x00, 0x00, 0x10, 0x00, 0x00, 0x00,
  0x6c, 0xdb, 0xff, 0xff, 0x08, 0x00, 0x00, 0x00, 0x10, 0x00, 0x00, 0x00,
  0x01, 0x00, 0x00, 0x00, 0x88, 0xff, 0xff, 0xff, 0xff, 0xff, 0xff, 0xff,
  0x01, 0x00, 0x00, 0x00, 0x05, 0xa6, 0x15, 0x3e, 0x50, 0x01, 0x00, 0x00,
  0x46, 0x61, 0x6c, 0x6c, 0x44, 0x65, 0x74, 0x65, 0x63, 0x74, 0x69, 0x6f,
  0x6e, 0x5f, 0x56, 0x32, 0x5f, 0x55, 0x6c, 0x74, 0x72, 0x61, 0x53, 0x6c,
  0x69, 0x6d, 0x5f, 0x31, 0x2f, 0x62, 0x61, 0x74, 0x63, 0x68, 0x5f, 0x6e,
  0x6f, 0x72, 0x6d, 0x61, 0x6c, 0x69, 0x7a, 0x61, 0x74, 0x69, 0x6f, 0x6e,
  0x5f, 0x31, 0x5f, 0x32, 0x2f, 0x62, 0x61, 0x74, 0x63, 0x68, 0x6e, 0x6f,
  0x72, 0x6d, 0x2f, 0x6d, 0x75, 0x6c, 0x5f, 0x31, 0x3b, 0x46, 0x61, 0x6c,
  0x6c, 0x44, 0x65, 0x74, 0x65, 0x63, 0x74, 0x69, 0x6f, 0x6e, 0x5f, 0x56,
  0x32, 0x5f, 0x55, 0x6c, 0x74, 0x72, 0x61, 0x53, 0x6c, 0x69, 0x6d, 0x5f,
  0x31, 0x2f, 0x63, 0x6f, 0x6e, 0x76, 0x31, 0x64, 0x5f, 0x31, 0x5f, 0x32,
  0x2f, 0x63, 0x6f, 0x6e, 0x76, 0x6f, 0x6c, 0x75, 0x74, 0x69, 0x6f, 0x6e,
  0x2f, 0x53, 0x71, 0x75, 0x65, 0x65, 0x7a, 0x65, 0x3b, 0x46, 0x61, 0x6c,
  0x6c, 0x44, 0x65, 0x74, 0x65, 0x63, 0x74, 0x69, 0x6f, 0x6e, 0x5f, 0x56,
  0x32, 0x5f, 0x55, 0x6c, 0x74, 0x72, 0x61, 0x53, 0x6c, 0x69, 0x6d, 0x5f,
  0x31, 0x2f, 0x63, 0x6f, 0x6e, 0x76, 0x31, 0x64, 0x5f, 0x31, 0x5f, 0x32,
  0x2f, 0x52, 0x65, 0x6c, 0x75, 0x3b, 0x46, 0x61, 0x6c, 0x6c, 0x44, 0x65,
  0x74, 0x65, 0x63, 0x74, 0x69, 0x6f, 0x6e, 0x5f, 0x56, 0x32, 0x5f, 0x55,
  0x6c, 0x74, 0x72, 0x61, 0x53, 0x6c, 0x69, 0x6d, 0x5f, 0x31, 0x2f, 0x63,
  0x6f, 0x6e, 0x76, 0x31, 0x64, 0x5f, 0x31, 0x5f, 0x32, 0x2f, 0x42, 0x69,
  0x61, 0x73, 0x41, 0x64, 0x64, 0x3b, 0x46, 0x61, 0x6c, 0x6c, 0x44, 0x65,
  0x74, 0x65, 0x63, 0x74, 0x69, 0x6f, 0x6e, 0x5f, 0x56, 0x32, 0x5f, 0x55,
  0x6c, 0x74, 0x72, 0x61, 0x53, 0x6c, 0x69, 0x6d, 0x5f, 0x31, 0x2f, 0x63,
  0x6f, 0x6e, 0x76, 0x31, 0x64, 0x5f, 0x31, 0x5f, 0x32, 0x2f, 0x53, 0x71,
  0x75, 0x65, 0x65, 0x7a, 0x65, 0x3b, 0x46, 0x61, 0x6c, 0x6c, 0x44, 0x65,
  0x74, 0x65, 0x63, 0x74, 0x69, 0x6f, 0x6e, 0x5f, 0x56, 0x32, 0x5f, 0x55,
  0x6c, 0x74, 0x72, 0x61, 0x53, 0x6c, 0x69, 0x6d, 0x5f, 0x31, 0x2f, 0x62,
  0x61, 0x74, 0x63, 0x68, 0x5f, 0x6e, 0x6f, 0x72, 0x6d, 0x61, 0x6c, 0x69,
  0x7a, 0x61, 0x74, 0x69, 0x6f, 0x6e, 0x5f, 0x31, 0x5f, 0x32, 0x2f, 0x62,
  0x61, 0x74, 0x63, 0x68, 0x6e, 0x6f, 0x72, 0x6d, 0x2f, 0x6d, 0x75, 0x6c,
  0x00, 0x00, 0x00, 0x00, 0x04, 0x00, 0x00, 0x00, 0x01, 0x00, 0x00, 0x00,
  0x01, 0x00, 0x00, 0x00, 0x32, 0x00, 0x00, 0x00, 0x10, 0x00, 0x00, 0x00,
  0x3e, 0xdd, 0xff, 0xff, 0x00, 0x00, 0x00, 0x01, 0x18, 0x00, 0x00, 0x00,
  0x28, 0x00, 0x00, 0x00, 0x48, 0x00, 0x00, 0x00, 0x26, 0x00, 0x00, 0x00,
  0x00, 0x00, 0x00, 0x09, 0x40, 0x01, 0x00, 0x00, 0x04, 0x00, 0x00, 0x00,
  0xff, 0xff, 0xff, 0xff, 0x01, 0x00, 0x00, 0x00, 0x32, 0x00, 0x00, 0x00,
  0x10, 0x00, 0x00, 0x00, 0x2c, 0xdd, 0xff, 0xff, 0x08, 0x00, 0x00, 0x00,
  0x14, 0x00, 0x00, 0x00, 0x01, 0x00, 0x00, 0x00, 0x80, 0xff, 0xff, 0xff,
  0xff, 0xff, 0xff, 0xff, 0x00, 0x00, 0x00, 0x00, 0x01, 0x00, 0x00, 0x00,
  0x22, 0xf8, 0x10, 0x3e, 0xfd, 0x00, 0x00, 0x00, 0x46, 0x61, 0x6c, 0x6c,
  0x44, 0x65, 0x74, 0x65, 0x63, 0x74, 0x69, 0x6f, 0x6e, 0x5f, 0x56, 0x32,
  0x5f, 0x55, 0x6c, 0x74, 0x72, 0x61, 0x53, 0x6c, 0x69, 0x6d, 0x5f, 0x31,
  0x2f, 0x63, 0x6f, 0x6e, 0x76, 0x31, 0x64, 0x5f, 0x31, 0x5f, 0x32, 0x2f,
  0x52, 0x65, 0x6c, 0x75, 0x3b, 0x46, 0x61, 0x6c, 0x6c, 0x44, 0x65, 0x74,
  0x65, 0x63, 0x74, 0x69, 0x6f, 0x6e, 0x5f, 0x56, 0x32, 0x5f, 0x55, 0x6c,
  0x74, 0x72, 0x61, 0x53, 0x6c, 0x69, 0x6d, 0x5f, 0x31, 0x2f, 0x63, 0x6f,
  0x6e, 0x76, 0x31, 0x64, 0x5f, 0x31, 0x5f, 0x32, 0x2f, 0x42, 0x69, 0x61,
  0x73, 0x41, 0x64, 0x64, 0x3b, 0x46, 0x61, 0x6c, 0x6c, 0x44, 0x65, 0x74,
  0x65, 0x63, 0x74, 0x69, 0x6f, 0x6e, 0x5f, 0x56, 0x32, 0x5f, 0x55, 0x6c,
  0x74, 0x72, 0x61, 0x53, 0x6c, 0x69, 0x6d, 0x5f, 0x31, 0x2f, 0x63, 0x6f,
  0x6e, 0x76, 0x31, 0x64, 0x5f, 0x31, 0x5f, 0x32, 0x2f, 0x63, 0x6f, 0x6e,
  0x76, 0x6f, 0x6c, 0x75, 0x74, 0x69, 0x6f, 0x6e, 0x2f, 0x53, 0x71, 0x75,
  0x65, 0x65, 0x7a, 0x65, 0x3b, 0x46, 0x61, 0x6c, 0x6c, 0x44, 0x65, 0x74,
  0x65, 0x63, 0x74, 0x69, 0x6f, 0x6e, 0x5f, 0x56, 0x32, 0x5f, 0x55, 0x6c,
  0x74, 0x72, 0x61, 0x53, 0x6c, 0x69, 0x6d, 0x5f, 0x31, 0x2f, 0x63, 0x6f,
  0x6e, 0x76, 0x31, 0x64, 0x5f, 0x31, 0x5f, 0x32, 0x2f, 0x53, 0x71, 0x75,
  0x65, 0x65, 0x7a, 0x65, 0x3b, 0x46, 0x61, 0x6c, 0x6c, 0x44, 0x65, 0x74,
  0x65, 0x63, 0x74, 0x69, 0x6f, 0x6e, 0x5f, 0x56, 0x32, 0x5f, 0x55, 0x6c,
  0x74, 0x72, 0x61, 0x53, 0x6c, 0x69, 0x6d, 0x5f, 0x31, 0x2f, 0x63, 0x6f,
  0x6e, 0x76, 0x31, 0x64, 0x5f, 0x31, 0x5f, 0x32, 0x2f, 0x63, 0x6f, 0x6e,
  0x76, 0x6f, 0x6c, 0x75, 0x74, 0x69, 0x6f, 0x6e, 0x31, 0x00, 0x00, 0x00,
  0x04, 0x00, 0x00, 0x00, 0x01, 0x00, 0x00, 0x00, 0x01, 0x00, 0x00, 0x00,
  0x32, 0x00, 0x00, 0x00, 0x10, 0x00, 0x00, 0x00, 0xae, 0xde, 0xff, 0xff,
  0x00, 0x00, 0x00, 0x01, 0x18, 0x00, 0x00, 0x00, 0x28, 0x00, 0x00, 0x00,
  0x44, 0x00, 0x00, 0x00, 0x25, 0x00, 0x00, 0x00, 0x00, 0x00, 0x00, 0x09,
  0x7c, 0x00, 0x00, 0x00, 0x04, 0x00, 0x00, 0x00, 0xff, 0xff, 0xff, 0xff,
  0x01, 0x00, 0x00, 0x00, 0x32, 0x00, 0x00, 0x00, 0x08, 0x00, 0x00, 0x00,
  0x9c, 0xde, 0xff, 0xff, 0x08, 0x00, 0x00, 0x00, 0x10, 0x00, 0x00, 0x00,
  0x01, 0x00, 0x00, 0x00, 0x83, 0xff, 0xff, 0xff, 0xff, 0xff, 0xff, 0xff,
  0x01, 0x00, 0x00, 0x00, 0x30, 0xa3, 0x59, 0x3e, 0x3e, 0x00, 0x00, 0x00,
  0x46, 0x61, 0x6c, 0x6c, 0x44, 0x65, 0x74, 0x65, 0x63, 0x74, 0x69, 0x6f,
  0x6e, 0x5f, 0x56, 0x32, 0x5f, 0x55, 0x6c, 0x74, 0x72, 0x61, 0x53, 0x6c,
  0x69, 0x6d, 0x5f, 0x31, 0x2f, 0x63, 0x6f, 0x6e, 0x76, 0x31, 0x64, 0x5f,
  0x31, 0x5f, 0x32, 0x2f, 0x63, 0x6f, 0x6e, 0x76, 0x6f, 0x6c, 0x75, 0x74,
  0x69, 0x6f, 0x6e, 0x2f, 0x45, 0x78, 0x70, 0x61, 0x6e, 0x64, 0x44, 0x69,
  0x6d, 0x73, 0x00, 0x00, 0x04, 0x00, 0x00, 0x00, 0x01, 0x00, 0x00, 0x00,
  0x01, 0x00, 0x00, 0x00, 0x32, 0x00, 0x00, 0x00, 0x08, 0x00, 0x00, 0x00,
  0x5a, 0xdf, 0xff, 0xff, 0x00, 0x00, 0x00, 0x01, 0x18, 0x00, 0x00, 0x00,
  0x24, 0x00, 0x00, 0x00, 0x40, 0x00, 0x00, 0x00, 0x24, 0x00, 0x00, 0x00,
  0x00, 0x00, 0x00, 0x09, 0x78, 0x00, 0x00, 0x00, 0x03, 0x00, 0x00, 0x00,
  0xff, 0xff, 0xff, 0xff, 0x32, 0x00, 0x00, 0x00, 0x08, 0x00, 0x00, 0x00,
  0x44, 0xdf, 0xff, 0xff, 0x08, 0x00, 0x00, 0x00, 0x10, 0x00, 0x00, 0x00,
  0x01, 0x00, 0x00, 0x00, 0x83, 0xff, 0xff, 0xff, 0xff, 0xff, 0xff, 0xff,
  0x01, 0x00, 0x00, 0x00, 0x30, 0xa3, 0x59, 0x3e, 0x3f, 0x00, 0x00, 0x00,
  0x46, 0x61, 0x6c, 0x6c, 0x44, 0x65, 0x74, 0x65, 0x63, 0x74, 0x69, 0x6f,
  0x6e, 0x5f, 0x56, 0x32, 0x5f, 0x55, 0x6c, 0x74, 0x72, 0x61, 0x53, 0x6c,
  0x69, 0x6d, 0x5f, 0x31, 0x2f, 0x6d, 0x61, 0x78, 0x5f, 0x70, 0x6f, 0x6f,
  0x6c, 0x69, 0x6e, 0x67, 0x31, 0x64, 0x5f, 0x31, 0x2f, 0x4d, 0x61, 0x78,
  0x50, 0x6f, 0x6f, 0x6c, 0x31, 0x64, 0x2f, 0x53, 0x71, 0x75, 0x65, 0x65,
  0x7a, 0x65, 0x31, 0x00, 0x03, 0x00, 0x00, 0x00, 0x01, 0x00, 0x00, 0x00,
  0x32, 0x00, 0x00, 0x00, 0x08, 0x00, 0x00, 0x00, 0xfe, 0xdf, 0xff, 0xff,
  0x00, 0x00, 0x00, 0x01, 0x18, 0x00, 0x00, 0x00, 0x28, 0x00, 0x00, 0x00,
  0x48, 0x00, 0x00, 0x00, 0x23, 0x00, 0x00, 0x00, 0x00, 0x00, 0x00, 0x09,
  0x78, 0x00, 0x00, 0x00, 0x04, 0x00, 0x00, 0x00, 0xff, 0xff, 0xff, 0xff,
  0x01, 0x00, 0x00, 0x00, 0x32, 0x00, 0x00, 0x00, 0x08, 0x00, 0x00, 0x00,
  0xec, 0xdf, 0xff, 0xff, 0x08, 0x00, 0x00, 0x00, 0x14, 0x00, 0x00, 0x00,
  0x01, 0x00, 0x00, 0x00, 0x83, 0xff, 0xff, 0xff, 0xff, 0xff, 0xff, 0xff,
  0x00, 0x00, 0x00, 0x00, 0x01, 0x00, 0x00, 0x00, 0x30, 0xa3, 0x59, 0x3e,
  0x36, 0x00, 0x00, 0x00, 0x46, 0x61, 0x6c, 0x6c, 0x44, 0x65, 0x74, 0x65,
  0x63, 0x74, 0x69, 0x6f, 0x6e, 0x5f, 0x56, 0x32, 0x5f, 0x55, 0x6c, 0x74,
  0x72, 0x61, 0x53, 0x6c, 0x69, 0x6d, 0x5f, 0x31, 0x2f, 0x6d, 0x61, 0x78,
  0x5f, 0x70, 0x6f, 0x6f, 0x6c, 0x69, 0x6e, 0x67, 0x31, 0x64, 0x5f, 0x31,
  0x2f, 0x4d, 0x61, 0x78, 0x50, 0x6f, 0x6f, 0x6c, 0x31, 0x64, 0x00, 0x00,
  0x04, 0x00, 0x00, 0x00, 0x01, 0x00, 0x00, 0x00, 0x01, 0x00, 0x00, 0x00,
  0x32, 0x00, 0x00, 0x00, 0x08, 0x00, 0x00, 0x00, 0xa6, 0xe0, 0xff, 0xff,
  0x00, 0x00, 0x00, 0x01, 0x18, 0x00, 0x00, 0x00, 0x28, 0x00, 0x00, 0x00,
  0x48, 0x00, 0x00, 0x00, 0x22, 0x00, 0x00, 0x00, 0x00, 0x00, 0x00, 0x09,
  0x84, 0x00, 0x00, 0x00, 0x04, 0x00, 0x00, 0x00, 0xff, 0xff, 0xff, 0xff,
  0x01, 0x00, 0x00, 0x00, 0x64, 0x00, 0x00, 0x00, 0x08, 0x00, 0x00, 0x00,
  0x94, 0xe0, 0xff, 0xff, 0x08, 0x00, 0x00, 0x00, 0x14, 0x00, 0x00, 0x00,
  0x01, 0x00, 0x00, 0x00, 0x83, 0xff, 0xff, 0xff, 0xff, 0xff, 0xff, 0xff,
  0x00, 0x00, 0x00, 0x00, 0x01, 0x00, 0x00, 0x00, 0x30, 0xa3, 0x59, 0x3e,
  0x41, 0x00, 0x00, 0x00, 0x46, 0x61, 0x6c, 0x6c, 0x44, 0x65, 0x74, 0x65,
  0x63, 0x74, 0x69, 0x6f, 0x6e, 0x5f, 0x56, 0x32, 0x5f, 0x55, 0x6c, 0x74,
  0x72, 0x61, 0x53, 0x6c, 0x69, 0x6d, 0x5f, 0x31, 0x2f, 0x6d, 0x61, 0x78,
  0x5f, 0x70, 0x6f, 0x6f, 0x6c, 0x69, 0x6e, 0x67, 0x31, 0x64, 0x5f, 0x31,
  0x2f, 0x4d, 0x61, 0x78, 0x50, 0x6f, 0x6f, 0x6c, 0x31, 0x64, 0x2f, 0x45,
  0x78, 0x70, 0x61, 0x6e, 0x64, 0x44, 0x69, 0x6d, 0x73, 0x00, 0x00, 0x00,
  0x04, 0x00, 0x00, 0x00, 0x01, 0x00, 0x00, 0x00, 0x01, 0x00, 0x00, 0x00,
  0x64, 0x00, 0x00, 0x00, 0x08, 0x00, 0x00, 0x00, 0x5a, 0xe1, 0xff, 0xff,
  0x00, 0x00, 0x00, 0x01, 0x18, 0x00, 0x00, 0x00, 0x24, 0x00, 0x00, 0x00,
  0x44, 0x00, 0x00, 0x00, 0x21, 0x00, 0x00, 0x00, 0x00, 0x00, 0x00, 0x09,
  0x08, 0x02, 0x00, 0x00, 0x03, 0x00, 0x00, 0x00, 0xff, 0xff, 0xff, 0xff,
  0x64, 0x00, 0x00, 0x00, 0x08, 0x00, 0x00, 0x00, 0x44, 0xe1, 0xff, 0xff,
  0x08, 0x00, 0x00, 0x00, 0x14, 0x00, 0x00, 0x00, 0x01, 0x00, 0x00, 0x00,
  0x83, 0xff, 0xff, 0xff, 0xff, 0xff, 0xff, 0xff, 0x00, 0x00, 0x00, 0x00,
  0x01, 0x00, 0x00, 0x00, 0x30, 0xa3, 0x59, 0x3e, 0xc9, 0x01, 0x00, 0x00,
  0x46, 0x61, 0x6c, 0x6c, 0x44, 0x65, 0x74, 0x65, 0x63, 0x74, 0x69, 0x6f,
  0x6e, 0x5f, 0x56, 0x32, 0x5f, 0x55, 0x6c, 0x74, 0x72, 0x61, 0x53, 0x6c,
  0x69, 0x6d, 0x5f, 0x31, 0x2f, 0x62, 0x61, 0x74, 0x63, 0x68, 0x5f, 0x6e,
  0x6f, 0x72, 0x6d, 0x61, 0x6c, 0x69, 0x7a, 0x61, 0x74, 0x69, 0x6f, 0x6e,
  0x5f, 0x31, 0x2f, 0x62, 0x61, 0x74, 0x63, 0x68, 0x6e, 0x6f, 0x72, 0x6d,
  0x2f, 0x61, 0x64, 0x64, 0x5f, 0x31, 0x3b, 0x46, 0x61, 0x6c, 0x6c, 0x44,
  0x65, 0x74, 0x65, 0x63, 0x74, 0x69, 0x6f, 0x6e, 0x5f, 0x56, 0x32, 0x5f,
  0x55, 0x6c, 0x74, 0x72, 0x61, 0x53, 0x6c, 0x69, 0x6d, 0x5f, 0x31, 0x2f,
  0x63, 0x6f, 0x6e, 0x76, 0x31, 0x64, 0x5f, 0x31, 0x2f, 0x63, 0x6f, 0x6e,
  0x76, 0x6f, 0x6c, 0x75, 0x74, 0x69, 0x6f, 0x6e, 0x2f, 0x53, 0x71, 0x75,
  0x65, 0x65, 0x7a, 0x65, 0x3b, 0x46, 0x61, 0x6c, 0x6c, 0x44, 0x65, 0x74,
  0x65, 0x63, 0x74, 0x69, 0x6f, 0x6e, 0x5f, 0x56, 0x32, 0x5f, 0x55, 0x6c,
  0x74, 0x72, 0x61, 0x53, 0x6c, 0x69, 0x6d, 0x5f, 0x31, 0x2f, 0x62, 0x61,
  0x74, 0x63, 0x68, 0x5f, 0x6e, 0x6f, 0x72, 0x6d, 0x61, 0x6c, 0x69, 0x7a,
  0x61, 0x74, 0x69, 0x6f, 0x6e, 0x5f, 0x31, 0x2f, 0x62, 0x61, 0x74, 0x63,
  0x68, 0x6e, 0x6f, 0x72, 0x6d, 0x2f, 0x6d, 0x75, 0x6c, 0x5f, 0x31, 0x3b,
  0x46, 0x61, 0x6c, 0x6c, 0x44, 0x65, 0x74, 0x65, 0x63, 0x74, 0x69, 0x6f,
  0x6e, 0x5f, 0x56, 0x32, 0x5f, 0x55, 0x6c, 0x74, 0x72, 0x61, 0x53, 0x6c,
  0x69, 0x6d, 0x5f, 0x31, 0x2f, 0x63, 0x6f, 0x6e, 0x76, 0x31, 0x64, 0x5f,
  0x31, 0x2f, 0x52, 0x65, 0x6c, 0x75, 0x3b, 0x46, 0x61, 0x6c, 0x6c, 0x44,
  0x65, 0x74, 0x65, 0x63, 0x74, 0x69, 0x6f, 0x6e, 0x5f, 0x56, 0x32, 0x5f,
  0x55, 0x6c, 0x74, 0x72, 0x61, 0x53, 0x6c, 0x69, 0x6d, 0x5f, 0x31, 0x2f,
  0x63, 0x6f, 0x6e, 0x76, 0x31, 0x64, 0x5f, 0x31, 0x2f, 0x42, 0x69, 0x61,
  0x73, 0x41, 0x64, 0x64, 0x3b, 0x46, 0x61, 0x6c, 0x6c, 0x44, 0x65, 0x74,
  0x65, 0x63, 0x74, 0x69, 0x6f, 0x6e, 0x5f, 0x56, 0x32, 0x5f, 0x55, 0x6c,
  0x74, 0x72, 0x61, 0x53, 0x6c, 0x69, 0x6d, 0x5f, 0x31, 0x2f, 0x63, 0x6f,
  0x6e, 0x76, 0x31, 0x64, 0x5f, 0x31, 0x2f, 0x53, 0x71, 0x75, 0x65, 0x65,
  0x7a, 0x65, 0x3b, 0x46, 0x61, 0x6c, 0x6c, 0x44, 0x65, 0x74, 0x65, 0x63,
  0x74, 0x69, 0x6f, 0x6e, 0x5f, 0x56, 0x32, 0x5f, 0x55, 0x6c, 0x74, 0x72,
  0x61, 0x53, 0x6c, 0x69, 0x6d, 0x5f, 0x31, 0x2f, 0x62, 0x61, 0x74, 0x63,
  0x68, 0x5f, 0x6e, 0x6f, 0x72, 0x6d, 0x61, 0x6c, 0x69, 0x7a, 0x61, 0x74,
  0x69, 0x6f, 0x6e, 0x5f, 0x31, 0x2f, 0x62, 0x61, 0x74, 0x63, 0x68, 0x6e,
  0x6f, 0x72, 0x6d, 0x2f, 0x6d, 0x75, 0x6c, 0x3b, 0x46, 0x61, 0x6c, 0x6c,
  0x44, 0x65, 0x74, 0x65, 0x63, 0x74, 0x69, 0x6f, 0x6e, 0x5f, 0x56, 0x32,
  0x5f, 0x55, 0x6c, 0x74, 0x72, 0x61, 0x53, 0x6c, 0x69, 0x6d, 0x5f, 0x31,
  0x2f, 0x62, 0x61, 0x74, 0x63, 0x68, 0x5f, 0x6e, 0x6f, 0x72, 0x6d, 0x61,
  0x6c, 0x69, 0x7a, 0x61, 0x74, 0x69, 0x6f, 0x6e, 0x5f, 0x31, 0x2f, 0x62,
  0x61, 0x74, 0x63, 0x68, 0x6e, 0x6f, 0x72, 0x6d, 0x2f, 0x73, 0x75, 0x62,
  0x31, 0x00, 0x00, 0x00, 0x03, 0x00, 0x00, 0x00, 0x01, 0x00, 0x00, 0x00,
  0x64, 0x00, 0x00, 0x00, 0x08, 0x00, 0x00, 0x00, 0x8e, 0xe3, 0xff, 0xff,
  0x00, 0x00, 0x00, 0x01, 0x18, 0x00, 0x00, 0x00, 0x28, 0x00, 0x00, 0x00,
  0x44, 0x00, 0x00, 0x00, 0x20, 0x00, 0x00, 0x00, 0x00, 0x00, 0x00, 0x09,
  0x08, 0x02, 0x00, 0x00, 0x04, 0x00, 0x00, 0x00, 0xff, 0xff, 0xff, 0xff,
  0x01, 0x00, 0x00, 0x00, 0x64, 0x00, 0x00, 0x00, 0x08, 0x00, 0x00, 0x00,
  0x7c, 0xe3, 0xff, 0xff, 0x08, 0x00, 0x00, 0x00, 0x10, 0x00, 0x00, 0x00,
  0x01, 0x00, 0x00, 0x00, 0x83, 0xff, 0xff, 0xff, 0xff, 0xff, 0xff, 0xff,
  0x01, 0x00, 0x00, 0x00, 0x30, 0xa3, 0x59, 0x3e, 0xc8, 0x01, 0x00, 0x00,
  0x46, 0x61, 0x6c, 0x6c, 0x44, 0x65, 0x74, 0x65, 0x63, 0x74, 0x69, 0x6f,
  0x6e, 0x5f, 0x56, 0x32, 0x5f, 0x55, 0x6c, 0x74, 0x72, 0x61, 0x53, 0x6c,
  0x69, 0x6d, 0x5f, 0x31, 0x2f, 0x62, 0x61, 0x74, 0x63, 0x68, 0x5f, 0x6e,
  0x6f, 0x72, 0x6d, 0x61, 0x6c, 0x69, 0x7a, 0x61, 0x74, 0x69, 0x6f, 0x6e,
  0x5f, 0x31, 0x2f, 0x62, 0x61, 0x74, 0x63, 0x68, 0x6e, 0x6f, 0x72, 0x6d,
  0x2f, 0x61, 0x64, 0x64, 0x5f, 0x31, 0x3b, 0x46, 0x61, 0x6c, 0x6c, 0x44,
  0x65, 0x74, 0x65, 0x63, 0x74, 0x69, 0x6f, 0x6e, 0x5f, 0x56, 0x32, 0x5f,
  0x55, 0x6c, 0x74, 0x72, 0x61, 0x53, 0x6c, 0x69, 0x6d, 0x5f, 0x31, 0x2f,
  0x63, 0x6f, 0x6e, 0x76, 0x31, 0x64, 0x5f, 0x31, 0x2f, 0x63, 0x6f, 0x6e,
  0x76, 0x6f, 0x6c, 0x75, 0x74, 0x69, 0x6f, 0x6e, 0x2f, 0x53, 0x71, 0x75,
  0x65, 0x65, 0x7a, 0x65, 0x3b, 0x46, 0x61, 0x6c, 0x6c, 0x44, 0x65, 0x74,
  0x65, 0x63, 0x74, 0x69, 0x6f, 0x6e, 0x5f, 0x56, 0x32, 0x5f, 0x55, 0x6c,
  0x74, 0x72, 0x61, 0x53, 0x6c, 0x69, 0x6d, 0x5f, 0x31, 0x2f, 0x62, 0x61,
  0x74, 0x63, 0x68, 0x5f, 0x6e, 0x6f, 0x72, 0x6d, 0x61, 0x6c, 0x69, 0x7a,
  0x61, 0x74, 0x69, 0x6f, 0x6e, 0x5f, 0x31, 0x2f, 0x62, 0x61, 0x74, 0x63,
  0x68, 0x6e, 0x6f, 0x72, 0x6d, 0x2f, 0x6d, 0x75, 0x6c, 0x5f, 0x31, 0x3b,
  0x46, 0x61, 0x6c, 0x6c, 0x44, 0x65, 0x74, 0x65, 0x63, 0x74, 0x69, 0x6f,
  0x6e, 0x5f, 0x56, 0x32, 0x5f, 0x55, 0x6c, 0x74, 0x72, 0x61, 0x53, 0x6c,
  0x69, 0x6d, 0x5f, 0x31, 0x2f, 0x63, 0x6f, 0x6e, 0x76, 0x31, 0x64, 0x5f,
  0x31, 0x2f, 0x52, 0x65, 0x6c, 0x75, 0x3b, 0x46, 0x61, 0x6c, 0x6c, 0x44,
  0x65, 0x74, 0x65, 0x63, 0x74, 0x69, 0x6f, 0x6e, 0x5f, 0x56, 0x32, 0x5f,
  0x55, 0x6c, 0x74, 0x72, 0x61, 0x53, 0x6c, 0x69, 0x6d, 0x5f, 0x31, 0x2f,
  0x63, 0x6f, 0x6e, 0x76, 0x31, 0x64, 0x5f, 0x31, 0x2f, 0x42, 0x69, 0x61,
  0x73, 0x41, 0x64, 0x64, 0x3b, 0x46, 0x61, 0x6c, 0x6c, 0x44, 0x65, 0x74,
  0x65, 0x63, 0x74, 0x69, 0x6f, 0x6e, 0x5f, 0x56, 0x32, 0x5f, 0x55, 0x6c,
  0x74, 0x72, 0x61, 0x53, 0x6c, 0x69, 0x6d, 0x5f, 0x31, 0x2f, 0x63, 0x6f,
  0x6e, 0x76, 0x31, 0x64, 0x5f, 0x31, 0x2f, 0x53, 0x71, 0x75, 0x65, 0x65,
  0x7a, 0x65, 0x3b, 0x46, 0x61, 0x6c, 0x6c, 0x44, 0x65, 0x74, 0x65, 0x63,
  0x74, 0x69, 0x6f, 0x6e, 0x5f, 0x56, 0x32, 0x5f, 0x55, 0x6c, 0x74, 0x72,
  0x61, 0x53, 0x6c, 0x69, 0x6d, 0x5f, 0x31, 0x2f, 0x62, 0x61, 0x74, 0x63,
  0x68, 0x5f, 0x6e, 0x6f, 0x72, 0x6d, 0x61, 0x6c, 0x69, 0x7a, 0x61, 0x74,
  0x69, 0x6f, 0x6e, 0x5f, 0x31, 0x2f, 0x62, 0x61, 0x74, 0x63, 0x68, 0x6e,
  0x6f, 0x72, 0x6d, 0x2f, 0x6d, 0x75, 0x6c, 0x3b, 0x46, 0x61, 0x6c, 0x6c,
  0x44, 0x65, 0x74, 0x65, 0x63, 0x74, 0x69, 0x6f, 0x6e, 0x5f, 0x56, 0x32,
  0x5f, 0x55, 0x6c, 0x74, 0x72, 0x61, 0x53, 0x6c, 0x69, 0x6d, 0x5f, 0x31,
  0x2f, 0x62, 0x61, 0x74, 0x63, 0x68, 0x5f, 0x6e, 0x6f, 0x72, 0x6d, 0x61,
  0x6c, 0x69, 0x7a, 0x61, 0x74, 0x69, 0x6f, 0x6e, 0x5f, 0x31, 0x2f, 0x62,
  0x61, 0x74, 0x63, 0x68, 0x6e, 0x6f, 0x72, 0x6d, 0x2f, 0x73, 0x75, 0x62,
  0x00, 0x00, 0x00, 0x00, 0x04, 0x00, 0x00, 0x00, 0x01, 0x00, 0x00, 0x00,
  0x01, 0x00, 0x00, 0x00, 0x64, 0x00, 0x00, 0x00, 0x08, 0x00, 0x00, 0x00,
  0xc6, 0xe5, 0xff, 0xff, 0x00, 0x00, 0x00, 0x01, 0x18, 0x00, 0x00, 0x00,
  0x28, 0x00, 0x00, 0x00, 0x48, 0x00, 0x00, 0x00, 0x1f, 0x00, 0x00, 0x00,
  0x00, 0x00, 0x00, 0x09, 0x88, 0x01, 0x00, 0x00, 0x04, 0x00, 0x00, 0x00,
  0xff, 0xff, 0xff, 0xff, 0x01, 0x00, 0x00, 0x00, 0x64, 0x00, 0x00, 0x00,
  0x08, 0x00, 0x00, 0x00, 0xb4, 0xe5, 0xff, 0xff, 0x08, 0x00, 0x00, 0x00,
  0x14, 0x00, 0x00, 0x00, 0x01, 0x00, 0x00, 0x00, 0x83, 0xff, 0xff, 0xff,
  0xff, 0xff, 0xff, 0xff, 0x00, 0x00, 0x00, 0x00, 0x01, 0x00, 0x00, 0x00,
  0x77, 0xe9, 0x5a, 0x3e, 0x44, 0x01, 0x00, 0x00, 0x46, 0x61, 0x6c, 0x6c,
  0x44, 0x65, 0x74, 0x65, 0x63, 0x74, 0x69, 0x6f, 0x6e, 0x5f, 0x56, 0x32,
  0x5f, 0x55, 0x6c, 0x74, 0x72, 0x61, 0x53, 0x6c, 0x69, 0x6d, 0x5f, 0x31,
  0x2f, 0x62, 0x61, 0x74, 0x63, 0x68, 0x5f, 0x6e, 0x6f, 0x72, 0x6d, 0x61,
  0x6c, 0x69, 0x7a, 0x61, 0x74, 0x69, 0x6f, 0x6e, 0x5f, 0x31, 0x2f, 0x62,
  0x61, 0x74, 0x63, 0x68, 0x6e, 0x6f, 0x72, 0x6d, 0x2f, 0x6d, 0x75, 0x6c,
  0x5f, 0x31, 0x3b, 0x46, 0x61, 0x6c, 0x6c, 0x44, 0x65, 0x74, 0x65, 0x63,
  0x74, 0x69, 0x6f, 0x6e, 0x5f, 0x56, 0x32, 0x5f, 0x55, 0x6c, 0x74, 0x72,
  0x61, 0x53, 0x6c, 0x69, 0x6d, 0x5f, 0x31, 0x2f, 0x63, 0x6f, 0x6e, 0x76,
  0x31, 0x64, 0x5f, 0x31, 0x2f, 0x63, 0x6f, 0x6e, 0x76, 0x6f, 0x6c, 0x75,
  0x74, 0x69, 0x6f, 0x6e, 0x2f, 0x53, 0x71, 0x75, 0x65, 0x65, 0x7a, 0x65,
  0x3b, 0x46, 0x61, 0x6c, 0x6c, 0x44, 0x65, 0x74, 0x65, 0x63, 0x74, 0x69,
  0x6f, 0x6e, 0x5f, 0x56, 0x32, 0x5f, 0x55, 0x6c, 0x74, 0x72, 0x61, 0x53,
  0x6c, 0x69, 0x6d, 0x5f, 0x31, 0x2f, 0x63, 0x6f, 0x6e, 0x76, 0x31, 0x64,
  0x5f, 0x31, 0x2f, 0x52, 0x65, 0x6c, 0x75, 0x3b, 0x46, 0x61, 0x6c, 0x6c,
  0x44, 0x65, 0x74, 0x65, 0x63, 0x74, 0x69, 0x6f, 0x6e, 0x5f, 0x56, 0x32,
  0x5f, 0x55, 0x6c, 0x74, 0x72, 0x61, 0x53, 0x6c, 0x69, 0x6d, 0x5f, 0x31,
  0x2f, 0x63, 0x6f, 0x6e, 0x76, 0x31, 0x64, 0x5f, 0x31, 0x2f, 0x42, 0x69,
  0x61, 0x73, 0x41, 0x64, 0x64, 0x3b, 0x46, 0x61, 0x6c, 0x6c, 0x44, 0x65,
  0x74, 0x65, 0x63, 0x74, 0x69, 0x6f, 0x6e, 0x5f, 0x56, 0x32, 0x5f, 0x55,
  0x6c, 0x74, 0x72, 0x61, 0x53, 0x6c, 0x69, 0x6d, 0x5f, 0x31, 0x2f, 0x63,
  0x6f, 0x6e, 0x76, 0x31, 0x64, 0x5f, 0x31, 0x2f, 0x53, 0x71, 0x75, 0x65,
  0x65, 0x7a, 0x65, 0x3b, 0x46, 0x61, 0x6c, 0x6c, 0x44, 0x65, 0x74, 0x65,
  0x63, 0x74, 0x69, 0x6f, 0x6e, 0x5f, 0x56, 0x32, 0x5f, 0x55, 0x6c, 0x74,
  0x72, 0x61, 0x53, 0x6c, 0x69, 0x6d, 0x5f, 0x31, 0x2f, 0x62, 0x61, 0x74,
  0x63, 0x68, 0x5f, 0x6e, 0x6f, 0x72, 0x6d, 0x61, 0x6c, 0x69, 0x7a, 0x61,
  0x74, 0x69, 0x6f, 0x6e, 0x5f, 0x31, 0x2f, 0x62, 0x61, 0x74, 0x63, 0x68,
  0x6e, 0x6f, 0x72, 0x6d, 0x2f, 0x6d, 0x75, 0x6c, 0x00, 0x00, 0x00, 0x00,
  0x04, 0x00, 0x00, 0x00, 0x01, 0x00, 0x00, 0x00, 0x01, 0x00, 0x00, 0x00,
  0x64, 0x00, 0x00, 0x00, 0x08, 0x00, 0x00, 0x00, 0x7e, 0xe7, 0xff, 0xff,
  0x00, 0x00, 0x00, 0x01, 0x18, 0x00, 0x00, 0x00, 0x28, 0x00, 0x00, 0x00,
  0x44, 0x00, 0x00, 0x00, 0x1e, 0x00, 0x00, 0x00, 0x00, 0x00, 0x00, 0x09,
  0x30, 0x01, 0x00, 0x00, 0x04, 0x00, 0x00, 0x00, 0xff, 0xff, 0xff, 0xff,
  0x01, 0x00, 0x00, 0x00, 0x64, 0x00, 0x00, 0x00, 0x08, 0x00, 0x00, 0x00,
  0x6c, 0xe7, 0xff, 0xff, 0x08, 0x00, 0x00, 0x00, 0x10, 0x00, 0x00, 0x00,
  0x01, 0x00, 0x00, 0x00, 0x80, 0xff, 0xff, 0xff, 0xff, 0xff, 0xff, 0xff,
  0x01, 0x00, 0x00, 0x00, 0xc8, 0x86, 0x58, 0x3e, 0xf3, 0x00, 0x00, 0x00,
  0x46, 0x61, 0x6c, 0x6c, 0x44, 0x65, 0x74, 0x65, 0x63, 0x74, 0x69, 0x6f,
  0x6e, 0x5f, 0x56, 0x32, 0x5f, 0x55, 0x6c, 0x74, 0x72, 0x61, 0x53, 0x6c,
  0x69, 0x6d, 0x5f, 0x31, 0x2f, 0x63, 0x6f, 0x6e, 0x76, 0x31, 0x64, 0x5f,
  0x31, 0x2f, 0x52, 0x65, 0x6c, 0x75, 0x3b, 0x46, 0x61, 0x6c, 0x6c, 0x44,
  0x65, 0x74, 0x65, 0x63, 0x74, 0x69, 0x6f, 0x6e, 0x5f, 0x56, 0x32, 0x5f,
  0x55, 0x6c, 0x74, 0x72, 0x61, 0x53, 0x6c, 0x69, 0x6d, 0x5f, 0x31, 0x2f,
  0x63, 0x6f, 0x6e, 0x76, 0x31, 0x64, 0x5f, 0x31, 0x2f, 0x42, 0x69, 0x61,
  0x73, 0x41, 0x64, 0x64, 0x3b, 0x46, 0x61, 0x6c, 0x6c, 0x44, 0x65, 0x74,
  0x65, 0x63, 0x74, 0x69, 0x6f, 0x6e, 0x5f, 0x56, 0x32, 0x5f, 0x55, 0x6c,
  0x74, 0x72, 0x61, 0x53, 0x6c, 0x69, 0x6d, 0x5f, 0x31, 0x2f, 0x63, 0x6f,
  0x6e, 0x76, 0x31, 0x64, 0x5f, 0x31, 0x2f, 0x63, 0x6f, 0x6e, 0x76, 0x6f,
  0x6c, 0x75, 0x74, 0x69, 0x6f, 0x6e, 0x2f, 0x53, 0x71, 0x75, 0x65, 0x65,
  0x7a, 0x65, 0x3b, 0x46, 0x61, 0x6c, 0x6c, 0x44, 0x65, 0x74, 0x65, 0x63,
  0x74, 0x69, 0x6f, 0x6e, 0x5f, 0x56, 0x32, 0x5f, 0x55, 0x6c, 0x74, 0x72,
  0x61, 0x53, 0x6c, 0x69, 0x6d, 0x5f, 0x31, 0x2f, 0x63, 0x6f, 0x6e, 0x76,
  0x31, 0x64, 0x5f, 0x31, 0x2f, 0x53, 0x71, 0x75, 0x65, 0x65, 0x7a, 0x65,
  0x3b, 0x46, 0x61, 0x6c, 0x6c, 0x44, 0x65, 0x74, 0x65, 0x63, 0x74, 0x69,
  0x6f, 0x6e, 0x5f, 0x56, 0x32, 0x5f, 0x55, 0x6c, 0x74, 0x72, 0x61, 0x53,
  0x6c, 0x69, 0x6d, 0x5f, 0x31, 0x2f, 0x63, 0x6f, 0x6e, 0x76, 0x31, 0x64,
  0x5f, 0x31, 0x2f, 0x63, 0x6f, 0x6e, 0x76, 0x6f, 0x6c, 0x75, 0x74, 0x69,
  0x6f, 0x6e, 0x31, 0x00, 0x04, 0x00, 0x00, 0x00, 0x01, 0x00, 0x00, 0x00,
  0x01, 0x00, 0x00, 0x00, 0x64, 0x00, 0x00, 0x00, 0x08, 0x00, 0x00, 0x00,
  0xde, 0xe8, 0xff, 0xff, 0x00, 0x00, 0x00, 0x01, 0x18, 0x00, 0x00, 0x00,
  0x28, 0x00, 0x00, 0x00, 0x44, 0x00, 0x00, 0x00, 0x1d, 0x00, 0x00, 0x00,
  0x00, 0x00, 0x00, 0x09, 0x7c, 0x00, 0x00, 0x00, 0x04, 0x00, 0x00, 0x00,
  0xff, 0xff, 0xff, 0xff, 0x01, 0x00, 0x00, 0x00, 0x64, 0x00, 0x00, 0x00,
  0x06, 0x00, 0x00, 0x00, 0xcc, 0xe8, 0xff, 0xff, 0x08, 0x00, 0x00, 0x00,
  0x10, 0x00, 0x00, 0x00, 0x01, 0x00, 0x00, 0x00, 0x03, 0x00, 0x00, 0x00,
  0x00, 0x00, 0x00, 0x00, 0x01, 0x00, 0x00, 0x00, 0x89, 0xa0, 0xc0, 0x3e,
  0x3c, 0x00, 0x00, 0x00, 0x46, 0x61, 0x6c, 0x6c, 0x44, 0x65, 0x74, 0x65,
  0x63, 0x74, 0x69, 0x6f, 0x6e, 0x5f, 0x56, 0x32, 0x5f, 0x55, 0x6c, 0x74,
  0x72, 0x61, 0x53, 0x6c, 0x69, 0x6d, 0x5f, 0x31, 0x2f, 0x63, 0x6f, 0x6e,
  0x76, 0x31, 0x64, 0x5f, 0x31, 0x2f, 0x63, 0x6f, 0x6e, 0x76, 0x6f, 0x6c,
  0x75, 0x74, 0x69, 0x6f, 0x6e, 0x2f, 0x45, 0x78, 0x70, 0x61, 0x6e, 0x64,
  0x44, 0x69, 0x6d, 0x73, 0x00, 0x00, 0x00, 0x00, 0x04, 0x00, 0x00, 0x00,
  0x01, 0x00, 0x00, 0x00, 0x01, 0x00, 0x00, 0x00, 0x64, 0x00, 0x00, 0x00,
  0x06, 0x00, 0x00, 0x00, 0x8a, 0xe9, 0xff, 0xff, 0x00, 0x00, 0x00, 0x01,
  0x18, 0x00, 0x00, 0x00, 0x24, 0x00, 0x00, 0x00, 0x40, 0x00, 0x00, 0x00,
  0x1c, 0x00, 0x00, 0x00, 0x00, 0x00, 0x00, 0x09, 0xa4, 0x00, 0x00, 0x00,
  0x03, 0x00, 0x00, 0x00, 0xff, 0xff, 0xff, 0xff, 0x64, 0x00, 0x00, 0x00,
  0x06, 0x00, 0x00, 0x00, 0x74, 0xe9, 0xff, 0xff, 0x08, 0x00, 0x00, 0x00,
  0x10, 0x00, 0x00, 0x00, 0x01, 0x00, 0x00, 0x00, 0x03, 0x00, 0x00, 0x00,
  0x00, 0x00, 0x00, 0x00, 0x01, 0x00, 0x00, 0x00, 0x89, 0xa0, 0xc0, 0x3e,
  0x6a, 0x00, 0x00, 0x00, 0x46, 0x61, 0x6c, 0x6c, 0x44, 0x65, 0x74, 0x65,
  0x63, 0x74, 0x69, 0x6f, 0x6e, 0x5f, 0x56, 0x32, 0x5f, 0x55, 0x6c, 0x74,
  0x72, 0x61, 0x53, 0x6c, 0x69, 0x6d, 0x5f, 0x31, 0x2f, 0x6e, 0x6f, 0x72,
  0x6d, 0x61, 0x6c, 0x69, 0x7a, 0x61, 0x74, 0x69, 0x6f, 0x6e, 0x5f, 0x31,
  0x2f, 0x74, 0x72, 0x75, 0x65, 0x64, 0x69, 0x76, 0x3b, 0x46, 0x61, 0x6c,
  0x6c, 0x44, 0x65, 0x74, 0x65, 0x63, 0x74, 0x69, 0x6f, 0x6e, 0x5f, 0x56,
  0x32, 0x5f, 0x55, 0x6c, 0x74, 0x72, 0x61, 0x53, 0x6c, 0x69, 0x6d, 0x5f,
  0x31, 0x2f, 0x6e, 0x6f, 0x72, 0x6d, 0x61, 0x6c, 0x69, 0x7a, 0x61, 0x74,
  0x69, 0x6f, 0x6e, 0x5f, 0x31, 0x2f, 0x4d, 0x61, 0x78, 0x69, 0x6d, 0x75,
  0x6d, 0x31, 0x00, 0x00, 0x03, 0x00, 0x00, 0x00, 0x01, 0x00, 0x00, 0x00,
  0x64, 0x00, 0x00, 0x00, 0x06, 0x00, 0x00, 0x00, 0x5a, 0xea, 0xff, 0xff,
  0x00, 0x00, 0x00, 0x01, 0x18, 0x00, 0x00, 0x00, 0x24, 0x00, 0x00, 0x00,
  0x44, 0x00, 0x00, 0x00, 0x1b, 0x00, 0x00, 0x00, 0x00, 0x00, 0x00, 0x09,
  0x70, 0x00, 0x00, 0x00, 0x03, 0x00, 0x00, 0x00, 0xff, 0xff, 0xff, 0xff,
  0x64, 0x00, 0x00, 0x00, 0x06, 0x00, 0x00, 0x00, 0x44, 0xea, 0xff, 0xff,
  0x08, 0x00, 0x00, 0x00, 0x14, 0x00, 0x00, 0x00, 0x01, 0x00, 0x00, 0x00,
  0x3a, 0x00, 0x00, 0x00, 0x00, 0x00, 0x00, 0x00, 0x00, 0x00, 0x00, 0x00,
  0x01, 0x00, 0x00, 0x00, 0x35, 0x97, 0xdc, 0x40, 0x30, 0x00, 0x00, 0x00,
  0x46, 0x61, 0x6c, 0x6c, 0x44, 0x65, 0x74, 0x65, 0x63, 0x74, 0x69, 0x6f,
  0x6e, 0x5f, 0x56, 0x32, 0x5f, 0x55, 0x6c, 0x74, 0x72, 0x61, 0x53, 0x6c,
  0x69, 0x6d, 0x5f, 0x31, 0x2f, 0x6e, 0x6f, 0x72, 0x6d, 0x61, 0x6c, 0x69,
  0x7a, 0x61, 0x74, 0x69, 0x6f, 0x6e, 0x5f, 0x31, 0x2f, 0x53, 0x75, 0x62,
  0x00, 0x00, 0x00, 0x00, 0x03, 0x00, 0x00, 0x00, 0x01, 0x00, 0x00, 0x00,
  0x64, 0x00, 0x00, 0x00, 0x06, 0x00, 0x00, 0x00, 0x4a, 0xeb, 0xff, 0xff,
  0x00, 0x00, 0x00, 0x01, 0x14, 0x00, 0x00, 0x00, 0x30, 0x00, 0x00, 0x00,
  0x1a, 0x00, 0x00, 0x00, 0x00, 0x00, 0x00, 0x09, 0x30, 0x00, 0x00, 0x00,
  0xcc, 0xea, 0xff, 0xff, 0x08, 0x00, 0x00, 0x00, 0x10, 0x00, 0x00, 0x00,
  0x01, 0x00, 0x00, 0x00, 0x89, 0xff, 0xff, 0xff, 0xff, 0xff, 0xff, 0xff,
  0x01, 0x00, 0x00, 0x00, 0x09, 0xd1, 0x98, 0x3b, 0x07, 0x00, 0x00, 0x00,
  0x43, 0x6f, 0x6e, 0x73, 0x74, 0x5f, 0x31, 0x00, 0x03, 0x00, 0x00, 0x00,
  0x01, 0x00, 0x00, 0x00, 0x01, 0x00, 0x00, 0x00, 0x06, 0x00, 0x00, 0x00,
  0xa2, 0xeb, 0xff, 0xff, 0x00, 0x00, 0x00, 0x01, 0x14, 0x00, 0x00, 0x00,
  0x34, 0x00, 0x00, 0x00, 0x19, 0x00, 0x00, 0x00, 0x00, 0x00, 0x00, 0x09,
  0x98, 0x00, 0x00, 0x00, 0x24, 0xeb, 0xff, 0xff, 0x08, 0x00, 0x00, 0x00,
  0x14, 0x00, 0x00, 0x00, 0x01, 0x00, 0x00, 0x00, 0x80, 0xff, 0xff, 0xff,
  0xff, 0xff, 0xff, 0xff, 0x00, 0x00, 0x00, 0x00, 0x01, 0x00, 0x00, 0x00,
  0x28, 0x8d, 0x49, 0x3c, 0x69, 0x00, 0x00, 0x00, 0x46, 0x61, 0x6c, 0x6c,
  0x44, 0x65, 0x74, 0x65, 0x63, 0x74, 0x69, 0x6f, 0x6e, 0x5f, 0x56, 0x32,
  0x5f, 0x55, 0x6c, 0x74, 0x72, 0x61, 0x53, 0x6c, 0x69, 0x6d, 0x5f, 0x31,
  0x2f, 0x6e, 0x6f, 0x72, 0x6d, 0x61, 0x6c, 0x69, 0x7a, 0x61, 0x74, 0x69,
  0x6f, 0x6e, 0x5f, 0x31, 0x2f, 0x74, 0x72, 0x75, 0x65, 0x64, 0x69, 0x76,
  0x3b, 0x46, 0x61, 0x6c, 0x6c, 0x44, 0x65, 0x74, 0x65, 0x63, 0x74, 0x69,
  0x6f, 0x6e, 0x5f, 0x56, 0x32, 0x5f, 0x55, 0x6c, 0x74, 0x72, 0x61, 0x53,
  0x6c, 0x69, 0x6d, 0x5f, 0x31, 0x2f, 0x6e, 0x6f, 0x72, 0x6d, 0x61, 0x6c,
  0x69, 0x7a, 0x61, 0x74, 0x69, 0x6f, 0x6e, 0x5f, 0x31, 0x2f, 0x4d, 0x61,
  0x78, 0x69, 0x6d, 0x75, 0x6d, 0x00, 0x00, 0x00, 0x03, 0x00, 0x00, 0x00,
  0x01, 0x00, 0x00, 0x00, 0x01, 0x00, 0x00, 0x00, 0x06, 0x00, 0x00, 0x00,
  0x62, 0xec, 0xff, 0xff, 0x00, 0x00, 0x00, 0x01, 0x14, 0x00, 0x00, 0x00,
  0x88, 0x00, 0x00, 0x00, 0x18, 0x00, 0x00, 0x00, 0x00, 0x00, 0x00, 0x09,
  0xb4, 0x00, 0x00, 0x00, 0xe4, 0xeb, 0xff, 0xff, 0x08, 0x00, 0x00, 0x00,
  0x4c, 0x00, 0x00, 0x00, 0x08, 0x00, 0x00, 0x00, 0x00, 0x00, 0x00, 0x00,
  0x00, 0x00, 0x00, 0x00, 0x00, 0x00, 0x00, 0x00, 0x00, 0x00, 0x00, 0x00,
  0x00, 0x00, 0x00, 0x00, 0x00, 0x00, 0x00, 0x00, 0x00, 0x00, 0x00, 0x00,
  0x00, 0x00, 0x00, 0x00, 0x00, 0x00, 0x00, 0x00, 0x00, 0x00, 0x00, 0x00,
  0x00, 0x00, 0x00, 0x00, 0x00, 0x00, 0x00, 0x00, 0x00, 0x00, 0x00, 0x00,
  0x00, 0x00, 0x00, 0x00, 0x00, 0x00, 0x00, 0x00, 0x00, 0x00, 0x00, 0x00,
  0x00, 0x00, 0x00, 0x00, 0x08, 0x00, 0x00, 0x00, 0xc7, 0xc2, 0x36, 0x3b,
  0xfc, 0xd3, 0x6f, 0x3b, 0x71, 0x05, 0x61, 0x3b, 0x59, 0xfc, 0x66, 0x3b,
  0xeb, 0xc4, 0x42, 0x3b, 0x43, 0x89, 0x61, 0x3b, 0xf3, 0x01, 0x44, 0x3b,
  0x81, 0xbb, 0x7e, 0x3b, 0x31, 0x00, 0x00, 0x00, 0x46, 0x61, 0x6c, 0x6c,
  0x44, 0x65, 0x74, 0x65, 0x63, 0x74, 0x69, 0x6f, 0x6e, 0x5f, 0x56, 0x32,
  0x5f, 0x55, 0x6c, 0x74, 0x72, 0x61, 0x53, 0x6c, 0x69, 0x6d, 0x5f, 0x31,
  0x2f, 0x63, 0x6f, 0x6e, 0x76, 0x31, 0x64, 0x5f, 0x31, 0x2f, 0x63, 0x6f,
  0x6e, 0x76, 0x6f, 0x6c, 0x75, 0x74, 0x69, 0x6f, 0x6e, 0x00, 0x00, 0x00,
  0x04, 0x00, 0x00, 0x00, 0x08, 0x00, 0x00, 0x00, 0x01, 0x00, 0x00, 0x00,
  0x03, 0x00, 0x00, 0x00, 0x06, 0x00, 0x00, 0x00, 0x42, 0xed, 0xff, 0xff,
  0x00, 0x00, 0x00, 0x01, 0x14, 0x00, 0x00, 0x00, 0x84, 0x00, 0x00, 0x00,
  0x17, 0x00, 0x00, 0x00, 0x00, 0x00, 0x00, 0x02, 0x70, 0x01, 0x00, 0x00,
  0xc4, 0xec, 0xff, 0xff, 0x08, 0x00, 0x00, 0x00, 0x48, 0x00, 0x00, 0x00,
  0x08, 0x00, 0x00, 0x00, 0x00, 0x00, 0x00, 0x00, 0x00, 0x00, 0x00, 0x00,
  0x00, 0x00, 0x00, 0x00, 0x00, 0x00, 0x00, 0x00, 0x00, 0x00, 0x00, 0x00,
  0x00, 0x00, 0x00, 0x00, 0x00, 0x00, 0x00, 0x00, 0x00, 0x00, 0x00, 0x00,
  0x00, 0x00, 0x00, 0x00, 0x00, 0x00, 0x00, 0x00, 0x00, 0x00, 0x00, 0x00,
  0x00, 0x00, 0x00, 0x00, 0x00, 0x00, 0x00, 0x00, 0x00, 0x00, 0x00, 0x00,
  0x00, 0x00, 0x00, 0x00, 0x00, 0x00, 0x00, 0x00, 0x08, 0x00, 0x00, 0x00,
  0xb1, 0x84, 0x89, 0x3a, 0x62, 0x75, 0xb4, 0x3a, 0x31, 0x51, 0xa9, 0x3a,
  0x1c, 0xce, 0xad, 0x3a, 0xd4, 0x8d, 0x92, 0x3a, 0x61, 0xb4, 0xa9, 0x3a,
  0x60, 0x7c, 0x93, 0x3a, 0x5e, 0xac, 0xbf, 0x3a, 0xf2, 0x00, 0x00, 0x00,
  0x46, 0x61, 0x6c, 0x6c, 0x44, 0x65, 0x74, 0x65, 0x63, 0x74, 0x69, 0x6f,
  0x6e, 0x5f, 0x56, 0x32, 0x5f, 0x55, 0x6c, 0x74, 0x72, 0x61, 0x53, 0x6c,
  0x69, 0x6d, 0x5f, 0x31, 0x2f, 0x63, 0x6f, 0x6e, 0x76, 0x31, 0x64, 0x5f,
  0x31, 0x2f, 0x52, 0x65, 0x6c, 0x75, 0x3b, 0x46, 0x61, 0x6c, 0x6c, 0x44,
  0x65, 0x74, 0x65, 0x63, 0x74, 0x69, 0x6f, 0x6e, 0x5f, 0x56, 0x32, 0x5f,
  0x55, 0x6c, 0x74, 0x72, 0x61, 0x53, 0x6c, 0x69, 0x6d, 0x5f, 0x31, 0x2f,
  0x63, 0x6f, 0x6e, 0x76, 0x31, 0x64, 0x5f, 0x31, 0x2f, 0x42, 0x69, 0x61,
  0x73, 0x41, 0x64, 0x64, 0x3b, 0x46, 0x61, 0x6c, 0x6c, 0x44, 0x65, 0x74,
  0x65, 0x63, 0x74, 0x69, 0x6f, 0x6e, 0x5f, 0x56, 0x32, 0x5f, 0x55, 0x6c,
  0x74, 0x72, 0x61, 0x53, 0x6c, 0x69, 0x6d, 0x5f, 0x31, 0x2f, 0x63, 0x6f,
  0x6e, 0x76, 0x31, 0x64, 0x5f, 0x31, 0x2f, 0x63, 0x6f, 0x6e, 0x76, 0x6f,
  0x6c, 0x75, 0x74, 0x69, 0x6f, 0x6e, 0x2f, 0x53, 0x71, 0x75, 0x65, 0x65,
  0x7a, 0x65, 0x3b, 0x46, 0x61, 0x6c, 0x6c, 0x44, 0x65, 0x74, 0x65, 0x63,
  0x74, 0x69, 0x6f, 0x6e, 0x5f, 0x56, 0x32, 0x5f, 0x55, 0x6c, 0x74, 0x72,
  0x61, 0x53, 0x6c, 0x69, 0x6d, 0x5f, 0x31, 0x2f, 0x63, 0x6f, 0x6e, 0x76,
  0x31, 0x64, 0x5f, 0x31, 0x2f, 0x53, 0x71, 0x75, 0x65, 0x65, 0x7a, 0x65,
  0x3b, 0x46, 0x61, 0x6c, 0x6c, 0x44, 0x65, 0x74, 0x65, 0x63, 0x74, 0x69,
  0x6f, 0x6e, 0x5f, 0x56, 0x32, 0x5f, 0x55, 0x6c, 0x74, 0x72, 0x61, 0x53,
  0x6c, 0x69, 0x6d, 0x5f, 0x31, 0x2f, 0x63, 0x6f, 0x6e, 0x76, 0x31, 0x64,
  0x5f, 0x31, 0x2f, 0x63, 0x6f, 0x6e, 0x76, 0x6f, 0x6c, 0x75, 0x74, 0x69,
  0x6f, 0x6e, 0x00, 0x00, 0x01, 0x00, 0x00, 0x00, 0x08, 0x00, 0x00, 0x00,
  0xd2, 0xee, 0xff, 0xff, 0x00, 0x00, 0x00, 0x01, 0x14, 0x00, 0x00, 0x00,
  0x34, 0x00, 0x00, 0x00, 0x16, 0x00, 0x00, 0x00, 0x00, 0x00, 0x00, 0x09,
  0x70, 0x00, 0x00, 0x00, 0x54, 0xee, 0xff, 0xff, 0x08, 0x00, 0x00, 0x00,
  0x14, 0x00, 0x00, 0x00, 0x01, 0x00, 0x00, 0x00, 0x80, 0xff, 0xff, 0xff,
  0xff, 0xff, 0xff, 0xff, 0x00, 0x00, 0x00, 0x00, 0x01, 0x00, 0x00, 0x00,
  0x4c, 0xf8, 0x2d, 0x3c, 0x40, 0x00, 0x00, 0x00, 0x46, 0x61, 0x6c, 0x6c,
  0x44, 0x65, 0x74, 0x65, 0x63, 0x74, 0x69, 0x6f, 0x6e, 0x5f, 0x56, 0x32,
  0x5f, 0x55, 0x6c, 0x74, 0x72, 0x61, 0x53, 0x6c, 0x69, 0x6d, 0x5f, 0x31,
  0x2f, 0x62, 0x61, 0x74, 0x63, 0x68, 0x5f, 0x6e, 0x6f, 0x72, 0x6d, 0x61,
  0x6c, 0x69, 0x7a, 0x61, 0x74, 0x69, 0x6f, 0x6e, 0x5f, 0x31, 0x2f, 0x62,
  0x61, 0x74, 0x63, 0x68, 0x6e, 0x6f, 0x72, 0x6d, 0x2f, 0x6d, 0x75, 0x6c,
  0x00, 0x00, 0x00, 0x00, 0x01, 0x00, 0x00, 0x00, 0x08, 0x00, 0x00, 0x00,
  0x62, 0xef, 0xff, 0xff, 0x00, 0x00, 0x00, 0x01, 0x14, 0x00, 0x00, 0x00,
  0x34, 0x00, 0x00, 0x00, 0x15, 0x00, 0x00, 0x00, 0x00, 0x00, 0x00, 0x09,
  0x70, 0x00, 0x00, 0x00, 0xe4, 0xee, 0xff, 0xff, 0x08, 0x00, 0x00, 0x00,
  0x14, 0x00, 0x00, 0x00, 0x01, 0x00, 0x00, 0x00, 0x7f, 0x00, 0x00, 0x00,
  0x00, 0x00, 0x00, 0x00, 0x00, 0x00, 0x00, 0x00, 0x01, 0x00, 0x00, 0x00,
  0xce, 0xab, 0x18, 0x3b, 0x40, 0x00, 0x00, 0x00, 0x46, 0x61, 0x6c, 0x6c,
  0x44, 0x65, 0x74, 0x65, 0x63, 0x74, 0x69, 0x6f, 0x6e, 0x5f, 0x56, 0x32,
  0x5f, 0x55, 0x6c, 0x74, 0x72, 0x61, 0x53, 0x6c, 0x69, 0x6d, 0x5f, 0x31,
  0x2f, 0x62, 0x61, 0x74, 0x63, 0x68, 0x5f, 0x6e, 0x6f, 0x72, 0x6d, 0x61,
  0x6c, 0x69, 0x7a, 0x61, 0x74, 0x69, 0x6f, 0x6e, 0x5f, 0x31, 0x2f, 0x62,
  0x61, 0x74, 0x63, 0x68, 0x6e, 0x6f, 0x72, 0x6d, 0x2f, 0x73, 0x75, 0x62,
  0x00, 0x00, 0x00, 0x00, 0x01, 0x00, 0x00, 0x00, 0x08, 0x00, 0x00, 0x00,
  0xf2, 0xef, 0xff, 0xff, 0x00, 0x00, 0x00, 0x01, 0x14, 0x00, 0x00, 0x00,
  0xe8, 0x00, 0x00, 0x00, 0x14, 0x00, 0x00, 0x00, 0x00, 0x00, 0x00, 0x09,
  0x14, 0x01, 0x00, 0x00, 0x74, 0xef, 0xff, 0xff, 0x08, 0x00, 0x00, 0x00,
  0x8c, 0x00, 0x00, 0x00, 0x10, 0x00, 0x00, 0x00, 0x00, 0x00, 0x00, 0x00,
  0x00, 0x00, 0x00, 0x00, 0x00, 0x00, 0x00, 0x00, 0x00, 0x00, 0x00, 0x00,
  0x00, 0x00, 0x00, 0x00, 0x00, 0x00, 0x00, 0x00, 0x00, 0x00, 0x00, 0x00,
  0x00, 0x00, 0x00, 0x00, 0x00, 0x00, 0x00, 0x00, 0x00, 0x00, 0x00, 0x00,
  0x00, 0x00, 0x00, 0x00, 0x00, 0x00, 0x00, 0x00, 0x00, 0x00, 0x00, 0x00,
  0x00, 0x00, 0x00, 0x00, 0x00, 0x00, 0x00, 0x00, 0x00, 0x00, 0x00, 0x00,
  0x00, 0x00, 0x00, 0x00, 0x00, 0x00, 0x00, 0x00, 0x00, 0x00, 0x00, 0x00,
  0x00, 0x00, 0x00, 0x00, 0x00, 0x00, 0x00, 0x00, 0x00, 0x00, 0x00, 0x00,
  0x00, 0x00, 0x00, 0x00, 0x00, 0x00, 0x00, 0x00, 0x00, 0x00, 0x00, 0x00,
  0x00, 0x00, 0x00, 0x00, 0x00, 0x00, 0x00, 0x00, 0x00, 0x00, 0x00, 0x00,
  0x00, 0x00, 0x00, 0x00, 0x00, 0x00, 0x00, 0x00, 0x00, 0x00, 0x00, 0x00,
  0x00, 0x00, 0x00, 0x00, 0x00, 0x00, 0x00, 0x00, 0x10, 0x00, 0x00, 0x00,
  0x34, 0x86, 0x4f, 0x3b, 0x5a, 0x0e, 0x29, 0x3b, 0x31, 0x86, 0x5f, 0x3b,
  0x5d, 0x6a, 0x36, 0x3b, 0x4f, 0xc7, 0x58, 0x3b, 0x23, 0x33, 0x0b, 0x3b,
  0x3e, 0x52, 0x11, 0x3b, 0x3b, 0x4b, 0x2a, 0x3b, 0xd1, 0x5a, 0x0f, 0x3b,
  0x38, 0xa4, 0x12, 0x3b, 0xbd, 0x84, 0x15, 0x3b, 0x3a, 0x3e, 0x1c, 0x3b,
  0x69, 0x15, 0x13, 0x3b, 0xdd, 0x32, 0x12, 0x3b, 0xe5, 0x14, 0x21, 0x3b,
  0x92, 0x9d, 0x2c, 0x3b, 0x33, 0x00, 0x00, 0x00, 0x46, 0x61, 0x6c, 0x6c,
  0x44, 0x65, 0x74, 0x65, 0x63, 0x74, 0x69, 0x6f, 0x6e, 0x5f, 0x56, 0x32,
  0x5f, 0x55, 0x6c, 0x74, 0x72, 0x61, 0x53, 0x6c, 0x69, 0x6d, 0x5f, 0x31,
  0x2f, 0x63, 0x6f, 0x6e, 0x76, 0x31, 0x64, 0x5f, 0x31, 0x5f, 0x32, 0x2f,
  0x63, 0x6f, 0x6e, 0x76, 0x6f, 0x6c, 0x75, 0x74, 0x69, 0x6f, 0x6e, 0x00,
  0x04, 0x00, 0x00, 0x00, 0x10, 0x00, 0x00, 0x00, 0x01, 0x00, 0x00, 0x00,
  0x03, 0x00, 0x00, 0x00, 0x08, 0x00, 0x00, 0x00, 0x32, 0xf1, 0xff, 0xff,
  0x00, 0x00, 0x00, 0x01, 0x14, 0x00, 0x00, 0x00, 0xe8, 0x00, 0x00, 0x00,
  0x13, 0x00, 0x00, 0x00, 0x00, 0x00, 0x00, 0x02, 0xe0, 0x01, 0x00, 0x00,
  0xb4, 0xf0, 0xff, 0xff, 0x08, 0x00, 0x00, 0x00, 0x8c, 0x00, 0x00, 0x00,
  0x10, 0x00, 0x00, 0x00, 0x00, 0x00, 0x00, 0x00, 0x00, 0x00, 0x00, 0x00,
  0x00, 0x00, 0x00, 0x00, 0x00, 0x00, 0x00, 0x00, 0x00, 0x00, 0x00, 0x00,
  0x00, 0x00, 0x00, 0x00, 0x00, 0x00, 0x00, 0x00, 0x00, 0x00, 0x00, 0x00,
  0x00, 0x00, 0x00, 0x00, 0x00, 0x00, 0x00, 0x00, 0x00, 0x00, 0x00, 0x00,
  0x00, 0x00, 0x00, 0x00, 0x00, 0x00, 0x00, 0x00, 0x00, 0x00, 0x00, 0x00,
  0x00, 0x00, 0x00, 0x00, 0x00, 0x00, 0x00, 0x00, 0x00, 0x00, 0x00, 0x00,
  0x00, 0x00, 0x00, 0x00, 0x00, 0x00, 0x00, 0x00, 0x00, 0x00, 0x00, 0x00,
  0x00, 0x00, 0x00, 0x00, 0x00, 0x00, 0x00, 0x00, 0x00, 0x00, 0x00, 0x00,
  0x00, 0x00, 0x00, 0x00, 0x00, 0x00, 0x00, 0x00, 0x00, 0x00, 0x00, 0x00,
  0x00, 0x00, 0x00, 0x00, 0x00, 0x00, 0x00, 0x00, 0x00, 0x00, 0x00, 0x00,
  0x00, 0x00, 0x00, 0x00, 0x00, 0x00, 0x00, 0x00, 0x00, 0x00, 0x00, 0x00,
  0x00, 0x00, 0x00, 0x00, 0x10, 0x00, 0x00, 0x00, 0x0b, 0x6d, 0x30, 0x3a,
  0xee, 0xb8, 0x0f, 0x3a, 0x3c, 0x07, 0x3e, 0x3a, 0x71, 0x14, 0x1b, 0x3a,
  0x22, 0x4b, 0x38, 0x3a, 0x29, 0xae, 0xec, 0x39, 0xb2, 0x16, 0xf7, 0x39,
  0x53, 0xc6, 0x10, 0x3a, 0xba, 0xbe, 0xf3, 0x39, 0x5b, 0x55, 0xf9, 0x39,
  0xa8, 0x39, 0xfe, 0x39, 0x58, 0xd4, 0x04, 0x3a, 0xd0, 0x15, 0xfa, 0x39,
